unsigned char model_speech_model_tflite[] = {
  0x1c, 0x00, 0x00, 0x00, 0x54, 0x46, 0x4c, 0x33, 0x00, 0x00, 0x12, 0x00,
  0x1c, 0x00, 0x04, 0x00, 0x08, 0x00, 0x0c, 0x00, 0x10, 0x00, 0x14, 0x00,
  0x00, 0x00, 0x18, 0x00, 0x12, 0x00, 0x00, 0x00, 0x03, 0x00, 0x00, 0x00,
  0x7c, 0x85, 0x00, 0x00, 0x10, 0x00, 0x00, 0x00, 0x1c, 0x00, 0x00, 0x00,
  0x2c, 0x00, 0x00, 0x00, 0x0c, 0x00, 0x00, 0x00, 0x01, 0x00, 0x00, 0x00,
  0xc0, 0x00, 0x00, 0x00, 0x01, 0x00, 0x00, 0x00, 0x94, 0x00, 0x00, 0x00,
  0x0f, 0x00, 0x00, 0x00, 0x54, 0x4f, 0x43, 0x4f, 0x20, 0x43, 0x6f, 0x6e,
  0x76, 0x65, 0x72, 0x74, 0x65, 0x64, 0x2e, 0x00, 0x0a, 0x00, 0x00, 0x00,
  0x60, 0x00, 0x00, 0x00, 0x54, 0x00, 0x00, 0x00, 0x48, 0x00, 0x00, 0x00,
  0x3c, 0x00, 0x00, 0x00, 0x34, 0x00, 0x00, 0x00, 0x2c, 0x00, 0x00, 0x00,
  0x24, 0x00, 0x00, 0x00, 0x18, 0x00, 0x00, 0x00, 0x10, 0x00, 0x00, 0x00,
  0x04, 0x00, 0x00, 0x00, 0xae, 0x7b, 0xff, 0xff, 0x38, 0x00, 0x00, 0x00,
  0x5c, 0x7b, 0xff, 0xff, 0xba, 0x7b, 0xff, 0xff, 0x9c, 0x01, 0x00, 0x00,
  0x68, 0x7b, 0xff, 0xff, 0x6c, 0x7b, 0xff, 0xff, 0x70, 0x7b, 0xff, 0xff,
  0xce, 0x7b, 0xff, 0xff, 0xa8, 0x05, 0x00, 0x00, 0xd6, 0x7b, 0xff, 0xff,
  0x4c, 0x06, 0x00, 0x00, 0xde, 0x7b, 0xff, 0xff, 0xb8, 0x83, 0x00, 0x00,
  0x8c, 0x7b, 0xff, 0xff, 0x05, 0x00, 0x00, 0x00, 0x31, 0x2e, 0x35, 0x2e,
  0x30, 0x00, 0x00, 0x00, 0x08, 0x00, 0x0c, 0x00, 0x04, 0x00, 0x08, 0x00,
  0x08, 0x00, 0x00, 0x00, 0x08, 0x00, 0x00, 0x00, 0x09, 0x00, 0x00, 0x00,
  0x13, 0x00, 0x00, 0x00, 0x6d, 0x69, 0x6e, 0x5f, 0x72, 0x75, 0x6e, 0x74,
  0x69, 0x6d, 0x65, 0x5f, 0x76, 0x65, 0x72, 0x73, 0x69, 0x6f, 0x6e, 0x00,
  0x40, 0xfa, 0xff, 0xff, 0x20, 0x00, 0x00, 0x00, 0x14, 0x00, 0x00, 0x00,
  0x08, 0x00, 0x00, 0x00, 0x8c, 0x83, 0x00, 0x00, 0x01, 0x00, 0x00, 0x00,
  0x07, 0x00, 0x00, 0x00, 0x01, 0x00, 0x00, 0x00, 0x03, 0x00, 0x00, 0x00,
  0x08, 0x00, 0x00, 0x00, 0xdc, 0x04, 0x00, 0x00, 0xec, 0x82, 0x00, 0x00,
  0x8c, 0x03, 0x00, 0x00, 0x14, 0x00, 0x00, 0x00, 0xf4, 0x03, 0x00, 0x00,
  0x40, 0x05, 0x00, 0x00, 0x7c, 0x00, 0x00, 0x00, 0x50, 0x04, 0x00, 0x00,
  0x3e, 0x7d, 0xff, 0xff, 0x00, 0x00, 0x00, 0x03, 0x10, 0x00, 0x00, 0x00,
  0x08, 0x00, 0x00, 0x00, 0x1c, 0x00, 0x00, 0x00, 0x28, 0x00, 0x00, 0x00,
  0x04, 0x00, 0x00, 0x00, 0x01, 0x00, 0x00, 0x00, 0x31, 0x00, 0x00, 0x00,
  0x28, 0x00, 0x00, 0x00, 0x01, 0x00, 0x00, 0x00, 0x09, 0x00, 0x00, 0x00,
  0x52, 0x65, 0x73, 0x68, 0x61, 0x70, 0x65, 0x5f, 0x32, 0x00, 0x00, 0x00,
  0xc4, 0xfa, 0xff, 0xff, 0x2c, 0x00, 0x00, 0x00, 0x20, 0x00, 0x00, 0x00,
  0x14, 0x00, 0x00, 0x00, 0x04, 0x00, 0x00, 0x00, 0x01, 0x00, 0x00, 0x00,
  0x00, 0x00, 0x00, 0x00, 0x00, 0x00, 0x00, 0x00, 0x01, 0x00, 0x00, 0x00,
  0xc6, 0xd0, 0xd0, 0x3d, 0x01, 0x00, 0x00, 0x00, 0xf5, 0xff, 0xcf, 0x41,
  0x01, 0x00, 0x00, 0x00, 0x00, 0x00, 0x00, 0x00, 0xb2, 0x7d, 0xff, 0xff,
  0x00, 0x00, 0x00, 0x03, 0x10, 0x00, 0x00, 0x00, 0x07, 0x00, 0x00, 0x00,
  0x1c, 0x00, 0x00, 0x00, 0x2c, 0x00, 0x00, 0x00, 0x04, 0x00, 0x00, 0x00,
  0x01, 0x00, 0x00, 0x00, 0x0a, 0x00, 0x00, 0x00, 0x08, 0x00, 0x00, 0x00,
  0x08, 0x00, 0x00, 0x00, 0x0d, 0x00, 0x00, 0x00, 0x66, 0x69, 0x72, 0x73,
  0x74, 0x5f, 0x77, 0x65, 0x69, 0x67, 0x68, 0x74, 0x73, 0x00, 0x00, 0x00,
  0x3c, 0xfb, 0xff, 0xff, 0x30, 0x00, 0x00, 0x00, 0x24, 0x00, 0x00, 0x00,
  0x18, 0x00, 0x00, 0x00, 0x04, 0x00, 0x00, 0x00, 0x01, 0x00, 0x00, 0x00,
  0x8b, 0x00, 0x00, 0x00, 0x00, 0x00, 0x00, 0x00, 0x00, 0x00, 0x00, 0x00,
  0x01, 0x00, 0x00, 0x00, 0xa4, 0x12, 0xab, 0x3a, 0x01, 0x00, 0x00, 0x00,
  0x49, 0x75, 0x1a, 0x3e, 0x01, 0x00, 0x00, 0x00, 0xda, 0x59, 0x3a, 0xbe,
  0x80, 0x02, 0x00, 0x00, 0x8d, 0x99, 0x6c, 0x82, 0x13, 0x95, 0x69, 0x61,
  0x92, 0x8e, 0x45, 0xa1, 0x7a, 0xa7, 0x7c, 0x83, 0x8a, 0xa2, 0xa0, 0x87,
  0xaa, 0x7b, 0x7b, 0x44, 0x96, 0x71, 0x71, 0x82, 0x96, 0x86, 0x86, 0x78,
  0x87, 0xb0, 0xb8, 0x66, 0xa2, 0x55, 0x95, 0x3e, 0x8d, 0x69, 0x99, 0x81,
  0xa4, 0x65, 0xac, 0x76, 0x8e, 0xb2, 0xad, 0x70, 0xaa, 0x70, 0xab, 0x50,
  0x87, 0x62, 0xa2, 0xa2, 0xbb, 0x6e, 0xb9, 0x8b, 0x7e, 0x9b, 0x7e, 0x77,
  0x1b, 0xa7, 0x70, 0x77, 0x8a, 0x91, 0x56, 0x8b, 0x61, 0xc3, 0x79, 0x95,
  0x89, 0xb6, 0xaa, 0x82, 0x9c, 0x81, 0x75, 0x65, 0x97, 0x6b, 0x7f, 0x76,
  0x8d, 0x91, 0x7a, 0x97, 0x93, 0xd1, 0xb0, 0x63, 0xad, 0x50, 0x94, 0x7e,
  0x90, 0x62, 0x9a, 0x75, 0xa0, 0x70, 0x9e, 0x9a, 0x80, 0xd5, 0x92, 0x70,
  0xb3, 0x55, 0xa3, 0x8a, 0x84, 0x63, 0x9d, 0x91, 0xad, 0x6e, 0xb6, 0xa9,
  0x8b, 0x8a, 0x9c, 0x74, 0x28, 0x99, 0x7c, 0x87, 0x90, 0x7d, 0x63, 0x86,
  0x56, 0xc6, 0x75, 0xaf, 0x88, 0xbd, 0xbe, 0x81, 0x91, 0x96, 0x82, 0x8e,
  0x8c, 0x64, 0x84, 0x73, 0x7c, 0x9f, 0x7a, 0xb3, 0x8e, 0xe2, 0x9a, 0x64,
  0xac, 0x63, 0x86, 0x98, 0x90, 0x5c, 0x8e, 0x75, 0x95, 0x75, 0x97, 0xb6,
  0x92, 0xef, 0x73, 0x7b, 0xb7, 0x59, 0x9c, 0x9b, 0x84, 0x65, 0x80, 0xa9,
  0x92, 0x60, 0xa9, 0xa8, 0x84, 0x74, 0xc7, 0x6f, 0x33, 0x95, 0x8d, 0x84,
  0x93, 0x79, 0x77, 0x83, 0x53, 0xca, 0x78, 0xb8, 0x8d, 0xb6, 0xcf, 0x7b,
  0x7e, 0x9d, 0x7a, 0x9c, 0x84, 0x65, 0x8f, 0x71, 0x77, 0xb0, 0x75, 0xc1,
  0x8b, 0xe9, 0x8e, 0x67, 0xa6, 0x74, 0x7d, 0x99, 0x89, 0x69, 0x8a, 0x8c,
  0xad, 0x7e, 0x95, 0xb0, 0x83, 0xff, 0x67, 0x82, 0xc4, 0x6f, 0x84, 0x83,
  0x7c, 0x73, 0x67, 0xa0, 0xb2, 0x66, 0xa1, 0x8e, 0x87, 0x60, 0xf6, 0x70,
  0x39, 0x88, 0x9b, 0x8a, 0x88, 0x6f, 0x8b, 0x77, 0x55, 0xb6, 0x79, 0xa8,
  0x96, 0xa5, 0xde, 0x77, 0x70, 0xa0, 0x72, 0xa5, 0x81, 0x68, 0x88, 0x6d,
  0x72, 0xa6, 0x6d, 0xa6, 0x8b, 0xd2, 0x88, 0x6a, 0xa1, 0x95, 0x5b, 0x93,
  0x7e, 0x71, 0x76, 0x90, 0xaa, 0x88, 0x80, 0x90, 0x81, 0xf5, 0x6d, 0x7c,
  0xd0, 0x85, 0x56, 0x80, 0x88, 0x77, 0x51, 0xb4, 0xb1, 0x70, 0x7e, 0x7a,
  0x85, 0x51, 0xfd, 0x78, 0x4b, 0x75, 0xb6, 0x8f, 0x8e, 0x67, 0x92, 0x77,
  0x44, 0xaa, 0x8c, 0x75, 0x7f, 0x91, 0xde, 0x81, 0x61, 0x97, 0x85, 0x8e,
  0x88, 0x6a, 0x7a, 0x72, 0x4f, 0xae, 0x79, 0x6b, 0x90, 0xbd, 0x88, 0x75,
  0xa0, 0xa3, 0x55, 0x7c, 0x81, 0x79, 0x68, 0x8f, 0x9a, 0x97, 0x7b, 0x67,
  0x8b, 0xe2, 0x75, 0x8a, 0xdd, 0xa8, 0x49, 0x7c, 0x8d, 0x7e, 0x4c, 0xb8,
  0xb9, 0x89, 0x6d, 0x59, 0x86, 0x52, 0xfb, 0x6b, 0x4f, 0x65, 0xcb, 0x82,
  0x8e, 0x6d, 0x8f, 0x83, 0x42, 0x8b, 0xa3, 0x59, 0x8f, 0x86, 0xda, 0x81,
  0x5e, 0x72, 0xa8, 0x81, 0x84, 0x74, 0x70, 0x79, 0x45, 0x9b, 0x82, 0x62,
  0x7c, 0xaa, 0x83, 0x73, 0x7c, 0x9f, 0x69, 0x78, 0x85, 0x84, 0x62, 0x95,
  0x95, 0xa6, 0x7e, 0x64, 0x8f, 0xc8, 0x70, 0x95, 0xd4, 0xbd, 0x52, 0x7f,
  0x7f, 0x88, 0x4c, 0xc7, 0xbf, 0x92, 0x5d, 0x67, 0x89, 0x5a, 0xe1, 0x74,
  0x6c, 0x5b, 0xd1, 0x74, 0x8a, 0x74, 0x8e, 0x82, 0x48, 0x72, 0xaa, 0x5b,
  0x8d, 0x7c, 0xcb, 0x7c, 0x62, 0x65, 0xbf, 0x83, 0x89, 0x81, 0x70, 0x78,
  0x4c, 0x85, 0x90, 0x61, 0x80, 0x9c, 0x80, 0x73, 0x6a, 0x8a, 0x84, 0x89,
  0x85, 0x90, 0x63, 0x9e, 0x74, 0xac, 0x74, 0x6e, 0x92, 0xb1, 0x76, 0x97,
  0xbe, 0xbe, 0x61, 0x82, 0x85, 0x8d, 0x62, 0xcd, 0xb7, 0xa7, 0x5b, 0x71,
  0x84, 0x59, 0xd2, 0x6e, 0x6e, 0x4f, 0xdb, 0x8e, 0x99, 0x79, 0x88, 0x86,
  0x38, 0x82, 0xae, 0x79, 0x8c, 0x79, 0xc1, 0x83, 0x66, 0x58, 0xd0, 0xa3,
  0x8b, 0x8b, 0x6a, 0x7e, 0x40, 0x7e, 0x9b, 0x7c, 0x87, 0x8c, 0x73, 0x7b,
  0x60, 0x79, 0xa4, 0xac, 0x8e, 0x97, 0x68, 0x9c, 0x35, 0x9f, 0x7a, 0x91,
  0x8b, 0x9b, 0x72, 0x95, 0x8e, 0x9f, 0x79, 0xa8, 0x87, 0x90, 0x66, 0xc8,
  0x6c, 0xae, 0x4f, 0x8f, 0x89, 0x5e, 0xbb, 0x6c, 0x6f, 0x4f, 0xbe, 0x95,
  0x85, 0x74, 0x84, 0x8a, 0x40, 0x50, 0x96, 0x94, 0x94, 0x78, 0xab, 0x86,
  0x5b, 0x4c, 0xcb, 0xad, 0x8d, 0x8e, 0x66, 0x7e, 0x31, 0x54, 0x96, 0x9e,
  0x82, 0x82, 0x6b, 0x80, 0x56, 0x5a, 0xbf, 0xb7, 0x84, 0x98, 0x74, 0xa6,
  0x00, 0x7a, 0x83, 0xa8, 0x8d, 0x89, 0x6f, 0x9b, 0x70, 0x89, 0x9d, 0xaf,
  0x85, 0x88, 0x71, 0xcf, 0x15, 0x8c, 0x5a, 0x99, 0xb2, 0x80, 0xff, 0xff,
  0x00, 0x00, 0x00, 0x03, 0x10, 0x00, 0x00, 0x00, 0x06, 0x00, 0x00, 0x00,
  0x1c, 0x00, 0x00, 0x00, 0x24, 0x00, 0x00, 0x00, 0x04, 0x00, 0x00, 0x00,
  0x01, 0x00, 0x00, 0x00, 0x19, 0x00, 0x00, 0x00, 0x14, 0x00, 0x00, 0x00,
  0x08, 0x00, 0x00, 0x00, 0x04, 0x00, 0x00, 0x00, 0x52, 0x65, 0x6c, 0x75,
  0x00, 0x00, 0x00, 0x00, 0x34, 0xfe, 0xff, 0xff, 0x2c, 0x00, 0x00, 0x00,
  0x20, 0x00, 0x00, 0x00, 0x14, 0x00, 0x00, 0x00, 0x04, 0x00, 0x00, 0x00,
  0x01, 0x00, 0x00, 0x00, 0x00, 0x00, 0x00, 0x00, 0x00, 0x00, 0x00, 0x00,
  0x01, 0x00, 0x00, 0x00, 0x00, 0x00, 0x80, 0x3f, 0x01, 0x00, 0x00, 0x00,
  0x00, 0x00, 0x7f, 0x43, 0x01, 0x00, 0x00, 0x00, 0x00, 0x00, 0x00, 0x00,
  0x22, 0x81, 0xff, 0xff, 0x00, 0x00, 0x00, 0x03, 0x10, 0x00, 0x00, 0x00,
  0x05, 0x00, 0x00, 0x00, 0x14, 0x00, 0x00, 0x00, 0x1c, 0x00, 0x00, 0x00,
  0x02, 0x00, 0x00, 0x00, 0x01, 0x00, 0x00, 0x00, 0x08, 0x00, 0x00, 0x00,
  0x05, 0x00, 0x00, 0x00, 0x61, 0x64, 0x64, 0x5f, 0x31, 0x00, 0x00, 0x00,
  0x9c, 0xfe, 0xff, 0xff, 0x2c, 0x00, 0x00, 0x00, 0x20, 0x00, 0x00, 0x00,
  0x14, 0x00, 0x00, 0x00, 0x04, 0x00, 0x00, 0x00, 0x01, 0x00, 0x00, 0x00,
  0x00, 0x00, 0x00, 0x00, 0x00, 0x00, 0x00, 0x00, 0x01, 0x00, 0x00, 0x00,
  0x00, 0x00, 0x80, 0x3f, 0x01, 0x00, 0x00, 0x00, 0x00, 0x00, 0x7f, 0x43,
  0x01, 0x00, 0x00, 0x00, 0x00, 0x00, 0x00, 0x00, 0x8a, 0x81, 0xff, 0xff,
  0x00, 0x00, 0x00, 0x03, 0x10, 0x00, 0x00, 0x00, 0x04, 0x00, 0x00, 0x00,
  0x14, 0x00, 0x00, 0x00, 0x24, 0x00, 0x00, 0x00, 0x02, 0x00, 0x00, 0x00,
  0x01, 0x00, 0x00, 0x00, 0x08, 0x00, 0x00, 0x00, 0x0e, 0x00, 0x00, 0x00,
  0x6c, 0x61, 0x62, 0x65, 0x6c, 0x73, 0x5f, 0x73, 0x6f, 0x66, 0x74, 0x6d,
  0x61, 0x78, 0x00, 0x00, 0x0c, 0xff, 0xff, 0xff, 0x2c, 0x00, 0x00, 0x00,
  0x20, 0x00, 0x00, 0x00, 0x14, 0x00, 0x00, 0x00, 0x04, 0x00, 0x00, 0x00,
  0x01, 0x00, 0x00, 0x00, 0x00, 0x00, 0x00, 0x00, 0x00, 0x00, 0x00, 0x00,
  0x01, 0x00, 0x00, 0x00, 0x00, 0x00, 0x80, 0x3b, 0x01, 0x00, 0x00, 0x00,
  0x00, 0x00, 0x7f, 0x3f, 0x01, 0x00, 0x00, 0x00, 0x00, 0x00, 0x00, 0x00,
  0xfa, 0x81, 0xff, 0xff, 0x00, 0x00, 0x00, 0x02, 0x10, 0x00, 0x00, 0x00,
  0x03, 0x00, 0x00, 0x00, 0x10, 0x00, 0x00, 0x00, 0x1c, 0x00, 0x00, 0x00,
  0x01, 0x00, 0x00, 0x00, 0x08, 0x00, 0x00, 0x00, 0x0b, 0x00, 0x00, 0x00,
  0x43, 0x6f, 0x6e, 0x76, 0x32, 0x44, 0x5f, 0x62, 0x69, 0x61, 0x73, 0x00,
  0xec, 0x81, 0xff, 0xff, 0x18, 0x00, 0x00, 0x00, 0x04, 0x00, 0x00, 0x00,
  0x01, 0x00, 0x00, 0x00, 0x00, 0x00, 0x00, 0x00, 0x00, 0x00, 0x00, 0x00,
  0x00, 0x00, 0x00, 0x00, 0x01, 0x00, 0x00, 0x00, 0xa9, 0x8a, 0x0b, 0x39,
  0x20, 0x00, 0x00, 0x00, 0x1c, 0x00, 0x00, 0x00, 0xf1, 0x01, 0x00, 0x00,
  0xef, 0xfa, 0xff, 0xff, 0xeb, 0x00, 0x00, 0x00, 0x35, 0x00, 0x00, 0x00,
  0x00, 0x00, 0x00, 0x00, 0x24, 0x00, 0x00, 0x00, 0x19, 0x00, 0x00, 0x00,
  0x72, 0x82, 0xff, 0xff, 0x00, 0x00, 0x00, 0x03, 0x10, 0x00, 0x00, 0x00,
  0x02, 0x00, 0x00, 0x00, 0x14, 0x00, 0x00, 0x00, 0x3c, 0x00, 0x00, 0x00,
  0x02, 0x00, 0x00, 0x00, 0x08, 0x00, 0x00, 0x00, 0xa0, 0x0f, 0x00, 0x00,
  0x1a, 0x00, 0x00, 0x00, 0x66, 0x69, 0x6e, 0x61, 0x6c, 0x5f, 0x66, 0x63,
  0x5f, 0x77, 0x65, 0x69, 0x67, 0x68, 0x74, 0x73, 0x2f, 0x74, 0x72, 0x61,
  0x6e, 0x73, 0x70, 0x6f, 0x73, 0x65, 0x00, 0x00, 0x0c, 0x00, 0x14, 0x00,
  0x04, 0x00, 0x08, 0x00, 0x0c, 0x00, 0x10, 0x00, 0x0c, 0x00, 0x00, 0x00,
  0x2c, 0x00, 0x00, 0x00, 0x20, 0x00, 0x00, 0x00, 0x14, 0x00, 0x00, 0x00,
  0x04, 0x00, 0x00, 0x00, 0x01, 0x00, 0x00, 0x00, 0x92, 0x00, 0x00, 0x00,
  0x00, 0x00, 0x00, 0x00, 0x01, 0x00, 0x00, 0x00, 0x8e, 0x0b, 0xf3, 0x39,
  0x01, 0x00, 0x00, 0x00, 0xb0, 0x12, 0x4f, 0x3d, 0x01, 0x00, 0x00, 0x00,
  0x2a, 0x8f, 0x8a, 0xbd, 0x00, 0x7d, 0x00, 0x00, 0x9b, 0x9a, 0xa2, 0x92,
  0xae, 0x8d, 0x9d, 0x8b, 0x95, 0x99, 0xb3, 0x90, 0x7f, 0xa1, 0x8b, 0x93,
  0x9f, 0xa3, 0xff, 0x6b, 0x9b, 0x99, 0x92, 0x8a, 0x6d, 0x90, 0x75, 0x88,
  0x9b, 0x8b, 0x6e, 0x99, 0x91, 0x7a, 0x7f, 0x8e, 0xa2, 0x94, 0x57, 0x9a,
  0x79, 0x6c, 0x6a, 0x85, 0x96, 0x8c, 0x5d, 0x8a, 0x9d, 0xb5, 0x98, 0x6f,
  0x8d, 0x7e, 0x62, 0x71, 0x98, 0x80, 0x98, 0x83, 0x8f, 0x78, 0x70, 0x95,
  0x84, 0x89, 0x84, 0x85, 0xa7, 0x85, 0x8a, 0xb4, 0x8b, 0x75, 0x98, 0x77,
  0x83, 0x9c, 0x92, 0x95, 0xa5, 0x97, 0xa8, 0x76, 0x9f, 0x85, 0x7a, 0x6c,
  0x7e, 0x82, 0x8b, 0x78, 0x7a, 0x98, 0x6e, 0xa3, 0x93, 0x78, 0xa0, 0x99,
  0x7e, 0x9e, 0x8b, 0x8d, 0x78, 0x96, 0x97, 0x83, 0x77, 0x85, 0x70, 0xa8,
  0xba, 0xa2, 0x77, 0x96, 0xa9, 0x8a, 0x7a, 0x91, 0x9e, 0x97, 0x88, 0x67,
  0x9d, 0xb2, 0x86, 0x8a, 0x90, 0xb2, 0x88, 0x9a, 0x6e, 0xa3, 0x7e, 0x9a,
  0x83, 0x69, 0x98, 0x8d, 0x84, 0xa1, 0x72, 0x89, 0xad, 0x98, 0xa2, 0xad,
  0x7a, 0x9e, 0x79, 0x93, 0xaa, 0x8f, 0x8b, 0x83, 0x77, 0xa1, 0x8b, 0x8f,
  0xb7, 0x94, 0x71, 0x79, 0x91, 0x6d, 0x8d, 0xb3, 0x6f, 0x85, 0x95, 0x68,
  0x7e, 0x95, 0x9d, 0x98, 0xac, 0xa9, 0xc6, 0x91, 0xb0, 0x77, 0x7b, 0x8c,
  0x70, 0x94, 0x60, 0x8f, 0xa3, 0xa0, 0x80, 0xaa, 0x8c, 0xb0, 0x8b, 0x8f,
  0xb5, 0x7f, 0x8e, 0xa9, 0x96, 0x99, 0x8d, 0x84, 0x7c, 0x80, 0xad, 0x9d,
  0x76, 0xa7, 0x6f, 0x86, 0xa6, 0x82, 0xaf, 0xa4, 0x82, 0x89, 0x58, 0x90,
  0xab, 0x87, 0xa1, 0xa1, 0x83, 0x8d, 0x75, 0xa3, 0xa7, 0x7e, 0x99, 0xae,
  0x8b, 0xbb, 0x68, 0x99, 0x9a, 0x74, 0xa8, 0x99, 0xab, 0xa7, 0x83, 0x70,
  0x90, 0xac, 0x94, 0xad, 0x93, 0x9f, 0x89, 0x99, 0xb4, 0x78, 0xa0, 0xa1,
  0x87, 0xa0, 0x7e, 0x8a, 0x75, 0x7a, 0x66, 0x98, 0x92, 0x92, 0x73, 0x9e,
  0x95, 0x75, 0x82, 0xa1, 0x8b, 0xca, 0x4f, 0xa0, 0x96, 0x84, 0x9f, 0xa8,
  0x8d, 0x81, 0x76, 0x7d, 0xa1, 0x7a, 0xab, 0xab, 0x9c, 0xbd, 0x9a, 0x8b,
  0x8c, 0x84, 0x82, 0xab, 0x7d, 0x9f, 0x92, 0x7a, 0x77, 0x81, 0xab, 0xac,
  0x96, 0xc1, 0x9b, 0x83, 0x94, 0xbb, 0xa1, 0xa6, 0xb0, 0x97, 0x8a, 0x8a,
  0x79, 0xa6, 0x99, 0x96, 0x86, 0x8e, 0xa2, 0x8d, 0x94, 0x86, 0x88, 0xa2,
  0x9b, 0x8d, 0xbf, 0x9e, 0x93, 0x7b, 0x77, 0x91, 0xac, 0xa5, 0x93, 0x9d,
  0xa0, 0x80, 0xbf, 0x88, 0x82, 0xa6, 0x60, 0x94, 0xad, 0x84, 0x93, 0x84,
  0xa2, 0x94, 0x64, 0x7f, 0xbf, 0xa5, 0x97, 0x9b, 0xb0, 0xa0, 0x7a, 0x75,
  0xa7, 0x85, 0x9e, 0x95, 0x9c, 0x95, 0x71, 0x89, 0x8d, 0x9a, 0xa6, 0x8a,
  0xa9, 0xaf, 0x7f, 0x99, 0x96, 0x83, 0x86, 0xa1, 0x83, 0xb4, 0x7f, 0xa9,
  0xa9, 0xa4, 0x8a, 0x88, 0x97, 0xb0, 0x7d, 0x8d, 0x94, 0xa3, 0x99, 0x8a,
  0x8a, 0x9f, 0x86, 0x94, 0x9c, 0x8e, 0x96, 0x82, 0xb3, 0x9a, 0x97, 0x97,
  0x99, 0x85, 0xa0, 0xa9, 0xae, 0xab, 0x84, 0xb2, 0xb6, 0x85, 0xac, 0x7b,
  0x9d, 0xa4, 0x7c, 0x8f, 0xa6, 0x84, 0x99, 0x77, 0xaa, 0xc1, 0x7a, 0xa5,
  0xae, 0xb8, 0xa7, 0x8d, 0x98, 0xad, 0x6c, 0x86, 0x9d, 0xa0, 0xae, 0x81,
  0x79, 0x9f, 0xa0, 0x73, 0x8d, 0x8b, 0x81, 0x94, 0x6c, 0xb4, 0xa8, 0x99,
  0xa7, 0x9f, 0xad, 0x84, 0x84, 0x9d, 0x8e, 0x99, 0x68, 0x9a, 0x9c, 0x9e,
  0x80, 0xa1, 0x98, 0xac, 0x93, 0xb3, 0x87, 0x8a, 0xb0, 0x93, 0x8b, 0xa9,
  0x8f, 0xab, 0x85, 0xb1, 0xb4, 0x94, 0x9e, 0x88, 0x7b, 0xb1, 0x88, 0xa3,
  0xab, 0x91, 0x85, 0x7d, 0x9d, 0x99, 0xb6, 0x88, 0x84, 0x9b, 0x4a, 0x6b,
  0x9f, 0x92, 0x93, 0x9a, 0x9f, 0x88, 0x58, 0xaa, 0x8a, 0x92, 0x86, 0x99,
  0x93, 0x8d, 0x7d, 0x9f, 0xa2, 0xa4, 0x97, 0x7b, 0xa9, 0x87, 0x55, 0xa8,
  0x94, 0x85, 0x8b, 0xa3, 0x6f, 0x89, 0x57, 0x99, 0x96, 0x8d, 0x88, 0x73,
  0x81, 0x82, 0x7b, 0x73, 0x90, 0x7b, 0x9e, 0x87, 0x80, 0x8d, 0x6e, 0xb2,
  0x8e, 0x73, 0x7e, 0x8f, 0x72, 0x83, 0x85, 0x9a, 0x73, 0x7b, 0x8b, 0x85,
  0x7a, 0xa4, 0x7e, 0x85, 0xa3, 0xb0, 0xbd, 0x71, 0x87, 0x98, 0x76, 0x9d,
  0x8c, 0x85, 0xa1, 0xa0, 0xb1, 0x98, 0x7a, 0x89, 0x7a, 0x95, 0xad, 0x87,
  0x8d, 0xa2, 0x7c, 0x7e, 0x8e, 0xa6, 0xa6, 0x96, 0x9b, 0x9d, 0x6f, 0x7e,
  0x8c, 0xad, 0x94, 0x8f, 0x96, 0x9c, 0x7c, 0x9b, 0x7f, 0x97, 0x8b, 0x7a,
  0x98, 0x93, 0x8e, 0x84, 0x8e, 0xaa, 0xa6, 0xad, 0x9f, 0x96, 0x97, 0x71,
  0x9a, 0x78, 0x8d, 0x8e, 0xb2, 0x8a, 0x96, 0x7c, 0x99, 0xba, 0xb3, 0x90,
  0xa0, 0x8c, 0x7f, 0x91, 0x6d, 0x9f, 0xa2, 0x7e, 0x71, 0x8a, 0x87, 0x8d,
  0x71, 0x7d, 0xa5, 0x9f, 0x9f, 0x7e, 0x85, 0x9f, 0x6e, 0x97, 0xa4, 0x95,
  0x72, 0x86, 0x42, 0xbe, 0x98, 0xb1, 0x74, 0xa6, 0x91, 0x74, 0x6b, 0x9a,
  0x7f, 0xa8, 0x95, 0xaf, 0x97, 0x68, 0x56, 0x94, 0x5d, 0xa3, 0xa3, 0x98,
  0x8d, 0x70, 0x58, 0x7a, 0x7d, 0x79, 0x91, 0x84, 0x7b, 0x85, 0x60, 0x93,
  0x79, 0x9a, 0xb8, 0x94, 0x99, 0x8b, 0x5a, 0xab, 0x5f, 0xac, 0xaa, 0xb2,
  0x91, 0x78, 0x70, 0xa2, 0x87, 0x85, 0x99, 0x94, 0x8f, 0x87, 0x6a, 0x8d,
  0x6b, 0x85, 0x95, 0x9f, 0xad, 0x88, 0x72, 0xa9, 0x5d, 0x94, 0xa8, 0x96,
  0xa1, 0x9c, 0x75, 0x96, 0x7d, 0x95, 0xa3, 0xa2, 0x98, 0x9b, 0x86, 0x98,
  0x98, 0xa4, 0xa7, 0x6f, 0x85, 0xa8, 0x92, 0x8d, 0x89, 0x97, 0x80, 0x91,
  0x81, 0x8f, 0x66, 0x89, 0x8a, 0x8c, 0x8f, 0x86, 0x82, 0xa7, 0x91, 0xa6,
  0x66, 0x81, 0x9d, 0x9d, 0xae, 0x92, 0x84, 0x99, 0x88, 0x89, 0x94, 0x92,
  0x74, 0x89, 0x99, 0x77, 0x7b, 0x9d, 0xaa, 0x95, 0xa8, 0x96, 0x9c, 0x96,
  0x96, 0xb9, 0x84, 0x9c, 0x88, 0x86, 0x98, 0x92, 0x89, 0xac, 0x61, 0x99,
  0xac, 0x6d, 0x6a, 0xb9, 0x7d, 0x91, 0x9c, 0x6f, 0x90, 0x77, 0x7a, 0x8b,
  0x98, 0x89, 0x92, 0x87, 0xad, 0x7c, 0x36, 0xa0, 0x8a, 0x93, 0x7e, 0x88,
  0x86, 0x69, 0x6c, 0xb6, 0x73, 0xa2, 0xab, 0x88, 0x91, 0x74, 0x6b, 0xb3,
  0x85, 0x89, 0xa9, 0x81, 0x7b, 0x85, 0x61, 0x79, 0x5c, 0x9e, 0x9a, 0xb0,
  0xa0, 0x73, 0x64, 0x8b, 0x7e, 0x7d, 0x8e, 0x95, 0xa2, 0x87, 0x6b, 0xaa,
  0x6b, 0x81, 0x98, 0x8d, 0x9d, 0x83, 0x7b, 0x8c, 0x5c, 0x7a, 0x84, 0x9b,
  0xa5, 0xa3, 0x82, 0xa5, 0x62, 0xa8, 0xb1, 0x91, 0x8e, 0x8b, 0x84, 0x99,
  0x5d, 0xa6, 0xa6, 0xa9, 0x91, 0xa7, 0x9e, 0xad, 0x5a, 0x9d, 0xa8, 0xa0,
  0xa6, 0xa4, 0x86, 0x6a, 0x85, 0x80, 0xb1, 0xa6, 0x77, 0xab, 0x8a, 0x7b,
  0x76, 0x98, 0xa5, 0x87, 0x7f, 0xab, 0x53, 0x89, 0x70, 0x89, 0xa4, 0x9f,
  0xa0, 0x98, 0xa0, 0x92, 0x8b, 0xa4, 0xa7, 0x9a, 0xab, 0xaf, 0x80, 0xb5,
  0x8d, 0x9d, 0xab, 0xb3, 0x96, 0xa8, 0x9b, 0x89, 0xb0, 0x9c, 0xb6, 0x90,
  0x76, 0x9b, 0x99, 0x81, 0xaf, 0xc2, 0x9d, 0xb9, 0x8b, 0x80, 0xa0, 0xa9,
  0x82, 0x75, 0x94, 0x75, 0x75, 0x78, 0x7d, 0xaf, 0x84, 0x9f, 0x9b, 0x9e,
  0xaf, 0x74, 0x76, 0xbc, 0x73, 0x83, 0xc7, 0x94, 0x86, 0x66, 0x52, 0xa8,
  0x8b, 0xaa, 0x6a, 0xa0, 0xba, 0x64, 0x58, 0x73, 0x6f, 0x98, 0xab, 0x8f,
  0x77, 0x79, 0x86, 0xb7, 0x6f, 0x9f, 0x9c, 0xa4, 0x77, 0x83, 0x5e, 0x8d,
  0x58, 0xbb, 0xb3, 0xa6, 0x84, 0x6e, 0x88, 0xa5, 0x60, 0x9f, 0xb3, 0x90,
  0x76, 0x72, 0x74, 0x7c, 0x51, 0x8f, 0x8c, 0xa0, 0x96, 0x7a, 0x8c, 0xaa,
  0x84, 0x88, 0xb4, 0x8a, 0x8a, 0x8a, 0x72, 0xac, 0x5b, 0x81, 0xa5, 0xad,
  0x91, 0xa2, 0x86, 0x75, 0x7f, 0xaa, 0xb1, 0xac, 0x8e, 0x9e, 0x86, 0x94,
  0x8c, 0x92, 0xc2, 0x78, 0xb4, 0xaf, 0x88, 0x88, 0x87, 0xa4, 0xba, 0xac,
  0x90, 0xb7, 0x73, 0x6c, 0x7f, 0x9e, 0xc1, 0x94, 0x73, 0xa5, 0x75, 0x7e,
  0x85, 0x98, 0xa4, 0xb9, 0xa3, 0xad, 0x9f, 0x9e, 0x86, 0xb7, 0x8e, 0xab,
  0x9b, 0xa0, 0x76, 0xac, 0x98, 0x84, 0x9f, 0x9f, 0xa8, 0x9f, 0x98, 0x9d,
  0xa9, 0xb5, 0xaf, 0xa2, 0xb7, 0x9e, 0x98, 0xa1, 0x84, 0xc6, 0xa0, 0x99,
  0x8a, 0x7f, 0x88, 0x99, 0x9c, 0x9a, 0x98, 0x84, 0x9d, 0x5f, 0x74, 0xa0,
  0x9e, 0xa8, 0x9b, 0x96, 0xb9, 0x5c, 0x6a, 0x76, 0x72, 0x93, 0x8f, 0xb4,
  0x7d, 0x6e, 0x30, 0x9e, 0x88, 0xa1, 0xb1, 0x89, 0xad, 0x79, 0x60, 0x93,
  0x77, 0x9e, 0x85, 0xab, 0x7d, 0x5a, 0x66, 0x69, 0x77, 0x9a, 0xb1, 0x85,
  0xb2, 0x63, 0x5f, 0x97, 0x57, 0x9e, 0xa1, 0xb7, 0x7c, 0x64, 0x6d, 0x9d,
  0x8b, 0xc1, 0x96, 0x74, 0x95, 0x88, 0x79, 0x91, 0x48, 0x85, 0x85, 0xa1,
  0x86, 0x82, 0x81, 0x75, 0x7c, 0x7e, 0xa9, 0xb3, 0xa4, 0x9d, 0x81, 0x76,
  0x8c, 0x85, 0xb1, 0x7f, 0xa2, 0x88, 0x70, 0xad, 0x6f, 0x84, 0xa1, 0x9e,
  0x9e, 0x93, 0x85, 0x93, 0x6e, 0xab, 0x97, 0xa5, 0x8e, 0xb8, 0x9d, 0x90,
  0x8a, 0x8b, 0xae, 0x7e, 0x8a, 0x89, 0x79, 0x92, 0x6a, 0xa5, 0xa1, 0xa1,
  0x7d, 0x90, 0x59, 0x97, 0x51, 0x95, 0xa5, 0x8f, 0x8e, 0x95, 0x63, 0x88,
  0x8f, 0x85, 0xa6, 0x95, 0x9a, 0x7d, 0x66, 0x88, 0x6f, 0x9e, 0xb9, 0x99,
  0xa5, 0xac, 0x89, 0x88, 0x72, 0xae, 0xc6, 0x9d, 0xa9, 0x99, 0x8b, 0xaf,
  0x89, 0xca, 0xa2, 0x8d, 0x97, 0x6b, 0x7a, 0xae, 0x92, 0xb2, 0x83, 0x95,
  0x7e, 0x64, 0x70, 0xab, 0x88, 0xa7, 0x87, 0xb5, 0x96, 0x61, 0x7a, 0x92,
  0x9c, 0x93, 0xa8, 0x93, 0xa1, 0x53, 0x5d, 0x86, 0x79, 0x8b, 0x8e, 0x96,
  0x94, 0x6b, 0x68, 0x63, 0x8a, 0xab, 0x99, 0x8f, 0x8a, 0x74, 0x44, 0x6a,
  0x6c, 0x9b, 0xb9, 0x8d, 0x86, 0x67, 0x6f, 0x7b, 0x68, 0xc0, 0xb0, 0xa0,
  0xb1, 0x78, 0x6f, 0x84, 0x68, 0x7a, 0x98, 0xa3, 0xa4, 0x5b, 0x60, 0x6b,
  0x43, 0xc5, 0xb6, 0xbd, 0xb4, 0x89, 0x74, 0xad, 0x69, 0xa2, 0xb1, 0xbd,
  0x84, 0x88, 0x7f, 0xa8, 0x60, 0xc6, 0xa2, 0x9f, 0xa4, 0x85, 0x5e, 0xa3,
  0x6b, 0x9c, 0xa2, 0xa2, 0xae, 0x98, 0x77, 0xae, 0x66, 0x95, 0xaa, 0x9a,
  0x9d, 0x7c, 0x8f, 0x94, 0x7f, 0xae, 0xc0, 0x9b, 0x96, 0x8f, 0x87, 0x75,
  0x6d, 0xb5, 0x91, 0xbe, 0x86, 0xa1, 0x6e, 0x90, 0x7e, 0x97, 0xab, 0xa0,
  0x9e, 0x9d, 0x8b, 0x69, 0x5a, 0x7b, 0xbc, 0x9e, 0xa1, 0x86, 0x87, 0xb1,
  0x94, 0x97, 0x9a, 0x79, 0x93, 0xa4, 0xa8, 0x9a, 0x79, 0xd0, 0xb7, 0xac,
  0xaf, 0x7a, 0x9f, 0x96, 0x67, 0x9e, 0xa7, 0xa3, 0xa3, 0x55, 0xa4, 0x94,
  0x8b, 0xa7, 0x84, 0xa0, 0x8f, 0x55, 0x7f, 0xc9, 0x8c, 0xa0, 0xbb, 0x8c,
  0x94, 0x56, 0x66, 0x7d, 0x80, 0x89, 0x94, 0x96, 0x95, 0x37, 0x5f, 0x95,
  0x7f, 0xa1, 0x7d, 0x78, 0x9a, 0x61, 0x6e, 0x83, 0x62, 0x8c, 0x94, 0xbe,
  0x97, 0x6a, 0x4e, 0x84, 0x6a, 0xaf, 0xaa, 0xb0, 0x71, 0x6c, 0x6b, 0x95,
  0x6c, 0xad, 0xb8, 0xbe, 0x79, 0x7c, 0x8b, 0x82, 0x68, 0x9b, 0xb5, 0x99,
  0x94, 0x7a, 0x64, 0x7f, 0x4b, 0xa1, 0x92, 0x9f, 0x91, 0x9c, 0x7f, 0x8b,
  0x88, 0x8e, 0x9d, 0x7e, 0x96, 0x99, 0x81, 0x8f, 0x56, 0x94, 0x89, 0xa9,
  0x9e, 0x97, 0x8a, 0x8d, 0x6d, 0x98, 0x7c, 0x90, 0x94, 0x80, 0x86, 0x9f,
  0x93, 0xbc, 0xa6, 0xc6, 0x9a, 0x8c, 0x79, 0x85, 0x81, 0x95, 0xc6, 0x85,
  0x98, 0xab, 0x89, 0x80, 0x5e, 0x9d, 0xb3, 0xae, 0x9a, 0x93, 0x80, 0x7d,
  0x69, 0xaa, 0xbe, 0x93, 0xa8, 0x87, 0x79, 0x67, 0x87, 0x85, 0xb8, 0xa3,
  0x7b, 0x75, 0x74, 0x9a, 0x72, 0x94, 0xb1, 0x94, 0x98, 0xbf, 0x9f, 0x86,
  0x99, 0xa6, 0xab, 0x98, 0xb4, 0xb9, 0xa4, 0xa0, 0x9d, 0xad, 0x9e, 0xa7,
  0xaa, 0x5d, 0x87, 0x9d, 0x88, 0x80, 0x9b, 0x96, 0x93, 0x48, 0x8a, 0xb7,
  0x8d, 0x9f, 0x7c, 0x8b, 0x79, 0x57, 0x53, 0x9a, 0xaf, 0xa1, 0xa5, 0xa8,
  0xa9, 0x47, 0x34, 0x77, 0x93, 0x95, 0x8f, 0x9e, 0x8b, 0x66, 0x6d, 0x7a,
  0x7f, 0xa5, 0x88, 0x91, 0x8b, 0x6f, 0x55, 0x73, 0x69, 0x99, 0x9a, 0xa6,
  0x7e, 0x70, 0x77, 0x7c, 0x76, 0xa3, 0xa3, 0x87, 0x72, 0x6e, 0x6c, 0x78,
  0x5a, 0xac, 0x9a, 0xc3, 0xb1, 0x51, 0x5c, 0x8a, 0x53, 0x79, 0xb1, 0xaf,
  0x8e, 0x8a, 0x65, 0x84, 0x5e, 0x86, 0xaa, 0x9f, 0x9b, 0x8e, 0x8e, 0x9a,
  0x7c, 0xbc, 0xb2, 0xaf, 0x99, 0x7d, 0x9b, 0x8b, 0x59, 0x6f, 0x96, 0xb0,
  0x77, 0x7b, 0x9d, 0xa9, 0x97, 0x7d, 0xb9, 0x9b, 0x91, 0x82, 0x86, 0xb9,
  0x77, 0xb2, 0xc0, 0xa7, 0xa0, 0x82, 0x8f, 0x9d, 0x7f, 0xb8, 0x8b, 0xaa,
  0xa4, 0x6c, 0x5a, 0x7d, 0x7b, 0xa5, 0xc2, 0x8f, 0x7b, 0x70, 0x66, 0xac,
  0x78, 0x8e, 0x93, 0xc5, 0xa5, 0x95, 0x7a, 0x94, 0x66, 0xa6, 0xbf, 0x90,
  0x9e, 0xa8, 0x91, 0x87, 0x9a, 0xae, 0xc1, 0xba, 0x88, 0x94, 0xa0, 0x90,
  0x78, 0xba, 0xa9, 0xa1, 0x74, 0x58, 0xb4, 0xab, 0x8e, 0x9b, 0x9d, 0x9a,
  0x6e, 0x3b, 0xa7, 0xa7, 0xa6, 0xba, 0xa4, 0x7f, 0x9b, 0x59, 0x58, 0x81,
  0x9a, 0xa5, 0xa0, 0x9c, 0x9f, 0x5e, 0x4e, 0x75, 0x85, 0x94, 0x78, 0x98,
  0x7d, 0x5d, 0x40, 0x86, 0x62, 0x91, 0x8f, 0x8c, 0x91, 0x54, 0x61, 0x9b,
  0x72, 0x87, 0xa2, 0xac, 0x85, 0x6a, 0x5c, 0x7a, 0x72, 0x9d, 0x92, 0xb9,
  0x84, 0x89, 0x53, 0x89, 0x65, 0x94, 0xa9, 0xbb, 0x83, 0x58, 0x77, 0x8a,
  0x6f, 0x99, 0x93, 0xb1, 0x9f, 0x70, 0x78, 0x90, 0x4a, 0x96, 0xb0, 0xb0,
  0x93, 0x9d, 0x85, 0x8c, 0x5e, 0x9a, 0x87, 0x95, 0x97, 0x82, 0x62, 0x98,
  0x7e, 0x8e, 0x93, 0x8c, 0x86, 0x87, 0x94, 0x97, 0x98, 0x7f, 0xbc, 0x8d,
  0xac, 0x88, 0xb1, 0x91, 0x99, 0xa0, 0xa6, 0xa6, 0xa0, 0x8e, 0x65, 0x8a,
  0x7e, 0xa6, 0xb9, 0xae, 0x72, 0xa1, 0x78, 0xa9, 0x68, 0x86, 0x9e, 0xb2,
  0x93, 0x7a, 0x81, 0x80, 0x78, 0xa4, 0xb6, 0xae, 0x72, 0x76, 0x62, 0xa7,
  0x83, 0x95, 0xa4, 0xbc, 0x8a, 0xa6, 0x88, 0x9a, 0x6b, 0xa7, 0xa4, 0x9e,
  0x77, 0xa1, 0x98, 0xa2, 0x8f, 0xa6, 0xae, 0x95, 0x97, 0x38, 0x70, 0xaa,
  0x90, 0x90, 0x71, 0xab, 0x69, 0x35, 0x8f, 0x8c, 0x7d, 0xba, 0xa3, 0xac,
  0xa4, 0x36, 0x6b, 0x9e, 0x9a, 0x99, 0x87, 0x83, 0x90, 0x4e, 0x4c, 0x7e,
  0x80, 0x91, 0x8b, 0xa3, 0xa9, 0x55, 0x63, 0x99, 0x7b, 0xa5, 0x96, 0xb6,
  0x7f, 0x7a, 0x5e, 0x76, 0x81, 0xa7, 0xad, 0x86, 0x95, 0x6a, 0x6d, 0x77,
  0x7e, 0xa2, 0xa9, 0x9e, 0x99, 0x6e, 0x89, 0x94, 0x70, 0x94, 0x99, 0xa8,
  0x9e, 0x79, 0x51, 0x7a, 0x6c, 0xaf, 0x9f, 0xb0, 0x84, 0x91, 0x79, 0x7d,
  0x61, 0x90, 0x9c, 0xae, 0x9a, 0x85, 0x72, 0xb0, 0x7d, 0x8d, 0xb8, 0xbd,
  0x9e, 0x76, 0x73, 0x83, 0x73, 0x99, 0xa6, 0xc7, 0x9b, 0x6f, 0x7b, 0xb9,
  0x91, 0x8a, 0xa2, 0x79, 0x9c, 0x8f, 0x75, 0x96, 0x97, 0x79, 0xa8, 0xbd,
  0x91, 0x9c, 0x75, 0x79, 0x6b, 0xb4, 0xaa, 0xa3, 0x78, 0x93, 0x74, 0x96,
  0x65, 0xa9, 0xbf, 0xb2, 0x8e, 0x72, 0x6c, 0x80, 0x92, 0xa1, 0xa6, 0xa9,
  0x9c, 0x89, 0x93, 0xbe, 0x86, 0x90, 0xb9, 0xc0, 0x91, 0xab, 0x92, 0x8e,
  0x89, 0x88, 0xa1, 0x9e, 0x88, 0x8e, 0xaf, 0xa6, 0x9c, 0x93, 0xae, 0xc6,
  0xaf, 0x49, 0x70, 0xb0, 0x83, 0xa9, 0x8a, 0xa7, 0x86, 0x43, 0x95, 0x91,
  0x76, 0xbe, 0xa9, 0xaa, 0xa8, 0x57, 0x59, 0x80, 0x9a, 0x7a, 0x90, 0xa4,
  0x7d, 0x4f, 0x51, 0x6c, 0x49, 0x9d, 0x7a, 0x83, 0x71, 0x54, 0x43, 0x79,
  0x7e, 0x86, 0x8c, 0xae, 0x70, 0x63, 0x31, 0x8f, 0x63, 0x8c, 0x8d, 0x9a,
  0x75, 0x80, 0x5d, 0x97, 0x8b, 0xb2, 0x92, 0x98, 0x88, 0x60, 0x62, 0x92,
  0x75, 0x96, 0xa6, 0xc1, 0xa5, 0x6d, 0x6c, 0x7a, 0x60, 0x9c, 0xbf, 0x98,
  0xaf, 0x8d, 0x4f, 0xa6, 0x77, 0x90, 0xa6, 0x91, 0x73, 0x9f, 0x6b, 0x90,
  0x7e, 0xb8, 0xaa, 0x8b, 0xaa, 0x66, 0x80, 0x94, 0x8b, 0x94, 0x86, 0x91,
  0x98, 0x93, 0x96, 0x79, 0x86, 0x87, 0xb6, 0xb8, 0x9b, 0x85, 0x8e, 0xab,
  0xa0, 0xaa, 0x9c, 0x9c, 0xa7, 0x7d, 0x96, 0x6f, 0x78, 0xa3, 0xb4, 0xb6,
  0x7f, 0x88, 0x69, 0xa2, 0x65, 0xa2, 0x9f, 0xaa, 0x79, 0x71, 0x87, 0x8f,
  0x72, 0x8a, 0xad, 0xa5, 0x92, 0x68, 0x62, 0x92, 0x64, 0x96, 0x9e, 0xc6,
  0xa1, 0xb7, 0x7c, 0x80, 0x88, 0xac, 0xc3, 0xb7, 0x9d, 0x97, 0xaf, 0xa4,
  0xad, 0x98, 0xb6, 0xcf, 0xba, 0x37, 0x9d, 0xad, 0x83, 0xa9, 0x99, 0x9e,
  0x9c, 0x31, 0x6b, 0x99, 0x82, 0xb2, 0x8e, 0xa9, 0x87, 0x62, 0x55, 0x9c,
  0x9b, 0x95, 0x8a, 0xa2, 0x68, 0x2e, 0x4a, 0x94, 0x5d, 0x91, 0x7e, 0xa9,
  0xab, 0x7d, 0x4f, 0x54, 0x57, 0x96, 0x80, 0xb1, 0x92, 0x5f, 0x4c, 0x60,
  0x7e, 0x93, 0x9f, 0x9a, 0x93, 0x84, 0x6b, 0x73, 0x87, 0x96, 0xac, 0xa7,
  0xb8, 0x6e, 0x6f, 0x8b, 0x70, 0x8e, 0xa5, 0xb7, 0x97, 0x85, 0x6a, 0x6b,
  0x56, 0x87, 0x93, 0xa5, 0x99, 0x86, 0x71, 0x86, 0x7c, 0x9b, 0x9d, 0xa4,
  0xa7, 0x79, 0x84, 0x77, 0x8b, 0xa4, 0xac, 0x93, 0x8a, 0x7f, 0x87, 0x8f,
  0x77, 0xa0, 0x91, 0xb4, 0x8d, 0x8a, 0x86, 0x8a, 0x97, 0x99, 0xa7, 0x92,
  0x92, 0x6c, 0x8b, 0x90, 0x9d, 0x9f, 0x91, 0xa6, 0x98, 0x7d, 0x98, 0x69,
  0x95, 0x7f, 0xb5, 0x96, 0xa1, 0x95, 0x6a, 0x97, 0x77, 0x9b, 0xa8, 0xd3,
  0x78, 0x7f, 0x63, 0x98, 0x86, 0x80, 0x99, 0xae, 0x81, 0x84, 0x7d, 0x8e,
  0x9e, 0x7b, 0xb3, 0xae, 0x79, 0x8b, 0x88, 0x96, 0xac, 0x8d, 0xa7, 0xb8,
  0x9c, 0xb1, 0xb0, 0x6f, 0x84, 0x9e, 0xad, 0x96, 0x9f, 0x2b, 0xb3, 0xae,
  0x6f, 0x89, 0x90, 0xa1, 0x76, 0x2e, 0x7a, 0xae, 0x7e, 0xbf, 0xa0, 0x9f,
  0x97, 0x50, 0x53, 0x6c, 0x78, 0xa6, 0xa3, 0x9e, 0x94, 0x47, 0x40, 0x83,
  0x54, 0x88, 0xa2, 0xa0, 0x97, 0x55, 0x66, 0x89, 0x77, 0xa9, 0x99, 0xa8,
  0x9e, 0x56, 0x3f, 0x8c, 0x64, 0x9b, 0x8c, 0xa5, 0x89, 0x5a, 0x57, 0x62,
  0x6c, 0x8f, 0xb1, 0xa3, 0xaa, 0x89, 0x64, 0x9c, 0x6a, 0x7b, 0x9d, 0xbc,
  0x96, 0x79, 0x78, 0x7d, 0x5d, 0xb2, 0x9b, 0x9c, 0x99, 0x76, 0x75, 0x92,
  0x80, 0x95, 0x84, 0x80, 0xa9, 0x7d, 0x67, 0x91, 0x79, 0x99, 0xad, 0xbc,
  0xb9, 0x85, 0x7b, 0x83, 0x71, 0x8c, 0x9a, 0xad, 0xa7, 0x80, 0x9b, 0xa8,
  0x8a, 0x7a, 0x9a, 0x9e, 0x8c, 0xa0, 0x94, 0x78, 0x77, 0x9e, 0xaa, 0x83,
  0x8b, 0x99, 0x8c, 0xa0, 0x7e, 0x93, 0xac, 0x97, 0x6f, 0x80, 0x67, 0x82,
  0x8a, 0x94, 0xaa, 0xa5, 0x9e, 0xa5, 0x96, 0x7f, 0x74, 0x75, 0x96, 0xc4,
  0x7b, 0x83, 0x90, 0x8d, 0xa9, 0x96, 0xb5, 0xb2, 0x83, 0x90, 0x7d, 0x8f,
  0xa6, 0x90, 0xb7, 0x99, 0xba, 0x82, 0xab, 0xa3, 0x74, 0x99, 0xb8, 0xad,
  0x91, 0x31, 0xa9, 0xa5, 0x73, 0xa9, 0x93, 0xa9, 0x7c, 0x32, 0xa7, 0xae,
  0x8c, 0xbb, 0xa3, 0xb4, 0x9a, 0x59, 0x6e, 0x7b, 0x88, 0x9e, 0xb5, 0x9e,
  0xad, 0x51, 0x47, 0x70, 0x71, 0x98, 0x9f, 0x9c, 0x8f, 0x5e, 0x3f, 0x61,
  0x53, 0xaa, 0x89, 0xbd, 0xac, 0x78, 0x4a, 0x6c, 0x5e, 0x97, 0x98, 0x8f,
  0x96, 0x7d, 0x6f, 0x9b, 0x65, 0xaa, 0xa9, 0xb3, 0x90, 0x64, 0x77, 0x70,
  0x7d, 0xa5, 0x90, 0xa4, 0x94, 0x60, 0x70, 0x8e, 0x5f, 0x9f, 0xa1, 0x9c,
  0x83, 0x70, 0x64, 0x96, 0x5c, 0x83, 0x95, 0xa3, 0x8e, 0x75, 0x7f, 0x8c,
  0x68, 0x98, 0xa7, 0xb6, 0x9d, 0x78, 0x6c, 0x76, 0x89, 0x82, 0xa8, 0xbe,
  0x98, 0x82, 0x92, 0x94, 0x90, 0xa5, 0xa1, 0x90, 0xb0, 0x73, 0xbd, 0x9e,
  0x98, 0xa7, 0xab, 0xac, 0x9f, 0x77, 0x6f, 0x6a, 0x88, 0x93, 0xa8, 0xcf,
  0x9a, 0x7d, 0x73, 0x74, 0x8d, 0x98, 0xb7, 0x8f, 0xaa, 0x7a, 0x89, 0x8d,
  0x84, 0x8f, 0x97, 0xa0, 0x90, 0x6a, 0x6d, 0xa0, 0x89, 0x83, 0xb4, 0xb3,
  0x9a, 0x80, 0x88, 0x97, 0x9d, 0x92, 0xa4, 0xc4, 0xa0, 0x8b, 0xa2, 0xb6,
  0xa0, 0x8c, 0xb2, 0xb2, 0x9c, 0x29, 0x9b, 0xb6, 0x75, 0x96, 0x8d, 0x8e,
  0x82, 0x3c, 0x91, 0x9a, 0x67, 0xac, 0xa4, 0x90, 0xa8, 0x42, 0x5b, 0x8e,
  0x8a, 0x9e, 0xa1, 0x8f, 0x7f, 0x37, 0x3e, 0x7a, 0x5c, 0x7a, 0x92, 0x8d,
  0x8f, 0x7c, 0x5b, 0x5a, 0x5a, 0xba, 0x83, 0xb0, 0x9a, 0x56, 0x63, 0x80,
  0x6a, 0x86, 0x97, 0xa6, 0xa0, 0x68, 0x6f, 0x8a, 0x76, 0xbc, 0xbd, 0x9d,
  0x9c, 0x4c, 0x64, 0x78, 0x72, 0x96, 0xa1, 0x86, 0x9f, 0x6f, 0x82, 0x77,
  0x63, 0xaa, 0xad, 0xbb, 0x7b, 0x78, 0x5f, 0x64, 0x6f, 0x9e, 0xaa, 0xaf,
  0x7d, 0x9a, 0x62, 0x7b, 0x6a, 0x9e, 0x8a, 0xb7, 0x8d, 0x69, 0x70, 0x82,
  0x6b, 0x8c, 0xa1, 0xa8, 0x9d, 0x7b, 0x97, 0x99, 0x89, 0xa3, 0x9f, 0x9f,
  0x83, 0x8c, 0x9a, 0x93, 0x9f, 0xad, 0xac, 0xa9, 0x82, 0x81, 0x78, 0x80,
  0x91, 0xa2, 0xa6, 0xbe, 0x69, 0x81, 0x95, 0x90, 0x83, 0x8b, 0x9d, 0x99,
  0x8a, 0x97, 0x89, 0x90, 0x81, 0x93, 0x98, 0x8d, 0x8d, 0x7e, 0x81, 0x9c,
  0x90, 0xa9, 0xa4, 0xaf, 0x98, 0x9d, 0x89, 0x84, 0x90, 0x84, 0xb3, 0xb3,
  0x7c, 0xb4, 0xa3, 0x97, 0x8e, 0x9f, 0xbd, 0x81, 0x7a, 0x3b, 0x74, 0xab,
  0x6f, 0x9b, 0x8d, 0x8b, 0x7a, 0x3b, 0x7d, 0xbd, 0x79, 0xbd, 0x9f, 0xb1,
  0x72, 0x30, 0x61, 0x7f, 0x9c, 0x8d, 0x9d, 0x91, 0x97, 0x69, 0x37, 0x6a,
  0x4a, 0x99, 0x91, 0x9c, 0x6f, 0x42, 0x4f, 0x8e, 0x54, 0xa8, 0x9f, 0xa1,
  0xa4, 0x4f, 0x57, 0x60, 0x4a, 0x95, 0x93, 0x9f, 0x7d, 0x6e, 0x5f, 0x77,
  0x5d, 0x95, 0xa6, 0x94, 0x92, 0x5a, 0x64, 0x90, 0x83, 0xa4, 0x8f, 0xa8,
  0x8c, 0x69, 0x70, 0x7d, 0x47, 0x95, 0x9f, 0x9b, 0x7a, 0x86, 0x6b, 0x87,
  0x8c, 0xa7, 0x91, 0xa0, 0x84, 0x7b, 0x6f, 0x8a, 0x6f, 0xa6, 0x8e, 0x9e,
  0xa2, 0x85, 0x78, 0x97, 0x63, 0x76, 0xab, 0xbb, 0x8b, 0x70, 0x9b, 0x9a,
  0x9e, 0x94, 0xa1, 0xaa, 0x97, 0x8b, 0xa7, 0x9b, 0x8d, 0x9e, 0xb7, 0x98,
  0x72, 0x94, 0xa1, 0x74, 0x99, 0x90, 0x99, 0x96, 0x99, 0x71, 0x64, 0x90,
  0x86, 0x96, 0xb7, 0xa7, 0x9c, 0x69, 0x72, 0x7e, 0x74, 0x98, 0xaa, 0xaf,
  0x6c, 0x66, 0x99, 0x8c, 0x73, 0x97, 0xcd, 0xa3, 0xa6, 0x8f, 0x83, 0x79,
  0xa5, 0x97, 0xa1, 0x9a, 0x9e, 0x89, 0xad, 0x8c, 0x7a, 0xa1, 0xb3, 0x97,
  0xb2, 0x3d, 0x66, 0xa3, 0x6c, 0xad, 0x8f, 0x86, 0x95, 0x3a, 0x7e, 0xb3,
  0x75, 0xaa, 0x9e, 0xb0, 0x8a, 0x47, 0x66, 0xa1, 0x7b, 0x9c, 0x9d, 0x9e,
  0x86, 0x4f, 0x48, 0x7c, 0x37, 0x7b, 0x84, 0x80, 0x8a, 0x5a, 0x37, 0x83,
  0x5a, 0xb2, 0xaa, 0xa4, 0x8e, 0x6a, 0x5e, 0x75, 0x6c, 0x9b, 0x96, 0xaf,
  0x7e, 0x72, 0x7f, 0x86, 0x76, 0xa7, 0xa1, 0xa9, 0x7d, 0x8c, 0x5b, 0x87,
  0x88, 0xa0, 0xa2, 0x8d, 0x94, 0x89, 0x63, 0x6b, 0x58, 0xad, 0xb2, 0x93,
  0x87, 0x82, 0x75, 0x62, 0x55, 0x9c, 0x90, 0xa7, 0x7b, 0x9d, 0x7c, 0x81,
  0x66, 0x9c, 0xa4, 0xa5, 0xb9, 0x74, 0x80, 0x8e, 0x74, 0x87, 0x88, 0x95,
  0x9c, 0x87, 0x92, 0x98, 0x8e, 0x89, 0xbd, 0xa2, 0xa5, 0x7d, 0xa0, 0x7b,
  0x8d, 0xac, 0xca, 0xbc, 0x82, 0x68, 0x77, 0x8b, 0xae, 0x94, 0xb4, 0x8a,
  0x80, 0x97, 0x63, 0x70, 0x69, 0xbc, 0xa4, 0xbe, 0x87, 0x7d, 0x7e, 0x89,
  0x7c, 0x96, 0xc2, 0xbb, 0x9d, 0x72, 0x81, 0x8d, 0x92, 0x94, 0x94, 0x9f,
  0x9d, 0x79, 0x84, 0x8b, 0x98, 0x9a, 0xaf, 0xac, 0xbe, 0x7d, 0xb7, 0x85,
  0x91, 0x8d, 0xb4, 0xce, 0x78, 0x42, 0x68, 0x9e, 0x72, 0xae, 0x80, 0xa9,
  0x71, 0x39, 0x7b, 0xa4, 0x71, 0xb3, 0x8d, 0xb0, 0x9a, 0x4b, 0x62, 0x6a,
  0x9d, 0xa4, 0x9d, 0x86, 0x9a, 0x43, 0x2e, 0x67, 0x50, 0x9e, 0x66, 0x9a,
  0x92, 0x67, 0x4c, 0x52, 0x71, 0xae, 0x96, 0xa5, 0x7f, 0x51, 0x51, 0x6e,
  0x5a, 0xac, 0x89, 0xab, 0x67, 0x74, 0x94, 0x56, 0x3a, 0xbe, 0x85, 0x88,
  0x96, 0x69, 0x6a, 0x80, 0x78, 0x93, 0xad, 0x9c, 0xb5, 0x6a, 0x5d, 0x85,
  0x36, 0xa8, 0x98, 0xb1, 0x94, 0x73, 0x5c, 0x90, 0x54, 0xa5, 0x8d, 0x97,
  0xa7, 0x8d, 0x85, 0x87, 0x49, 0x96, 0xaa, 0x8e, 0x99, 0x6f, 0x69, 0x92,
  0x7b, 0x8d, 0xa2, 0xa8, 0x92, 0x74, 0x70, 0x6e, 0xa9, 0xae, 0xa4, 0xa3,
  0xad, 0x97, 0xab, 0xaa, 0xb2, 0xa5, 0xb4, 0xc1, 0xab, 0x89, 0x6c, 0x8b,
  0x8c, 0xa8, 0x9d, 0x8c, 0xac, 0x81, 0x7b, 0x85, 0x7b, 0x8e, 0x9a, 0xb4,
  0x77, 0x7d, 0x80, 0x89, 0x90, 0xa7, 0xb3, 0xb1, 0x92, 0x7a, 0x97, 0x9a,
  0x7f, 0x9a, 0xa7, 0xa9, 0x84, 0x98, 0x91, 0x8b, 0x9e, 0xa1, 0x9f, 0xb0,
  0x7f, 0x82, 0xb0, 0x97, 0x86, 0x9f, 0xb5, 0x90, 0x87, 0x3f, 0x77, 0xaf,
  0x68, 0x8c, 0x82, 0xb1, 0x92, 0x2e, 0x95, 0xc0, 0x6b, 0xa5, 0xa0, 0x84,
  0x8c, 0x48, 0x52, 0x65, 0x84, 0x8b, 0x95, 0x89, 0x97, 0x49, 0x51, 0x86,
  0x5b, 0x96, 0x81, 0xa4, 0x6b, 0x71, 0x55, 0x46, 0x3c, 0xb2, 0x8d, 0xa2,
  0x9e, 0x5b, 0x69, 0x83, 0x58, 0x98, 0x82, 0xa1, 0x9e, 0x6a, 0x4c, 0x77,
  0x73, 0x9d, 0x7e, 0xb9, 0x7e, 0x50, 0x65, 0x73, 0x75, 0x9d, 0x8e, 0x87,
  0x94, 0x6d, 0x6d, 0x72, 0x6a, 0xb1, 0x88, 0xa8, 0xa7, 0x82, 0x6f, 0x5c,
  0x68, 0x93, 0x78, 0xb7, 0xb2, 0x8f, 0x5a, 0x67, 0x4f, 0xae, 0x8e, 0xa9,
  0xa9, 0x73, 0x60, 0x88, 0x4f, 0x98, 0x6e, 0xa6, 0x9c, 0x81, 0x93, 0x9a,
  0x8a, 0xa3, 0x87, 0x7b, 0xa0, 0x86, 0xac, 0x96, 0x90, 0xb6, 0x82, 0xae,
  0xaa, 0x78, 0x77, 0x89, 0x9a, 0x8e, 0x86, 0x90, 0x8f, 0x83, 0x61, 0x98,
  0x8b, 0x9f, 0x89, 0xae, 0x83, 0x80, 0x7c, 0x7b, 0x74, 0xa7, 0xa5, 0xb0,
  0x9f, 0x8e, 0x7e, 0x6c, 0x78, 0x8f, 0x93, 0xb9, 0x90, 0x89, 0x92, 0x84,
  0x7f, 0xa6, 0x8f, 0xa2, 0x97, 0x7d, 0xaa, 0xa2, 0x89, 0x9f, 0x93, 0x99,
  0x8e, 0x4b, 0x94, 0xa8, 0xa4, 0x8d, 0x7e, 0x67, 0x7f, 0x34, 0xa4, 0xab,
  0x69, 0xcc, 0xad, 0x8e, 0x9a, 0x43, 0x4a, 0x7d, 0x6f, 0xb5, 0xaa, 0x7c,
  0xb6, 0x6a, 0x36, 0x66, 0x43, 0xa7, 0x75, 0x71, 0x95, 0x6b, 0x4c, 0x81,
  0x24, 0xcc, 0x91, 0x90, 0xad, 0x77, 0x74, 0x85, 0x28, 0xc3, 0x94, 0x93,
  0x97, 0x62, 0x6e, 0x7b, 0x2a, 0xc4, 0x82, 0x99, 0xa7, 0x4a, 0x6d, 0x8a,
  0x3c, 0xd8, 0x8f, 0x86, 0x8b, 0x7e, 0x64, 0x72, 0x3c, 0xb1, 0x90, 0x94,
  0xa6, 0x8b, 0x61, 0x7c, 0x2f, 0xc3, 0x82, 0x9f, 0x86, 0x8d, 0x5d, 0x7e,
  0x53, 0xbc, 0xa6, 0x91, 0x98, 0x6a, 0x72, 0x8f, 0x5d, 0x9f, 0x9d, 0x9c,
  0x89, 0x7d, 0x82, 0x74, 0x90, 0xaa, 0x76, 0x9e, 0x8f, 0x95, 0x8c, 0x74,
  0x9e, 0xb4, 0x9b, 0xa8, 0x95, 0x76, 0x74, 0x8d, 0x80, 0xb4, 0xa5, 0x90,
  0xac, 0x80, 0x70, 0x81, 0x67, 0xb4, 0xa1, 0x8a, 0x81, 0xa0, 0x73, 0x72,
  0x97, 0xad, 0xa8, 0xbd, 0xad, 0x7e, 0x7d, 0x74, 0x6e, 0xab, 0xa7, 0xa1,
  0x7d, 0x99, 0x8a, 0xa4, 0x93, 0xaa, 0x98, 0x86, 0xa9, 0xb3, 0xa6, 0x7c,
  0x96, 0x93, 0x83, 0xad, 0x7e, 0x49, 0xa8, 0x9f, 0x99, 0x6f, 0x6d, 0xa7,
  0x90, 0x00, 0x7e, 0x71, 0xac, 0xbe, 0x8b, 0xad, 0x94, 0x3e, 0x5b, 0xad,
  0xbd, 0x9d, 0x91, 0xa0, 0x93, 0x66, 0x3e, 0x84, 0x9a, 0x9a, 0x9e, 0xa6,
  0x88, 0x58, 0x62, 0x97, 0x72, 0xb7, 0xa1, 0x91, 0x95, 0x58, 0x67, 0x93,
  0x68, 0xa9, 0x8f, 0xa5, 0xb2, 0x68, 0x6f, 0xb3, 0x6f, 0xc9, 0xa2, 0x8f,
  0x87, 0x60, 0x5d, 0x9f, 0x7d, 0xaf, 0xa4, 0x9a, 0x8c, 0x6a, 0x62, 0x6d,
  0x71, 0x9d, 0x8a, 0xa5, 0x89, 0x54, 0x66, 0x87, 0x7e, 0xb9, 0x98, 0xa3,
  0xad, 0x6c, 0x6b, 0x7e, 0x70, 0xae, 0x9b, 0xa7, 0x97, 0x84, 0x70, 0x9f,
  0x6b, 0xac, 0x89, 0x9e, 0x92, 0x69, 0x77, 0x93, 0x8d, 0x9e, 0x92, 0x90,
  0xa0, 0x54, 0x8a, 0x84, 0x95, 0x95, 0x8a, 0x97, 0x94, 0x80, 0x61, 0x87,
  0xa8, 0x9a, 0x9b, 0x94, 0xaf, 0xa8, 0x75, 0x89, 0xa0, 0x96, 0xbb, 0x8c,
  0x73, 0x7f, 0x66, 0xa8, 0x81, 0x97, 0xbd, 0xac, 0x83, 0x8b, 0x6d, 0x69,
  0xa6, 0xa5, 0xa6, 0xbe, 0x98, 0x86, 0x96, 0x9e, 0x9a, 0x9e, 0xaa, 0x91,
  0x8d, 0x87, 0xa1, 0x8f, 0x87, 0xa6, 0x97, 0x9d, 0x82, 0x40, 0x78, 0xa0,
  0xba, 0x83, 0x7d, 0xd1, 0x8b, 0x2d, 0xad, 0x8f, 0xb0, 0xb8, 0x81, 0xc7,
  0x8b, 0x32, 0x6b, 0xa8, 0xf2, 0x7d, 0x86, 0xb8, 0x86, 0x3e, 0x5c, 0x91,
  0xda, 0x8a, 0xa4, 0xc9, 0x8a, 0x55, 0x6c, 0x98, 0xb5, 0xa2, 0x71, 0xb4,
  0x9e, 0x4b, 0x6a, 0xa7, 0xb6, 0xa5, 0x6f, 0xa5, 0x84, 0x5a, 0x7e, 0x83,
  0xa9, 0x96, 0x68, 0xa1, 0x85, 0x52, 0x64, 0x8b, 0xaf, 0xad, 0x91, 0xa0,
  0x90, 0x58, 0x73, 0x73, 0xac, 0x7f, 0x8c, 0xae, 0xaa, 0x50, 0x7d, 0x7a,
  0x9e, 0x94, 0x6a, 0xaa, 0x75, 0x4d, 0x85, 0xaa, 0xac, 0x95, 0x8b, 0xad,
  0x82, 0x6a, 0x6a, 0x82, 0xac, 0x93, 0x6b, 0xa3, 0x97, 0x56, 0x8c, 0x98,
  0xa9, 0xb3, 0x72, 0x9c, 0x97, 0x72, 0x62, 0xad, 0xb3, 0xaa, 0x8b, 0x9a,
  0x9d, 0x6f, 0x66, 0x94, 0x9f, 0xa8, 0x82, 0x9e, 0x8f, 0x95, 0x58, 0x81,
  0x9c, 0xa7, 0xaa, 0x9e, 0xb4, 0x84, 0x7e, 0xac, 0xa6, 0x8f, 0x93, 0xa2,
  0x90, 0x80, 0x99, 0x91, 0xaa, 0xbf, 0x78, 0xa7, 0x74, 0x99, 0x8a, 0x9a,
  0x83, 0xa4, 0xa4, 0x9b, 0x94, 0xa7, 0xad, 0x80, 0xa2, 0xb2, 0x83, 0xbd,
  0x89, 0x96, 0xa0, 0x95, 0x7e, 0x88, 0x8d, 0x88, 0xa4, 0x81, 0x99, 0x90,
  0x9f, 0x85, 0x93, 0xb2, 0xa6, 0x9b, 0x70, 0x9c, 0x83, 0x81, 0x9a, 0x8e,
  0x9f, 0x97, 0x8e, 0x8a, 0x7a, 0x87, 0x97, 0xa2, 0x98, 0x84, 0x96, 0xa1,
  0x70, 0x83, 0x93, 0x79, 0xb5, 0x7c, 0x8a, 0x8f, 0x8c, 0x83, 0x9e, 0x7d,
  0xa8, 0xb6, 0x95, 0x87, 0xa7, 0x97, 0x96, 0xac, 0xab, 0x8a, 0x99, 0x8e,
  0x85, 0x99, 0x90, 0x92, 0xac, 0x74, 0x81, 0x7c, 0x8e, 0x8c, 0x93, 0x77,
  0x96, 0x73, 0x95, 0x9d, 0x76, 0x96, 0x9a, 0x7d, 0x75, 0x93, 0x8a, 0x8f,
  0x7c, 0x71, 0x88, 0x9c, 0x7a, 0x6c, 0x77, 0x82, 0x93, 0x8c, 0x94, 0x7e,
  0xae, 0xae, 0x9a, 0x8b, 0x70, 0xa0, 0x8b, 0x8e, 0xaa, 0xa3, 0x8e, 0x85,
  0x7c, 0x97, 0x9d, 0x9d, 0x97, 0xa1, 0x84, 0x92, 0x8b, 0x98, 0x86, 0x8a,
  0x9e, 0x9e, 0x89, 0x9a, 0x8e, 0xa1, 0x96, 0x82, 0x92, 0xa7, 0x9a, 0x9f,
  0x72, 0x86, 0x99, 0x7e, 0x83, 0xaa, 0x63, 0x89, 0xb3, 0xa6, 0x95, 0x74,
  0x79, 0xa1, 0x8c, 0x98, 0x8c, 0x7f, 0x8f, 0x9c, 0x90, 0xa2, 0x85, 0x7a,
  0x89, 0x92, 0x88, 0x96, 0xa4, 0x98, 0x7f, 0x97, 0xa3, 0x8d, 0xa3, 0x8f,
  0x7f, 0x81, 0xa6, 0x7f, 0x98, 0x85, 0x77, 0x88, 0x89, 0x9e, 0x75, 0x74,
  0xaf, 0x8f, 0x92, 0x7c, 0xab, 0x93, 0x8e, 0x85, 0x83, 0x7a, 0x9d, 0x95,
  0x96, 0x8a, 0xa8, 0x7f, 0x88, 0x75, 0x9a, 0x89, 0xb0, 0x78, 0xa7, 0x99,
  0x92, 0x73, 0xa1, 0x86, 0x79, 0x7f, 0x98, 0x74, 0x7c, 0x77, 0x9b, 0x7e,
  0x9c, 0x7a, 0x81, 0x78, 0x7e, 0x9f, 0x96, 0x87, 0x8d, 0x8a, 0x89, 0x6b,
  0x92, 0x85, 0xa6, 0x91, 0x95, 0x6a, 0x91, 0x84, 0x9a, 0x8d, 0xa3, 0x8c,
  0x9e, 0x7b, 0x91, 0x78, 0x8c, 0x8f, 0x7e, 0x99, 0x8c, 0x9f, 0x72, 0x96,
  0xad, 0x96, 0x8e, 0x8d, 0x88, 0x91, 0x89, 0x7c, 0x80, 0x94, 0x8b, 0x86,
  0xa3, 0x8b, 0x8c, 0x9f, 0x99, 0x99, 0x8b, 0x94, 0x8a, 0x9f, 0x90, 0x8e,
  0xa6, 0xb0, 0x99, 0x94, 0x94, 0xaa, 0x9b, 0x92, 0x9a, 0x8c, 0xad, 0x9a,
  0x69, 0x86, 0x9e, 0x8a, 0x7c, 0x7f, 0x8b, 0x89, 0xb2, 0x96, 0x8d, 0xb2,
  0x8d, 0x88, 0x9d, 0x90, 0xa3, 0x87, 0x8c, 0x81, 0x92, 0x8b, 0x8c, 0x85,
  0xb1, 0xa6, 0x85, 0xa3, 0xa9, 0x97, 0x92, 0x82, 0x7f, 0x92, 0xb2, 0x9c,
  0xa0, 0x93, 0x7e, 0x7f, 0x8f, 0x93, 0x8f, 0x99, 0x9b, 0x8f, 0x77, 0x97,
  0x9e, 0x91, 0x80, 0xa7, 0xb2, 0x90, 0x90, 0x8a, 0xa6, 0x8a, 0xa3, 0x92,
  0x88, 0x86, 0x99, 0x8a, 0x93, 0x86, 0x93, 0x73, 0x87, 0x9c, 0x95, 0xae,
  0x6c, 0x87, 0x9b, 0x9c, 0x80, 0xab, 0xaa, 0x80, 0x6a, 0x7d, 0x94, 0xb8,
  0x88, 0xb8, 0x9f, 0x8e, 0x91, 0x96, 0x8c, 0xae, 0xa7, 0xa9, 0xaa, 0x9f,
  0xaa, 0x8b, 0x8d, 0xa8, 0x84, 0x9e, 0x91, 0x9f, 0x76, 0x87, 0x8a, 0x97,
  0xa1, 0x94, 0xa0, 0xac, 0xa0, 0x86, 0x8f, 0x9a, 0x91, 0xa1, 0x74, 0x77,
  0x90, 0x81, 0x86, 0x82, 0xa2, 0x7a, 0x8c, 0x85, 0xb4, 0x99, 0x90, 0x93,
  0x7e, 0xa3, 0x87, 0x89, 0x74, 0x7b, 0x92, 0x76, 0x87, 0x92, 0x80, 0x85,
  0xac, 0x8d, 0x88, 0x8a, 0xac, 0x9a, 0xa1, 0x99, 0x93, 0x7f, 0x8a, 0x71,
  0x68, 0x8b, 0x90, 0x9c, 0xb2, 0x87, 0x86, 0x91, 0x87, 0xa1, 0x94, 0x80,
  0x9e, 0x8f, 0x7f, 0x8e, 0x6e, 0x72, 0x8a, 0x9f, 0x7f, 0x8a, 0x8b, 0x9c,
  0x99, 0x84, 0x8a, 0x9a, 0x8b, 0xba, 0x8f, 0x79, 0xa2, 0x9d, 0xa0, 0x9e,
  0x99, 0x9b, 0xad, 0x91, 0x9f, 0x8f, 0x7c, 0xae, 0xb7, 0x95, 0x88, 0x68,
  0xad, 0x7e, 0x71, 0x67, 0x9d, 0x9b, 0x8a, 0xa0, 0xa0, 0x93, 0x99, 0x88,
  0x9a, 0x98, 0x97, 0x86, 0x86, 0x98, 0x97, 0x87, 0x9b, 0xa3, 0x96, 0x92,
  0xa1, 0x7d, 0x94, 0xa0, 0x89, 0x9a, 0xac, 0x8d, 0x8e, 0x7e, 0x9e, 0x95,
  0x84, 0x8c, 0x96, 0x7f, 0x88, 0xa4, 0xb0, 0x7b, 0x9b, 0x9e, 0x8f, 0x95,
  0x96, 0x96, 0x98, 0x90, 0x94, 0x8d, 0xa4, 0x80, 0x97, 0x85, 0x98, 0xa1,
  0xa8, 0x8e, 0x91, 0xad, 0x6e, 0x79, 0x96, 0x9d, 0x97, 0x80, 0x8e, 0x76,
  0x73, 0x7a, 0x73, 0xa9, 0x91, 0x99, 0x81, 0x8d, 0xa3, 0x74, 0x6b, 0x84,
  0x93, 0xa2, 0x90, 0x7d, 0x8c, 0xa2, 0x75, 0x9c, 0xac, 0x8d, 0x9e, 0x9d,
  0x9d, 0x85, 0x96, 0xa7, 0x99, 0x91, 0xb3, 0x7f, 0x80, 0x96, 0x9e, 0x99,
  0x7e, 0x94, 0xa2, 0x74, 0x86, 0x9e, 0x96, 0xa5, 0x92, 0x93, 0xac, 0x7c,
  0x7a, 0xa1, 0x92, 0x7c, 0xa8, 0x92, 0x95, 0x6b, 0x97, 0x8a, 0x87, 0xa2,
  0xa7, 0x8b, 0x90, 0x8c, 0x84, 0x7a, 0x86, 0x81, 0x8c, 0x97, 0x94, 0xa5,
  0x9f, 0x88, 0x95, 0x71, 0x99, 0x93, 0x80, 0x7f, 0x8a, 0x7a, 0x9a, 0x7c,
  0x7b, 0x98, 0x7b, 0xa7, 0xaf, 0x81, 0x9f, 0x74, 0xa4, 0x90, 0x80, 0xa3,
  0xae, 0x9c, 0xad, 0x91, 0xa6, 0xae, 0xa5, 0x98, 0xa8, 0xa2, 0xa2, 0x9b,
  0x81, 0x9e, 0xb1, 0x8d, 0xa3, 0x94, 0x99, 0x75, 0x8c, 0x87, 0x98, 0x95,
  0x7e, 0xa5, 0xa7, 0x93, 0x95, 0x8f, 0x88, 0x96, 0xb2, 0xb4, 0xa8, 0x93,
  0x7f, 0xb3, 0xa8, 0x8c, 0xc2, 0x83, 0x96, 0x91, 0xa2, 0xa0, 0xaf, 0x77,
  0x91, 0xb3, 0x9e, 0x98, 0xaf, 0x99, 0x90, 0x88, 0x9a, 0xa9, 0x87, 0xa4,
  0x7b, 0x89, 0x85, 0x85, 0x79, 0x93, 0x6a, 0x8b, 0xaf, 0x8a, 0x84, 0x92,
  0x88, 0x9f, 0x88, 0x9d, 0xa4, 0x9a, 0x8d, 0x95, 0xac, 0x9f, 0x88, 0x9b,
  0x7e, 0x9a, 0x99, 0x96, 0x8f, 0x99, 0x90, 0xac, 0x9a, 0x91, 0xaa, 0x86,
  0xa5, 0x98, 0x9d, 0x87, 0x95, 0xa1, 0xb3, 0x8c, 0x89, 0xad, 0x89, 0x93,
  0x8b, 0x99, 0xa2, 0x71, 0x87, 0x7d, 0x87, 0x84, 0x9e, 0x98, 0xa9, 0x85,
  0x99, 0x71, 0x82, 0x83, 0xa1, 0x79, 0x8e, 0x9e, 0x74, 0x7e, 0x95, 0x8f,
  0x6b, 0xa4, 0x97, 0x98, 0x95, 0x8c, 0x8d, 0x9a, 0x86, 0x90, 0x92, 0x75,
  0x97, 0x95, 0x96, 0x79, 0x86, 0x82, 0xa1, 0x9a, 0xa6, 0x98, 0x70, 0x70,
  0xa5, 0xa7, 0x9c, 0x84, 0xa8, 0x78, 0x98, 0x9d, 0x95, 0xb1, 0x9d, 0x83,
  0xa5, 0x8c, 0xad, 0x97, 0xa0, 0xae, 0xb3, 0x9c, 0xb1, 0x93, 0xa1, 0xa0,
  0xa6, 0x84, 0xaa, 0x7d, 0x93, 0xbf, 0xab, 0x92, 0x97, 0x97, 0x9e, 0x5d,
  0xbd, 0x9f, 0xbf, 0xa8, 0x71, 0xb9, 0x9d, 0x95, 0xbe, 0x9e, 0xae, 0x8a,
  0x7a, 0x99, 0xca, 0x79, 0xb5, 0xb1, 0x99, 0x9c, 0x8c, 0x86, 0x91, 0x6f,
  0x79, 0x99, 0x8b, 0x8a, 0x76, 0x94, 0x81, 0x8b, 0x75, 0x78, 0x81, 0x89,
  0x86, 0x77, 0x90, 0x9c, 0x7d, 0x9c, 0x62, 0xbe, 0x92, 0xa1, 0x90, 0x7f,
  0x95, 0xa3, 0x8b, 0x73, 0x95, 0x8a, 0xad, 0xb9, 0x85, 0xa2, 0x86, 0xa8,
  0x8c, 0x80, 0xbf, 0x73, 0x8d, 0xa3, 0x9b, 0x8b, 0x9f, 0x97, 0xac, 0x95,
  0x97, 0x97, 0x70, 0x82, 0x9d, 0x9e, 0xad, 0xb7, 0x79, 0x8d, 0x8e, 0x95,
  0x7b, 0x95, 0x9f, 0x8d, 0x8f, 0xa0, 0x8d, 0x96, 0x74, 0x9c, 0x91, 0x8a,
  0x83, 0x7b, 0x8d, 0x90, 0x85, 0x9e, 0x8f, 0x9a, 0x87, 0x90, 0x8f, 0x89,
  0xaf, 0x91, 0xc3, 0xa3, 0x95, 0x7e, 0xa5, 0x83, 0x87, 0x9b, 0x85, 0x78,
  0xaf, 0x6f, 0x95, 0x7f, 0xb8, 0x9b, 0x8f, 0xa2, 0x9c, 0x8b, 0xb6, 0x8c,
  0xa1, 0xb7, 0x96, 0x93, 0xc4, 0x86, 0xa2, 0x79, 0x8c, 0xb2, 0xad, 0x8d,
  0xc0, 0xa4, 0xa5, 0x8f, 0x80, 0x94, 0xa0, 0x79, 0x8e, 0x99, 0xa8, 0x95,
  0x75, 0x91, 0x96, 0x7e, 0xb8, 0x9b, 0xa4, 0x72, 0xb4, 0xba, 0xba, 0x9a,
  0xc1, 0xab, 0xaa, 0x80, 0x7c, 0xb7, 0xc1, 0x7d, 0xb1, 0xae, 0x8b, 0x8b,
  0x89, 0x97, 0x9a, 0x95, 0x95, 0xa3, 0x81, 0x93, 0xa3, 0x8b, 0x71, 0x84,
  0x74, 0x95, 0x7c, 0x83, 0xa0, 0x8a, 0x8f, 0x99, 0x81, 0x71, 0x81, 0x7e,
  0x8c, 0x8a, 0xaa, 0x98, 0x98, 0x9a, 0x85, 0xab, 0xb2, 0x8d, 0x93, 0xb6,
  0x8c, 0xaa, 0x85, 0x91, 0x78, 0x8f, 0xaf, 0x9a, 0x9d, 0xac, 0x9a, 0x81,
  0xac, 0x94, 0xa2, 0x82, 0x9b, 0x88, 0x94, 0xa3, 0x82, 0xa7, 0x9e, 0x97,
  0x78, 0x8e, 0x8c, 0x87, 0x91, 0x9f, 0xa0, 0xa4, 0x9e, 0x86, 0x92, 0x8f,
  0x8e, 0x92, 0x8e, 0x99, 0x79, 0x83, 0x87, 0x82, 0x7c, 0xac, 0x96, 0x94,
  0x9d, 0x8e, 0x8f, 0xab, 0x94, 0x97, 0x79, 0x91, 0x99, 0x7d, 0xb2, 0x82,
  0xa5, 0x9c, 0xb2, 0x8f, 0xa7, 0x86, 0x8a, 0x95, 0xa8, 0x96, 0x97, 0x90,
  0x9e, 0xb3, 0xb0, 0x8b, 0x96, 0xc8, 0x99, 0x88, 0xcf, 0xa5, 0xb0, 0x8f,
  0xa6, 0xb8, 0xa7, 0x90, 0xbc, 0xa0, 0x9d, 0x72, 0x9c, 0x9d, 0xa7, 0x97,
  0xa2, 0xa9, 0xab, 0x9f, 0x7e, 0x94, 0x92, 0x7f, 0xbf, 0x9e, 0xa8, 0x93,
  0x9a, 0xb2, 0xba, 0x81, 0xd2, 0xb4, 0xae, 0x86, 0xb2, 0xa8, 0xba, 0x90,
  0xb8, 0xbb, 0x98, 0x95, 0x73, 0x84, 0xa1, 0x8e, 0xbd, 0x90, 0x8d, 0x8d,
  0x91, 0x87, 0x97, 0xb0, 0x8f, 0x93, 0x7a, 0x97, 0x99, 0x94, 0x9e, 0x91,
  0x98, 0x8b, 0x80, 0x71, 0x80, 0x84, 0xac, 0x98, 0xae, 0x9d, 0x74, 0x8e,
  0x84, 0x8b, 0xa6, 0x96, 0x9a, 0x94, 0x8a, 0x8e, 0xbe, 0x9b, 0xa5, 0x9c,
  0x90, 0x99, 0x8e, 0x83, 0xa6, 0x97, 0xbd, 0x83, 0x8b, 0x89, 0x8e, 0x89,
  0x77, 0x9e, 0xb0, 0xa9, 0x8a, 0x6f, 0x85, 0x73, 0x76, 0xa2, 0xa6, 0xa0,
  0x90, 0xaa, 0x8b, 0x87, 0x9a, 0x96, 0x89, 0x9d, 0x80, 0x8a, 0x89, 0x76,
  0xba, 0xa3, 0x86, 0xa0, 0x8d, 0x8d, 0x98, 0x90, 0x97, 0x8d, 0x85, 0x9f,
  0x93, 0xa2, 0x8e, 0x9f, 0x95, 0x9f, 0xc4, 0x8a, 0xa3, 0x80, 0x92, 0x7b,
  0x6c, 0xaf, 0x98, 0x80, 0x91, 0xb1, 0xa1, 0x8b, 0x80, 0xc0, 0xae, 0xa4,
  0xd0, 0xab, 0xc0, 0x79, 0x84, 0xab, 0xaa, 0x5f, 0xc1, 0xaf, 0xa6, 0x9c,
  0x92, 0xa0, 0xa1, 0x8c, 0xa1, 0x91, 0x95, 0x98, 0x98, 0x98, 0x99, 0x67,
  0xbf, 0xb4, 0xa9, 0x91, 0x73, 0xb4, 0xc8, 0x84, 0xd2, 0x95, 0xb2, 0x8f,
  0x83, 0xa8, 0xba, 0x8b, 0xab, 0xa2, 0xaf, 0x7b, 0x8d, 0x89, 0x85, 0x88,
  0xbc, 0xa5, 0x90, 0x8a, 0xa5, 0x93, 0x98, 0x69, 0xaa, 0x7e, 0x7f, 0x84,
  0x8f, 0x82, 0x97, 0xa7, 0x90, 0x7b, 0x7c, 0x74, 0x86, 0x89, 0x9f, 0x6b,
  0x97, 0x97, 0x74, 0x9c, 0xa6, 0x91, 0x9b, 0x98, 0x81, 0xb5, 0x8f, 0x82,
  0x8e, 0x8e, 0xb7, 0xa2, 0x9b, 0x9e, 0x8b, 0x97, 0x6e, 0x8e, 0xb0, 0x8e,
  0x90, 0x97, 0x8f, 0x78, 0xa3, 0x96, 0xa9, 0x93, 0x7e, 0x80, 0x84, 0x72,
  0x93, 0x99, 0x9e, 0xa7, 0x9a, 0x98, 0x92, 0x86, 0x87, 0x8d, 0x91, 0x95,
  0x98, 0x8d, 0x95, 0x83, 0xa7, 0xa5, 0x97, 0xad, 0xa6, 0x89, 0x8b, 0x7c,
  0x95, 0x8b, 0xad, 0x91, 0x93, 0x7e, 0xa6, 0x80, 0x7a, 0x9f, 0xc2, 0x94,
  0xa8, 0x8e, 0x98, 0x87, 0x82, 0xa9, 0x9a, 0x7b, 0xa9, 0xaf, 0xab, 0x76,
  0x92, 0xb0, 0xaa, 0x93, 0xd1, 0xcc, 0xb7, 0x9a, 0x99, 0xad, 0xb0, 0x83,
  0xbe, 0xa1, 0x99, 0x92, 0x7f, 0x9c, 0x95, 0x96, 0x9e, 0xa2, 0xa3, 0x8e,
  0x6e, 0x9b, 0xa1, 0x8b, 0xc9, 0x9b, 0x9e, 0x88, 0xa7, 0xb0, 0xcd, 0x9e,
  0xd1, 0xa6, 0xbd, 0x8c, 0xb4, 0xa1, 0xb8, 0x76, 0x9c, 0xab, 0xb3, 0x83,
  0x88, 0x86, 0x8b, 0x90, 0xa9, 0x88, 0xa0, 0x66, 0x96, 0x90, 0x8c, 0x9d,
  0xaa, 0xad, 0x87, 0x6a, 0x6f, 0x93, 0x9b, 0x8f, 0x86, 0xa0, 0x7b, 0x95,
  0x81, 0x8c, 0x99, 0x7a, 0x79, 0x91, 0x83, 0x89, 0x8e, 0x94, 0xa2, 0x89,
  0x8a, 0x98, 0x7c, 0x9f, 0xb1, 0x92, 0x9b, 0xb5, 0xae, 0x8c, 0x93, 0x71,
  0xad, 0x9c, 0xac, 0xaa, 0xaa, 0x9a, 0x8e, 0x78, 0x9b, 0x9e, 0x96, 0xa7,
  0x96, 0x81, 0x93, 0x55, 0xa1, 0x95, 0xaa, 0x97, 0x7e, 0x86, 0x82, 0x86,
  0x9d, 0x91, 0x92, 0x89, 0x78, 0x7f, 0x8b, 0x78, 0x91, 0x94, 0x92, 0xad,
  0x92, 0x9a, 0x88, 0x98, 0x90, 0x97, 0x8f, 0x95, 0x88, 0x7d, 0x89, 0x81,
  0x8a, 0x99, 0x97, 0x8f, 0x9b, 0x8e, 0x8c, 0x87, 0x95, 0xaf, 0xa3, 0x82,
  0xb4, 0xae, 0xb5, 0x83, 0x93, 0xbd, 0xa9, 0x8c, 0xee, 0xc2, 0xc1, 0x95,
  0x66, 0xa9, 0x99, 0x8b, 0xb9, 0xc0, 0xa2, 0x8a, 0xac, 0xa1, 0xa0, 0x82,
  0xa6, 0xba, 0xa2, 0x85, 0x84, 0x9b, 0xab, 0x88, 0xbf, 0x99, 0xa2, 0x82,
  0x8d, 0xa0, 0xd7, 0x80, 0xc9, 0xb6, 0xb4, 0x9d, 0x8e, 0x9c, 0xad, 0x83,
  0xaa, 0xb8, 0xa2, 0x7d, 0xa7, 0x86, 0xa2, 0x76, 0xb9, 0x95, 0xa7, 0x6f,
  0x7d, 0x82, 0xa8, 0x80, 0x9f, 0x92, 0x87, 0x8b, 0x91, 0x90, 0x94, 0x8d,
  0x94, 0x92, 0x83, 0x7f, 0x6f, 0x8c, 0xae, 0x9d, 0x96, 0x95, 0x86, 0x8e,
  0xb2, 0x8b, 0xa4, 0x98, 0x75, 0x9e, 0x84, 0x7c, 0x95, 0xa0, 0xad, 0x91,
  0xac, 0x97, 0x9e, 0x7c, 0x77, 0x8e, 0xa4, 0xa7, 0xaf, 0x9c, 0x9b, 0x90,
  0x83, 0xa0, 0x95, 0x88, 0x96, 0x89, 0x93, 0x64, 0x87, 0x8f, 0xae, 0x7f,
  0x9c, 0xa0, 0x90, 0x54, 0x95, 0x88, 0x8b, 0x96, 0x72, 0x95, 0x93, 0x82,
  0x96, 0x95, 0x8d, 0x7f, 0x96, 0x98, 0x86, 0x98, 0xac, 0xa8, 0xa1, 0x9f,
  0x90, 0x7c, 0x89, 0x84, 0x84, 0x94, 0xc5, 0x8d, 0xa2, 0x99, 0x82, 0x79,
  0x79, 0x9c, 0x8c, 0x95, 0xc7, 0xab, 0xa6, 0x85, 0x9c, 0xbc, 0xa7, 0x93,
  0xdc, 0xb3, 0xaf, 0x89, 0x87, 0xab, 0x9e, 0x8c, 0xbb, 0xad, 0xa5, 0x90,
  0x86, 0x97, 0x9f, 0x9f, 0xa6, 0xbe, 0xa8, 0x79, 0x83, 0xb1, 0xa1, 0x82,
  0xcb, 0xa8, 0x9e, 0x7e, 0x79, 0xa8, 0xd4, 0x88, 0xc9, 0xb7, 0xb2, 0x81,
  0xb8, 0xaa, 0xaa, 0x93, 0xb3, 0x9c, 0xb2, 0x89, 0x91, 0x97, 0x9b, 0x8d,
  0xc8, 0xa7, 0xa6, 0x60, 0x89, 0x96, 0xa5, 0x86, 0xa9, 0x99, 0x87, 0x7e,
  0x89, 0x89, 0x99, 0x93, 0x9a, 0xa5, 0x86, 0x78, 0x9d, 0x90, 0xaa, 0x8f,
  0x87, 0xad, 0x75, 0x7e, 0x96, 0x94, 0x98, 0x96, 0x6e, 0x85, 0x79, 0x6a,
  0x74, 0x97, 0xa2, 0x92, 0xb3, 0x95, 0x93, 0x72, 0x7f, 0x9a, 0x9e, 0xac,
  0xac, 0xa7, 0x8d, 0x68, 0x9c, 0x9e, 0xaf, 0x83, 0x89, 0x95, 0x87, 0x6b,
  0x92, 0x93, 0xa7, 0x88, 0x90, 0x7e, 0x84, 0x82, 0x87, 0x92, 0x88, 0xa0,
  0x8f, 0x7e, 0x96, 0x72, 0xb4, 0x8d, 0x81, 0x8e, 0x87, 0x97, 0x8e, 0x6e,
  0x8b, 0xa0, 0xa8, 0xa0, 0x9b, 0x95, 0x82, 0x76, 0xab, 0x98, 0xa3, 0x8b,
  0x8d, 0x98, 0x84, 0x7a, 0x95, 0xa2, 0xa2, 0x9f, 0xb4, 0xc2, 0xa4, 0x84,
  0x94, 0xb0, 0xa5, 0xa7, 0xd3, 0xbd, 0xaf, 0x7b, 0xa3, 0xab, 0xb3, 0x8e,
  0xc9, 0xb7, 0xb0, 0x9f, 0x8e, 0x9a, 0x99, 0x80, 0xae, 0xa9, 0x9f, 0x8e,
  0xa2, 0xac, 0x9b, 0x84, 0xc5, 0xb3, 0x9a, 0x84, 0x99, 0xa9, 0xcb, 0x89,
  0xc6, 0xb5, 0xb2, 0x7c, 0x6a, 0xa8, 0xa2, 0x9a, 0xb9, 0x96, 0xa5, 0x86,
  0xab, 0x8d, 0x92, 0x85, 0xca, 0xa7, 0xa4, 0x6b, 0x7e, 0x99, 0x97, 0x6e,
  0xad, 0x99, 0x8a, 0x6f, 0x8a, 0x94, 0x8f, 0x7d, 0x90, 0xae, 0x80, 0x66,
  0x90, 0x91, 0x94, 0xa1, 0x86, 0xa2, 0x8c, 0x90, 0x93, 0x92, 0x91, 0x9d,
  0x78, 0x7f, 0x84, 0x73, 0xa5, 0x89, 0xa3, 0xb0, 0x96, 0x87, 0x98, 0x7b,
  0xb0, 0x95, 0x9f, 0x9b, 0x8a, 0xaa, 0xa0, 0x66, 0x72, 0xa1, 0x99, 0x94,
  0x97, 0x8d, 0x89, 0x61, 0x85, 0x91, 0xa0, 0x89, 0x9a, 0x95, 0x93, 0x6e,
  0x9a, 0x9a, 0x91, 0xb6, 0x6a, 0x86, 0x94, 0x8d, 0x8c, 0x9a, 0x93, 0x89,
  0x8a, 0x8e, 0x8f, 0x80, 0xb6, 0xa0, 0xb3, 0x8a, 0x89, 0x98, 0x77, 0x88,
  0x9c, 0xa2, 0x93, 0x9e, 0x9b, 0x86, 0x7f, 0x71, 0x80, 0x9f, 0x9e, 0x86,
  0xc4, 0xb8, 0xad, 0x83, 0xa2, 0xa6, 0xb3, 0x71, 0xd4, 0xbb, 0xc0, 0x8d,
  0x7f, 0xa6, 0x99, 0x91, 0xc5, 0xb3, 0xaa, 0x8a, 0xb7, 0xa7, 0x9e, 0xa4,
  0xa7, 0xb6, 0xb1, 0x85, 0x9a, 0xa3, 0x97, 0x8a, 0xb6, 0xb1, 0x93, 0x77,
  0xa2, 0x9a, 0xcb, 0xa8, 0xc3, 0xaf, 0xb0, 0x82, 0x7a, 0xae, 0xa6, 0x8d,
  0xb7, 0xab, 0xb8, 0x84, 0x9d, 0x96, 0xa8, 0x79, 0xba, 0x98, 0xa0, 0x80,
  0xaa, 0x96, 0x8b, 0x88, 0xa9, 0xa2, 0x84, 0x7c, 0x85, 0x91, 0x9a, 0x83,
  0x8f, 0xa7, 0x78, 0x6e, 0x6b, 0x9d, 0x9f, 0x89, 0x94, 0xae, 0x8a, 0x6e,
  0x91, 0x8e, 0x99, 0xa4, 0x87, 0x80, 0x82, 0x76, 0x98, 0x9a, 0xac, 0xa4,
  0x9b, 0x93, 0x86, 0x6f, 0xae, 0x92, 0xb4, 0xa0, 0x91, 0xa4, 0x97, 0x6c,
  0x9f, 0x89, 0xad, 0xa5, 0x96, 0x97, 0x96, 0x71, 0x91, 0x9d, 0x8f, 0x91,
  0x87, 0x9c, 0x8d, 0x6f, 0x80, 0x97, 0x88, 0x76, 0x67, 0x89, 0x8f, 0x75,
  0x7e, 0x90, 0x93, 0x9a, 0x6f, 0x87, 0x8a, 0x86, 0xae, 0x9f, 0x8b, 0x89,
  0x9b, 0x98, 0x74, 0x85, 0x7f, 0x95, 0x93, 0x8d, 0x94, 0x9b, 0x95, 0x71,
  0x8d, 0x9f, 0xa0, 0x83, 0xc6, 0xbe, 0xa9, 0x91, 0x92, 0xa2, 0xb6, 0x8d,
  0xd3, 0xa4, 0xc2, 0x73, 0xa7, 0xbc, 0x9f, 0x8c, 0xcd, 0xb0, 0xac, 0x7f,
  0x78, 0x94, 0x8f, 0x78, 0xbd, 0xb8, 0xa2, 0x9e, 0x95, 0xa4, 0xa8, 0x9d,
  0xae, 0xc2, 0xaf, 0x86, 0x9a, 0xbb, 0xca, 0xa2, 0xb7, 0xbc, 0xab, 0x76,
  0xb4, 0xa4, 0xad, 0x8a, 0xb7, 0xa9, 0x95, 0x78, 0x9c, 0xa3, 0x9c, 0x83,
  0xc6, 0xa6, 0x96, 0x79, 0xa4, 0xa6, 0x9d, 0x86, 0xb2, 0x9d, 0x84, 0x7b,
  0x88, 0x98, 0x9a, 0x8f, 0x9c, 0x9c, 0x8a, 0x89, 0xaf, 0x97, 0x97, 0x88,
  0x8d, 0xa6, 0x86, 0x86, 0x84, 0x8a, 0x9a, 0x9d, 0x90, 0x96, 0x89, 0x5f,
  0xb5, 0x93, 0xa6, 0x97, 0x9e, 0x8b, 0x8f, 0x70, 0x82, 0x8d, 0xa5, 0x93,
  0x88, 0xad, 0x8d, 0x56, 0x9a, 0x98, 0xa1, 0x9b, 0x8b, 0x83, 0x87, 0x6f,
  0x8c, 0xa6, 0x8e, 0x80, 0x89, 0x82, 0x9d, 0x76, 0x90, 0x97, 0x8d, 0xa9,
  0x85, 0x83, 0x8c, 0x6f, 0xa7, 0x6d, 0x90, 0x7a, 0x8f, 0x88, 0x7e, 0x75,
  0x8f, 0xa2, 0x9b, 0x7a, 0x82, 0x9f, 0x81, 0x84, 0x91, 0x92, 0x93, 0x96,
  0x90, 0x9f, 0x7b, 0x85, 0x9e, 0xa2, 0xa1, 0x91, 0xc6, 0xae, 0xb1, 0x64,
  0xa1, 0xad, 0xa3, 0x82, 0xd1, 0xac, 0xbd, 0x70, 0x72, 0xa4, 0xaa, 0x89,
  0xc6, 0xb9, 0xae, 0x78, 0xa4, 0xa1, 0x9a, 0x8c, 0xa7, 0xb9, 0xa5, 0x8e,
  0x83, 0xa5, 0x9d, 0x98, 0xb3, 0x9c, 0xa0, 0x8c, 0x8f, 0xb1, 0xbc, 0x9c,
  0xc8, 0xaa, 0xa9, 0x82, 0x6d, 0xb1, 0xc3, 0x95, 0xae, 0xa1, 0xa9, 0x6c,
  0x8f, 0x99, 0x9e, 0x84, 0xbc, 0x9d, 0xa2, 0x76, 0x7d, 0x95, 0x9f, 0x70,
  0xb4, 0x94, 0x8e, 0x80, 0x9e, 0x91, 0x9c, 0xa5, 0x94, 0xa0, 0x8a, 0x6f,
  0xaf, 0x8b, 0xa9, 0x89, 0x83, 0xa2, 0x8d, 0x81, 0x82, 0x92, 0x95, 0x93,
  0x8c, 0x97, 0x90, 0x73, 0x8c, 0x89, 0xac, 0x9f, 0x97, 0x8f, 0x8e, 0x6e,
  0x69, 0x89, 0x8e, 0x9e, 0x89, 0x98, 0x8b, 0x6b, 0x91, 0x96, 0x9f, 0x95,
  0x96, 0x86, 0x8b, 0x70, 0xb7, 0x9a, 0xa3, 0x8a, 0x9f, 0x8c, 0x84, 0x7b,
  0x96, 0xa4, 0x84, 0xa5, 0x8c, 0x8f, 0x95, 0x6b, 0x96, 0x7d, 0x8d, 0x89,
  0xab, 0x8e, 0x90, 0x90, 0x8f, 0xa2, 0xa5, 0x8d, 0x8d, 0x7e, 0x86, 0x90,
  0x91, 0x8e, 0xad, 0x77, 0x8c, 0xa1, 0x70, 0x74, 0xa5, 0x8b, 0xa3, 0xab,
  0xc9, 0xa1, 0xad, 0x78, 0xa5, 0xb5, 0xbb, 0x71, 0xc2, 0xb1, 0xc7, 0x7b,
  0x92, 0xa9, 0x9f, 0x9e, 0xc3, 0xb2, 0xb7, 0x75, 0x7e, 0xa2, 0x9d, 0x9e,
  0xa9, 0xbe, 0xb1, 0x95, 0x9b, 0xa1, 0xa6, 0x86, 0x9c, 0xad, 0x9c, 0x89,
  0xaf, 0xad, 0xca, 0xb1, 0xbd, 0xce, 0x97, 0x82, 0x79, 0x94, 0xba, 0x99,
  0xaf, 0xa6, 0x99, 0x74, 0x86, 0xa3, 0xaa, 0x7b, 0xb6, 0x9d, 0xa7, 0x7c,
  0x95, 0xa7, 0x9a, 0x76, 0xae, 0x94, 0x98, 0x8c, 0xaf, 0x9d, 0x97, 0x8c,
  0x95, 0x9e, 0x82, 0x60, 0x7f, 0x99, 0x93, 0x86, 0x92, 0xc7, 0x92, 0x88,
  0x91, 0x90, 0x96, 0xa3, 0x8c, 0x87, 0x86, 0x7b, 0x9f, 0x9e, 0x9b, 0x9d,
  0x9b, 0x92, 0x84, 0x77, 0x86, 0x95, 0xa2, 0x9f, 0x98, 0x88, 0x81, 0x84,
  0xb9, 0x9a, 0xa5, 0x9a, 0x99, 0x86, 0x7d, 0x72, 0x83, 0xae, 0x9b, 0x8a,
  0x9f, 0x89, 0x8f, 0x89, 0xa4, 0x98, 0x87, 0x81, 0x81, 0x8d, 0x7c, 0x7c,
  0xaf, 0x7f, 0x98, 0x7e, 0x8f, 0x88, 0x8d, 0x67, 0x9d, 0x8f, 0x73, 0x76,
  0x8c, 0x7e, 0x81, 0x86, 0xa5, 0xa5, 0x94, 0x84, 0x8e, 0x95, 0x6f, 0x78,
  0x87, 0x98, 0x9c, 0x99, 0xc0, 0x96, 0xa5, 0x6f, 0x9f, 0xa8, 0x9b, 0x78,
  0xd2, 0xbc, 0xb7, 0x62, 0x97, 0xa6, 0x95, 0x8a, 0xd8, 0xac, 0xb5, 0x8d,
  0xa4, 0x9e, 0xa3, 0x78, 0xb9, 0xb3, 0xb9, 0x98, 0x73, 0xa0, 0xbc, 0xb5,
  0xae, 0xad, 0x9a, 0x7d, 0x7b, 0xae, 0xd7, 0xa3, 0xc0, 0xa6, 0x9c, 0x7a,
  0x8e, 0xa6, 0xb4, 0xa8, 0xaf, 0xa0, 0x94, 0x6b, 0x9f, 0xa9, 0x9e, 0x8f,
  0xc0, 0x95, 0x9c, 0x67, 0xb0, 0x9d, 0xa5, 0x76, 0xab, 0x90, 0x83, 0x76,
  0x90, 0x99, 0xa2, 0xa1, 0x90, 0x96, 0x88, 0x80, 0x93, 0x8d, 0x9d, 0x96,
  0x8a, 0xa7, 0x8c, 0x79, 0xac, 0x77, 0xa9, 0xa0, 0xa8, 0x8d, 0x8d, 0x72,
  0x86, 0x7f, 0x96, 0x98, 0x85, 0x8f, 0x8e, 0x72, 0xb5, 0x86, 0xa4, 0x98,
  0x95, 0x82, 0x76, 0x8b, 0xad, 0xa1, 0x9a, 0x7f, 0x9b, 0x84, 0x77, 0x81,
  0x8c, 0x9e, 0x97, 0x88, 0xa1, 0x89, 0x8c, 0x6d, 0x6b, 0xa0, 0x8c, 0x96,
  0x7a, 0x88, 0x90, 0x77, 0x88, 0x87, 0x8a, 0x91, 0x68, 0x95, 0x91, 0x79,
  0x87, 0x95, 0x8b, 0x83, 0x86, 0x86, 0x74, 0x9e, 0x8b, 0x9e, 0xb8, 0xad,
  0x97, 0x94, 0x83, 0x8d, 0x7a, 0x98, 0x9b, 0x9e, 0xca, 0xb3, 0x9e, 0x54,
  0x8e, 0x9d, 0x9f, 0x7f, 0xde, 0xa8, 0xb5, 0x79, 0x80, 0xad, 0x98, 0xa0,
  0xc7, 0xa9, 0xb0, 0x6d, 0x81, 0x9f, 0xab, 0x8d, 0xb5, 0xa6, 0x9a, 0x7c,
  0xb5, 0xb0, 0xb6, 0xa4, 0xbc, 0xa0, 0xa0, 0x60, 0xac, 0xa0, 0xca, 0x9e,
  0xc3, 0xa4, 0x96, 0x89, 0x7f, 0xa0, 0xc0, 0x93, 0xba, 0xa1, 0x90, 0x88,
  0x7b, 0xa4, 0xa5, 0x81, 0xc8, 0x9b, 0x9f, 0x6a, 0x80, 0x9f, 0x9a, 0x90,
  0xb7, 0xaf, 0x86, 0x7c, 0xb4, 0xa7, 0x94, 0x96, 0xa3, 0x97, 0x92, 0x86,
  0x7c, 0x94, 0x9e, 0x7a, 0x92, 0xa1, 0x94, 0x76, 0x79, 0x94, 0x9b, 0x99,
  0x9f, 0x96, 0x8e, 0x95, 0x8b, 0x90, 0x96, 0x9a, 0x97, 0x92, 0x6f, 0x6e,
  0xb4, 0x8e, 0xb7, 0xaa, 0xa8, 0x88, 0x76, 0x89, 0x8e, 0xa4, 0x9c, 0xa9,
  0xbd, 0x87, 0x77, 0x79, 0x7b, 0x8d, 0x8a, 0x87, 0x98, 0x99, 0x7b, 0x7b,
  0xa4, 0x95, 0x83, 0x79, 0x8a, 0x87, 0x88, 0x7a, 0x9f, 0x7e, 0x9b, 0xa4,
  0x8a, 0x95, 0x8a, 0x71, 0x8e, 0xa3, 0x84, 0x76, 0x84, 0x9c, 0x7a, 0x77,
  0x84, 0x9c, 0xb9, 0x92, 0x8d, 0x9f, 0x84, 0x62, 0x81, 0x89, 0xa6, 0x9f,
  0xb9, 0x97, 0xa8, 0x77, 0x73, 0x9f, 0x8c, 0xa3, 0xe2, 0xbe, 0xb2, 0x6c,
  0x7b, 0xa7, 0x9d, 0x7e, 0xbd, 0xa7, 0xa1, 0x82, 0x86, 0xa1, 0x98, 0x8e,
  0xc3, 0xb5, 0xa4, 0x85, 0xb8, 0x9b, 0xb3, 0x91, 0xc8, 0xa6, 0x9b, 0x87,
  0x9a, 0xa9, 0xbf, 0xba, 0xc7, 0xa3, 0x89, 0x71, 0x7d, 0xa0, 0xc1, 0xa6,
  0xb8, 0x92, 0x88, 0x64, 0x8d, 0xa5, 0xb1, 0x8c, 0xbc, 0x8e, 0x94, 0x70,
  0x8f, 0x9e, 0x9c, 0x8e, 0xaf, 0xa2, 0x96, 0x74, 0x83, 0x92, 0x99, 0xa5,
  0xa4, 0x9f, 0x89, 0x86, 0x73, 0x96, 0xa9, 0x82, 0xab, 0xac, 0x76, 0x7b,
  0x8b, 0x8d, 0xa3, 0x94, 0x9c, 0x88, 0x8b, 0x93, 0x86, 0x92, 0x8e, 0x81,
  0x9c, 0x92, 0x89, 0x8a, 0xb3, 0x9d, 0x9e, 0x90, 0xa5, 0x9d, 0x83, 0x7b,
  0x96, 0x90, 0xb2, 0x9e, 0x92, 0x91, 0x7c, 0x6d, 0xb5, 0x85, 0x8b, 0x97,
  0xa8, 0x80, 0x7d, 0x81, 0x6e, 0x95, 0x92, 0x73, 0x7f, 0x92, 0x85, 0x64,
  0x70, 0x7d, 0x9d, 0x92, 0xad, 0x91, 0x86, 0x80, 0x98, 0x87, 0x99, 0x85,
  0x88, 0x96, 0x84, 0x84, 0x91, 0xa0, 0xc3, 0xa2, 0x98, 0x82, 0x79, 0x70,
  0x88, 0x8d, 0xa6, 0x84, 0xc4, 0x92, 0xa1, 0x54, 0x92, 0x9b, 0x92, 0x7e,
  0xd0, 0xba, 0x9b, 0x66, 0x66, 0xae, 0x9e, 0xa6, 0xc9, 0x99, 0xa5, 0x73,
  0x87, 0x98, 0xae, 0x88, 0xb6, 0xb4, 0x9d, 0xa0, 0x70, 0x9d, 0xbb, 0x97,
  0xb6, 0xa5, 0x99, 0x8d, 0xad, 0x8a, 0xd6, 0xac, 0xc3, 0x9e, 0x8c, 0x7a,
  0x94, 0xa4, 0xac, 0xb0, 0xb3, 0x84, 0xa0, 0x73, 0x77, 0x9f, 0xa5, 0xa0,
  0xaf, 0x92, 0x88, 0x50, 0xab, 0x94, 0xaa, 0x84, 0xad, 0x9c, 0x85, 0x7b,
  0xa3, 0x8d, 0x93, 0x9c, 0xa5, 0x9f, 0x88, 0x82, 0x9c, 0x8c, 0x95, 0x9e,
  0xa3, 0xa7, 0x85, 0x88, 0x9c, 0x85, 0x85, 0xa2, 0xa5, 0x88, 0x8f, 0x97,
  0x84, 0x83, 0x91, 0xa3, 0x98, 0x9a, 0x8c, 0x99, 0x81, 0xa0, 0xa5, 0x89,
  0xa0, 0x82, 0x76, 0x67, 0x80, 0xa2, 0xb9, 0x79, 0xb2, 0x84, 0x8c, 0x7e,
  0x98, 0x91, 0x99, 0x94, 0x8f, 0xa4, 0x9a, 0x97, 0x75, 0x9d, 0x8d, 0xa0,
  0x9d, 0x82, 0x71, 0x82, 0x8c, 0x96, 0x97, 0x8b, 0x74, 0x85, 0x75, 0x7e,
  0xa5, 0x97, 0xaa, 0xa2, 0x94, 0x85, 0x7a, 0x84, 0x81, 0xad, 0x96, 0x95,
  0x9b, 0x7b, 0x76, 0x6b, 0x78, 0x87, 0x9f, 0xa6, 0xc4, 0x9a, 0xa5, 0x74,
  0x75, 0x81, 0x93, 0x9e, 0xcb, 0xa4, 0xb3, 0x7e, 0x6d, 0x9f, 0xa8, 0xb3,
  0xd7, 0xbd, 0x94, 0x7b, 0x87, 0xa9, 0x95, 0xac, 0xbd, 0xa6, 0xa1, 0x6d,
  0x87, 0xa9, 0xad, 0x9d, 0xa9, 0x9c, 0xa1, 0x82, 0x95, 0x8d, 0xb6, 0xbd,
  0xcd, 0x94, 0x9c, 0x89, 0x94, 0x8f, 0xae, 0x95, 0xb3, 0x80, 0x93, 0x92,
  0x66, 0x9b, 0xad, 0x87, 0xbe, 0x97, 0x7e, 0x82, 0x9c, 0xa4, 0xa6, 0x8b,
  0xb7, 0xa9, 0x92, 0x6b, 0xb6, 0xa3, 0xa6, 0x97, 0x9c, 0x97, 0x82, 0x78,
  0xa0, 0x95, 0x90, 0x80, 0xa5, 0xa6, 0x86, 0x94, 0x89, 0x8b, 0xa6, 0xae,
  0xa1, 0x8a, 0x7b, 0x8c, 0xa4, 0x92, 0x93, 0x9e, 0x8e, 0x91, 0x83, 0x8f,
  0x79, 0x87, 0xac, 0x8a, 0xb0, 0xa3, 0x98, 0x91, 0x83, 0x9c, 0xa6, 0xa4,
  0x9f, 0x94, 0x7d, 0x86, 0x6c, 0x93, 0xa1, 0x8c, 0x8c, 0x77, 0x73, 0x7e,
  0x87, 0x90, 0x8a, 0xb7, 0x70, 0x90, 0x74, 0x82, 0x9b, 0x7a, 0xa1, 0x94,
  0x9e, 0x77, 0x8f, 0x81, 0xae, 0xaa, 0xb0, 0x77, 0xa7, 0x76, 0x85, 0x86,
  0xac, 0xb6, 0x90, 0xb8, 0xa4, 0x8e, 0x6f, 0x81, 0x98, 0x9e, 0x9b, 0x9a,
  0xb7, 0x78, 0xbb, 0x74, 0x9b, 0x85, 0x9b, 0x90, 0xd6, 0xa4, 0xaa, 0x87,
  0x8c, 0x99, 0x94, 0x95, 0xc3, 0x95, 0x94, 0x87, 0x88, 0xa3, 0xac, 0x81,
  0xb0, 0x9c, 0x97, 0x8d, 0x8d, 0x99, 0xba, 0xa1, 0xbe, 0x96, 0x91, 0x92,
  0x9c, 0x8b, 0xb9, 0xaa, 0xbd, 0xa6, 0xa4, 0x9a, 0xa1, 0xa4, 0xb3, 0xb1,
  0xc7, 0x91, 0x8f, 0x6b, 0xa8, 0xa4, 0xaa, 0x99, 0xac, 0x93, 0x8e, 0x83,
  0x96, 0x9b, 0xb4, 0x99, 0x93, 0xa6, 0x7e, 0x83, 0x91, 0x9b, 0x91, 0x90,
  0xac, 0x93, 0x92, 0x7d, 0x7c, 0x94, 0x84, 0x8c, 0x99, 0x9b, 0x86, 0x98,
  0x72, 0x77, 0xa4, 0x8c, 0xac, 0x9a, 0x7f, 0x71, 0x7b, 0x84, 0x96, 0x97,
  0x91, 0x96, 0x8a, 0x75, 0x7d, 0x96, 0x85, 0xa9, 0xa3, 0x87, 0x82, 0x86,
  0xa9, 0x91, 0x9f, 0xb3, 0x9b, 0x90, 0x79, 0x86, 0x99, 0x9d, 0x97, 0x84,
  0x7d, 0x92, 0x79, 0xa8, 0x6b, 0xa6, 0x99, 0x77, 0x99, 0x89, 0x79, 0x85,
  0x6c, 0x7a, 0x8f, 0xb2, 0x83, 0x77, 0x6f, 0x90, 0x69, 0xb7, 0x91, 0x8a,
  0x84, 0x88, 0x82, 0x76, 0x9a, 0xa6, 0xc0, 0xae, 0xa0, 0x6f, 0x84, 0x73,
  0x8b, 0xba, 0x9f, 0x8b, 0xbb, 0x83, 0xba, 0x6b, 0x76, 0x9e, 0x85, 0x95,
  0xc4, 0x9f, 0xa8, 0x6e, 0x87, 0x8b, 0xa8, 0x90, 0xb7, 0x9c, 0x85, 0x82,
  0x79, 0x8c, 0x9e, 0x9b, 0xa9, 0x95, 0x83, 0x7b, 0x85, 0x96, 0xa5, 0x88,
  0xae, 0xa7, 0x89, 0x8b, 0x85, 0x96, 0xb0, 0x8f, 0xbf, 0x89, 0x8f, 0x8a,
  0x89, 0x91, 0xb3, 0xa7, 0xbc, 0x89, 0x9b, 0x8c, 0x71, 0x9e, 0x9c, 0x93,
  0xae, 0xa2, 0xa1, 0x74, 0x7a, 0xa9, 0x9f, 0x92, 0x95, 0xbe, 0x9e, 0x82,
  0xb5, 0x90, 0x78, 0x75, 0x96, 0xaa, 0x9b, 0x92, 0xab, 0x8a, 0xa2, 0x91,
  0x90, 0xaf, 0x86, 0x78, 0xa0, 0x91, 0x7f, 0xb6, 0x8f, 0xa1, 0x87, 0xa6,
  0xad, 0x90, 0x8c, 0x9a, 0x94, 0x88, 0x8a, 0xa1, 0x78, 0x97, 0x9c, 0x8b,
  0xae, 0x8f, 0x7d, 0x71, 0xa8, 0xa5, 0x7a, 0x96, 0xa7, 0xb0, 0x84, 0x7c,
  0x98, 0x85, 0x75, 0x90, 0x95, 0x94, 0x6f, 0xa2, 0x86, 0x95, 0x83, 0x74,
  0x8a, 0x85, 0x72, 0x7e, 0x78, 0x97, 0xa7, 0xa4, 0xb1, 0x81, 0x7a, 0x9d,
  0xa4, 0x91, 0x92, 0xac, 0x92, 0x82, 0x85, 0x77, 0x75, 0xa3, 0x9c, 0x87,
  0x8d, 0x7a, 0x8a, 0x63, 0x8f, 0xa5, 0x82, 0x93, 0xb7, 0x80, 0x86, 0x79,
  0x9b, 0xae, 0x9b, 0x86, 0xaf, 0x91, 0x95, 0x97, 0x8c, 0xa8, 0x99, 0x98,
  0x9d, 0x8d, 0x93, 0x91, 0x89, 0x9c, 0x86, 0x93, 0xac, 0x75, 0xa9, 0x8b,
  0x7f, 0x9e, 0x8c, 0x96, 0xa9, 0x7d, 0x88, 0x8d, 0x98, 0x89, 0x82, 0xa6,
  0xb7, 0x90, 0xa0, 0x90, 0x86, 0x9d, 0xaa, 0x91, 0xbb, 0x83, 0x7d, 0xaa,
  0x90, 0xa6, 0x99, 0x8b, 0x98, 0x91, 0x95, 0x9e, 0x8b, 0x90, 0xae, 0x66,
  0x83, 0xb3, 0x90, 0x96, 0x8d, 0x7d, 0xa1, 0x83, 0x87, 0xb3, 0x75, 0x8f,
  0xa2, 0x97, 0x77, 0x98, 0x84, 0xa8, 0x85, 0x83, 0x90, 0x92, 0xa1, 0xa2,
  0x85, 0xa1, 0x9c, 0x87, 0x7f, 0x8d, 0x89, 0x6b, 0x7e, 0x99, 0x90, 0x75,
  0x8a, 0x9a, 0x84, 0x96, 0x8b, 0x9d, 0x88, 0x8f, 0xab, 0x89, 0x8a, 0x7b,
  0x9c, 0xb8, 0x7d, 0x88, 0x8e, 0x99, 0xa6, 0xb3, 0x7a, 0x8a, 0x8e, 0x82,
  0x81, 0xa2, 0x7b, 0x76, 0x71, 0x93, 0x89, 0x8e, 0x8a, 0x9c, 0x9b, 0xad,
  0x80, 0x8b, 0x83, 0x77, 0x8a, 0x9c, 0x8f, 0x9c, 0x97, 0x8e, 0x8d, 0xa4,
  0x85, 0x85, 0x89, 0x8c, 0x87, 0x97, 0x83, 0x73, 0x84, 0x80, 0x47, 0x87,
  0xb0, 0x67, 0x95, 0x90, 0x7a, 0x85, 0x65, 0xad, 0x68, 0x85, 0x8f, 0x96,
  0x9b, 0x99, 0x85, 0xa8, 0x8c, 0x86, 0x8f, 0x8e, 0xaa, 0xac, 0x7d, 0x93,
  0x8c, 0xa1, 0x86, 0x76, 0x6a, 0x9e, 0x7d, 0xab, 0xa2, 0x80, 0x84, 0x94,
  0x98, 0xa4, 0x94, 0xa2, 0x9f, 0xc0, 0x8d, 0x8f, 0x8e, 0xb1, 0x91, 0xa7,
  0xb2, 0x8d, 0x95, 0x9a, 0x7f, 0x9a, 0x81, 0x8f, 0x9a, 0x97, 0xa3, 0x8a,
  0xac, 0xb5, 0x59, 0x97, 0x82, 0xb5, 0x8e, 0xb0, 0x94, 0x9f, 0x65, 0x9e,
  0xa3, 0xae, 0x9b, 0x9a, 0x9a, 0x76, 0x80, 0x84, 0x86, 0xaa, 0xa6, 0x7a,
  0x9a, 0x88, 0x5b, 0x92, 0x8e, 0x99, 0x91, 0x93, 0x9a, 0x94, 0x79, 0x6e,
  0x89, 0x93, 0x9d, 0x83, 0xaa, 0x90, 0x97, 0x7b, 0x77, 0xaa, 0x99, 0xae,
  0x75, 0x95, 0xa5, 0x76, 0x9c, 0x9a, 0x98, 0x8e, 0xb5, 0xb4, 0x6f, 0x80,
  0x68, 0xa9, 0x95, 0x89, 0x8c, 0x6e, 0x94, 0x7c, 0xb3, 0xa2, 0x98, 0x99,
  0x94, 0x76, 0x8a, 0x97, 0x9e, 0xb2, 0x89, 0x84, 0x94, 0x99, 0x85, 0x8e,
  0xa4, 0x97, 0x85, 0x9a, 0x87, 0x86, 0x8c, 0x9f, 0xaa, 0x9a, 0x77, 0x83,
  0xae, 0x93, 0x53, 0xb3, 0xb8, 0x8a, 0x86, 0x7c, 0x98, 0x64, 0x90, 0x95,
  0x87, 0xa4, 0x92, 0x9a, 0x9b, 0x87, 0x9e, 0xa4, 0x92, 0x89, 0x86, 0x93,
  0x9e, 0x7f, 0x8b, 0xaa, 0x7e, 0x92, 0x9a, 0x92, 0x83, 0x91, 0x87, 0xbc,
  0x6a, 0x90, 0x8e, 0x86, 0xac, 0x83, 0x91, 0x8c, 0x8b, 0xa0, 0x82, 0x99,
  0x94, 0x83, 0x9e, 0x8b, 0x9a, 0xb4, 0x7d, 0x9c, 0xa8, 0xa1, 0x89, 0x7c,
  0x88, 0xcb, 0x91, 0x95, 0x88, 0x9c, 0x5c, 0x95, 0x9c, 0xa6, 0x81, 0x9d,
  0x9d, 0xb2, 0x62, 0x9e, 0x85, 0xa8, 0x8b, 0x9a, 0xa6, 0xb2, 0x61, 0xb6,
  0x98, 0x8c, 0xa0, 0x95, 0xae, 0x99, 0x73, 0x95, 0x93, 0xa9, 0x80, 0x9c,
  0x94, 0x8c, 0x94, 0x99, 0x7d, 0x90, 0x8a, 0x96, 0x8c, 0xab, 0x91, 0x78,
  0xa3, 0x9f, 0x8c, 0x9d, 0x93, 0x9f, 0x7a, 0x7b, 0x90, 0x99, 0xaf, 0x97,
  0x9c, 0xa1, 0x7e, 0x66, 0x91, 0x9a, 0x9d, 0x99, 0x88, 0x93, 0x94, 0xa0,
  0x7b, 0x93, 0x93, 0x94, 0x85, 0xa7, 0x87, 0x84, 0x96, 0x92, 0x97, 0x89,
  0x69, 0x8f, 0xab, 0xaf, 0xa3, 0x8a, 0x95, 0x8d, 0x8f, 0x97, 0x8b, 0x80,
  0x9c, 0x9f, 0x91, 0xa4, 0x96, 0x9a, 0x53, 0x86, 0x71, 0x8a, 0x62, 0x78,
  0x97, 0x8f, 0xa4, 0x99, 0x75, 0xad, 0x5a, 0x88, 0xa8, 0x8e, 0x8a, 0xb6,
  0x99, 0x81, 0x6a, 0xa4, 0xa7, 0x92, 0x91, 0xb0, 0x8c, 0x7f, 0x6c, 0x87,
  0x9a, 0x84, 0x88, 0xab, 0x8f, 0x96, 0x6b, 0xa0, 0x87, 0xaa, 0xb2, 0x7f,
  0xab, 0x87, 0x9c, 0x99, 0x94, 0x97, 0xa4, 0x93, 0x9f, 0x90, 0x73, 0x83,
  0xaf, 0x95, 0xa0, 0x78, 0x81, 0x81, 0x80, 0x9e, 0x7d, 0x99, 0x79, 0x88,
  0x9f, 0x98, 0xb7, 0x7f, 0xa6, 0x90, 0x74, 0x87, 0xb6, 0x9d, 0x9f, 0x8b,
  0xa6, 0x93, 0x8c, 0x87, 0x7d, 0xbd, 0x92, 0x87, 0x95, 0x8c, 0x87, 0x78,
  0x90, 0x9d, 0x78, 0x8d, 0x8b, 0x9a, 0x83, 0x8d, 0xae, 0xab, 0x8d, 0x99,
  0x85, 0x8c, 0x8d, 0x88, 0x9d, 0x9d, 0x73, 0x82, 0x94, 0x83, 0x7c, 0x6e,
  0x84, 0x9f, 0xa7, 0x95, 0x7d, 0x9a, 0x83, 0xa1, 0x6b, 0x9b, 0xa3, 0xad,
  0x89, 0x89, 0x88, 0x88, 0xa2, 0x86, 0x9b, 0x8b, 0x9b, 0x9d, 0x92, 0x8c,
  0xaf, 0xa0, 0xa0, 0xa6, 0x7f, 0x98, 0x8c, 0x9d, 0x9b, 0x90, 0x9c, 0x89,
  0x89, 0x93, 0x78, 0x88, 0xaf, 0x97, 0x97, 0x99, 0x9b, 0xa9, 0x79, 0xa5,
  0x80, 0x9d, 0x89, 0x80, 0x94, 0x96, 0xb5, 0xa6, 0x97, 0x9d, 0x3d, 0x9e,
  0x89, 0x8e, 0xa9, 0x96, 0x97, 0x7d, 0x5b, 0x7d, 0xa1, 0xa4, 0xa5, 0x80,
  0x83, 0x89, 0x5e, 0x90, 0x95, 0x8f, 0xa8, 0x8d, 0x6d, 0xa4, 0x76, 0xa2,
  0x80, 0x99, 0xc1, 0x8c, 0x70, 0x73, 0x73, 0x92, 0x75, 0x92, 0xbf, 0x95,
  0x85, 0x8e, 0x82, 0xb0, 0x97, 0x9e, 0x9f, 0xaf, 0x98, 0x8e, 0x97, 0x8e,
  0x9a, 0x90, 0x88, 0xa9, 0x9a, 0x95, 0x95, 0x89, 0x6e, 0xab, 0x70, 0x86,
  0xc1, 0x95, 0xa0, 0x85, 0xa1, 0x9c, 0x7d, 0x8e, 0xcd, 0x8b, 0x98, 0xa0,
  0x9a, 0xa0, 0x74, 0x8a, 0xb4, 0x8c, 0x84, 0x87, 0x98, 0x99, 0x8a, 0x9c,
  0x7f, 0x97, 0x9d, 0x83, 0xa0, 0x8f, 0x8f, 0x93, 0xa7, 0x96, 0xa4, 0xb3,
  0x8f, 0x95, 0x87, 0x89, 0x6f, 0x76, 0x92, 0x98, 0x8d, 0x98, 0x7c, 0xa7,
  0x91, 0xa0, 0xbd, 0x7c, 0x79, 0x8c, 0x8e, 0x82, 0x86, 0x99, 0xa0, 0x70,
  0x7b, 0x89, 0x97, 0x84, 0x89, 0x8a, 0xa2, 0xa8, 0x94, 0x94, 0x91, 0x73,
  0x80, 0x86, 0x97, 0x7e, 0x8d, 0x8f, 0x90, 0x9e, 0xb1, 0x89, 0x89, 0x80,
  0xbb, 0x9c, 0x97, 0x73, 0x9f, 0xb5, 0x5b, 0x7f, 0xa8, 0x92, 0xd3, 0x85,
  0x98, 0x96, 0x2d, 0xb5, 0x93, 0x7e, 0xcd, 0xb8, 0x89, 0x8f, 0x49, 0xab,
  0x84, 0x90, 0xb0, 0x8b, 0x8e, 0x80, 0x86, 0x6f, 0x88, 0x8e, 0xa2, 0xa1,
  0x8f, 0x80, 0x70, 0x69, 0x74, 0x94, 0xcd, 0xc5, 0x8c, 0x97, 0x61, 0x9b,
  0x8a, 0x88, 0xc3, 0xb1, 0xb9, 0x75, 0x71, 0x89, 0x76, 0x8f, 0x9d, 0xa7,
  0xb5, 0x96, 0x8f, 0x99, 0x9f, 0x9f, 0x83, 0x8d, 0xaa, 0x7f, 0x8c, 0x71,
  0x74, 0xa2, 0x68, 0x8a, 0xba, 0x9c, 0x9f, 0xac, 0xa4, 0x9b, 0x75, 0x90,
  0x95, 0x7e, 0x84, 0xbb, 0x98, 0xa7, 0x85, 0xac, 0xa8, 0x91, 0x91, 0x8a,
  0x9e, 0x8d, 0x8e, 0xa8, 0x81, 0x8b, 0x9c, 0x88, 0x85, 0x99, 0x91, 0x7b,
  0x7a, 0x87, 0x8b, 0x8b, 0x80, 0x95, 0x77, 0xa1, 0xa1, 0x8d, 0x88, 0x83,
  0x8b, 0x8a, 0x8c, 0x76, 0x91, 0xa2, 0x97, 0x99, 0xa5, 0x82, 0x8f, 0x8e,
  0x7d, 0xaf, 0xaa, 0x8e, 0x7c, 0x8e, 0x97, 0x9f, 0x7c, 0x6e, 0x98, 0x96,
  0xaf, 0x80, 0xaa, 0x70, 0x96, 0xa6, 0xb5, 0x8b, 0x8f, 0x83, 0x9b, 0x94,
  0xc0, 0x86, 0x8d, 0x94, 0x8d, 0xa8, 0x91, 0xa5, 0x93, 0x92, 0x67, 0x95,
  0x9d, 0x86, 0xcc, 0xae, 0x5c, 0xb1, 0x2f, 0x8c, 0x9a, 0x6f, 0xd8, 0x8d,
  0x81, 0xa3, 0x39, 0x75, 0x98, 0x91, 0xc1, 0xbb, 0x62, 0x9a, 0x54, 0x9e,
  0x7e, 0x91, 0xbf, 0x8f, 0x81, 0x82, 0x73, 0x9e, 0x80, 0x93, 0xcc, 0xc2,
  0x7b, 0x89, 0x6b, 0x86, 0xa9, 0x71, 0xd6, 0xc4, 0xa3, 0x9a, 0x79, 0x71,
  0x6d, 0x8c, 0xa0, 0xb6, 0x86, 0x89, 0x8b, 0xa7, 0x8b, 0xa4, 0x7d, 0x83,
  0xa4, 0xa6, 0x8d, 0x79, 0x8a, 0x95, 0x68, 0x8f, 0x8d, 0xb0, 0x8e, 0x90,
  0x8e, 0x9c, 0x7f, 0xa5, 0xa0, 0x98, 0x83, 0xae, 0x9f, 0x97, 0x86, 0x9c,
  0x94, 0xaa, 0xa1, 0x94, 0x8b, 0x8a, 0x92, 0x89, 0x9a, 0x8f, 0x98, 0x7b,
  0xa0, 0x99, 0x8b, 0x7f, 0x80, 0x8e, 0x89, 0x8b, 0x95, 0xa7, 0x82, 0x7d,
  0x8d, 0x9e, 0xa6, 0x8c, 0x76, 0x98, 0x94, 0x8c, 0x70, 0x91, 0xa1, 0x81,
  0x74, 0xa0, 0x98, 0x97, 0x79, 0x83, 0x9d, 0xb2, 0x7a, 0x8d, 0x92, 0x81,
  0xb7, 0x6b, 0x97, 0x9d, 0x93, 0x7e, 0xad, 0x85, 0x8f, 0x76, 0xca, 0x92,
  0x89, 0x89, 0x9a, 0x97, 0xca, 0x8f, 0x99, 0x93, 0xb4, 0x98, 0x90, 0xb4,
  0x8a, 0xa3, 0x5f, 0x98, 0x98, 0x7f, 0xc9, 0x96, 0x65, 0x93, 0x13, 0x7a,
  0x89, 0x6c, 0xd1, 0xb9, 0x58, 0x7c, 0x36, 0x6b, 0x9f, 0x8a, 0xca, 0x78,
  0x6c, 0x86, 0x5a, 0x9d, 0x99, 0x96, 0xa7, 0xc8, 0x78, 0x90, 0x6d, 0x7e,
  0x7b, 0x86, 0xd6, 0xb9, 0x87, 0x83, 0x80, 0xb2, 0x93, 0x7f, 0xd7, 0xc4,
  0x9a, 0x93, 0x61, 0x8a, 0x92, 0x95, 0xb4, 0x8e, 0x97, 0x72, 0x7a, 0x7d,
  0x81, 0x9f, 0x6a, 0xa5, 0x85, 0x8d, 0x7d, 0x80, 0xa7, 0x9b, 0x73, 0xa5,
  0x94, 0x8d, 0x9c, 0x9b, 0x97, 0x9b, 0x7c, 0x9c, 0x94, 0x90, 0x91, 0x8c,
  0xa2, 0xaa, 0x7b, 0x9e, 0x92, 0x92, 0x87, 0xa2, 0x92, 0xab, 0x87, 0x83,
  0x9d, 0xb4, 0x98, 0x89, 0x87, 0x90, 0x85, 0x8b, 0x7b, 0x85, 0x9c, 0x82,
  0x93, 0xac, 0x8a, 0xa6, 0x6a, 0x81, 0x94, 0x85, 0x74, 0xaf, 0x8a, 0x86,
  0x94, 0xa6, 0xa3, 0x8b, 0x7e, 0xa3, 0x95, 0xa2, 0x91, 0x95, 0xa0, 0x79,
  0xaa, 0xae, 0x94, 0x9f, 0x6c, 0x69, 0xa2, 0x9c, 0x6b, 0x87, 0x99, 0x95,
  0x97, 0x88, 0xbd, 0x80, 0x9f, 0x8d, 0x7f, 0x9f, 0xc2, 0x8f, 0x87, 0x80,
  0x70, 0x8e, 0x9f, 0x9b, 0x84, 0x90, 0x68, 0x8e, 0x83, 0x7f, 0xcd, 0xa0,
  0x77, 0x99, 0x19, 0x9b, 0x9c, 0x6b, 0xd4, 0xaa, 0x50, 0x89, 0x19, 0x67,
  0xa0, 0x86, 0xc6, 0x8a, 0x85, 0x7a, 0x50, 0x7f, 0xa4, 0x93, 0xb1, 0xac,
  0x59, 0x82, 0x62, 0xa0, 0x6b, 0x8e, 0xdb, 0xb2, 0x93, 0x8f, 0x66, 0x72,
  0x6a, 0x77, 0xdc, 0xca, 0x9c, 0x97, 0x5c, 0x79, 0x96, 0x84, 0xb1, 0xa9,
  0x81, 0x6f, 0x80, 0x96, 0xb2, 0x97, 0x74, 0xa7, 0x8d, 0xa1, 0x98, 0x7a,
  0x93, 0xa1, 0x72, 0x91, 0x92, 0xa6, 0x9b, 0x66, 0x89, 0x92, 0x7d, 0x9f,
  0xac, 0xaa, 0x88, 0x81, 0xa0, 0xb4, 0x81, 0x89, 0xae, 0x9d, 0x93, 0xa5,
  0xa8, 0xa9, 0x8b, 0x9f, 0x9e, 0x8c, 0x92, 0x8b, 0xab, 0xa8, 0xa9, 0xb0,
  0x8f, 0x96, 0x8f, 0xa7, 0x81, 0xa3, 0x96, 0x84, 0x90, 0x98, 0xac, 0x8b,
  0x6c, 0xaf, 0x85, 0x96, 0x73, 0x8b, 0xa3, 0x88, 0x9f, 0xa1, 0x81, 0xa5,
  0xa6, 0x74, 0xa3, 0x9c, 0xa1, 0x90, 0x8f, 0x9e, 0xa9, 0x6d, 0xa9, 0xa6,
  0x98, 0x74, 0x91, 0x85, 0x92, 0x8f, 0xb4, 0x76, 0x7b, 0x86, 0x87, 0x73,
  0xb7, 0x82, 0x8f, 0x66, 0x94, 0xa2, 0xad, 0x95, 0x8a, 0xa1, 0x5c, 0x6e,
  0x94, 0x75, 0xdc, 0x8b, 0x67, 0x85, 0x1a, 0x93, 0xb5, 0x5a, 0xd9, 0xa9,
  0x64, 0x91, 0x2e, 0x86, 0xb3, 0x84, 0xc0, 0x98, 0x76, 0x9f, 0x50, 0x83,
  0x6f, 0x90, 0xb8, 0x85, 0x7c, 0x88, 0x65, 0x68, 0xa6, 0x81, 0xe1, 0xbc,
  0x95, 0x71, 0x6f, 0xa6, 0x99, 0x6e, 0xe3, 0xc7, 0xa0, 0x8b, 0x63, 0xa4,
  0x98, 0x81, 0xa6, 0xb6, 0x90, 0x71, 0x83, 0x88, 0x9f, 0x90, 0x74, 0x7c,
  0x91, 0x87, 0x91, 0x94, 0x7d, 0x8a, 0x5b, 0x9a, 0x99, 0x87, 0x94, 0x78,
  0x7f, 0x9d, 0x8a, 0x9f, 0xa2, 0x86, 0x8b, 0x84, 0x77, 0xb1, 0x85, 0x96,
  0xb0, 0x91, 0x8f, 0x84, 0x7e, 0xb5, 0x95, 0x84, 0x9d, 0x97, 0x80, 0x7b,
  0x72, 0xb0, 0x96, 0x9c, 0x95, 0x88, 0x9b, 0x7b, 0x9f, 0xb1, 0x8f, 0xa1,
  0x98, 0x91, 0xa2, 0x87, 0x70, 0xb3, 0x88, 0x8a, 0x8d, 0x7b, 0xa5, 0x99,
  0xa2, 0x99, 0x99, 0xbb, 0x86, 0x79, 0xb2, 0x7d, 0x66, 0x89, 0x9a, 0xb8,
  0xad, 0x66, 0x98, 0x87, 0xa1, 0x71, 0x79, 0x83, 0x8e, 0x70, 0xb3, 0x7c,
  0x90, 0x8f, 0x81, 0x77, 0xc6, 0x8c, 0x93, 0x6d, 0x94, 0x9c, 0xb1, 0xb2,
  0x7b, 0x9c, 0x70, 0x84, 0x87, 0x6e, 0xd2, 0x9a, 0x53, 0x7d, 0x23, 0x96,
  0xb0, 0x59, 0xd7, 0xb5, 0x5f, 0x9a, 0x20, 0x99, 0xaa, 0x83, 0xc3, 0x8b,
  0x6f, 0xa4, 0x4e, 0x98, 0xa4, 0xa1, 0xbf, 0x8b, 0x80, 0x8a, 0x6a, 0x8c,
  0x8b, 0x8e, 0xec, 0xc0, 0x8f, 0x8d, 0x6c, 0x70, 0x9b, 0x6f, 0xd9, 0xbb,
  0x9e, 0x77, 0x61, 0x7d, 0x8c, 0x83, 0xa4, 0xa6, 0x88, 0x6a, 0x88, 0x86,
  0x71, 0x9a, 0x66, 0xad, 0x8f, 0x99, 0x94, 0x8d, 0x8d, 0x93, 0x65, 0xb0,
  0x89, 0x85, 0x8e, 0x62, 0xae, 0x9e, 0x70, 0xa5, 0xa3, 0x87, 0x91, 0xa9,
  0x91, 0xad, 0x84, 0x95, 0xb6, 0xb1, 0x7e, 0x6d, 0x98, 0xb2, 0x78, 0x94,
  0xa7, 0x89, 0x9a, 0x99, 0xaa, 0xb9, 0x8f, 0xa5, 0x9f, 0x79, 0x96, 0x5d,
  0x94, 0xbe, 0x82, 0x97, 0xae, 0x74, 0xa7, 0x67, 0xb3, 0xaa, 0x89, 0x96,
  0x73, 0x7f, 0x9f, 0x9d, 0x97, 0xa4, 0x8f, 0x82, 0x74, 0x84, 0xb7, 0x77,
  0x8f, 0x9f, 0x9b, 0x96, 0xaf, 0x7e, 0x94, 0x74, 0x8d, 0x87, 0x95, 0x8d,
  0x8b, 0x8e, 0xcb, 0x99, 0x92, 0x83, 0x88, 0x98, 0xc3, 0x7d, 0x99, 0x60,
  0x7f, 0xa2, 0xa9, 0x9a, 0x83, 0x97, 0x72, 0x5a, 0x8a, 0x8b, 0xcd, 0xb6,
  0x6b, 0x9b, 0x1e, 0x98, 0x7d, 0x65, 0xd7, 0xb7, 0x35, 0xab, 0x34, 0x73,
  0x8a, 0x91, 0xbb, 0x96, 0x77, 0x93, 0x60, 0x96, 0x77, 0x92, 0xc4, 0xc5,
  0x83, 0x84, 0x62, 0x7f, 0x8b, 0x80, 0xef, 0xcb, 0x9a, 0x88, 0x70, 0x9b,
  0x98, 0x6d, 0xdf, 0xa5, 0x90, 0x8d, 0x6f, 0x90, 0x67, 0x7b, 0xb5, 0xa0,
  0x81, 0x8a, 0x85, 0x86, 0xaa, 0x90, 0x7a, 0xa1, 0x92, 0x6d, 0x94, 0x70,
  0x8f, 0x8f, 0x6d, 0xbe, 0x96, 0x79, 0x91, 0x74, 0xa8, 0x9c, 0x91, 0xa9,
  0xa4, 0x90, 0x9e, 0x8a, 0x86, 0xa4, 0x86, 0x82, 0xaa, 0xa6, 0x96, 0x83,
  0x94, 0xbf, 0x87, 0x89, 0xaa, 0xa0, 0x9b, 0x7b, 0xa1, 0xb1, 0x8e, 0xa1,
  0xb5, 0x7a, 0x9a, 0x84, 0x6e, 0xb6, 0x81, 0x96, 0xac, 0x8b, 0xa5, 0x84,
  0x98, 0xbc, 0x8a, 0x90, 0x9a, 0x98, 0xaa, 0x88, 0x74, 0xa4, 0x7e, 0x8f,
  0x9c, 0x8e, 0xb4, 0x7a, 0xa0, 0xc1, 0x96, 0x7e, 0x9a, 0x85, 0xa1, 0x6b,
  0x92, 0x93, 0xa2, 0x7d, 0x94, 0x89, 0x98, 0xa9, 0x8c, 0x80, 0x9e, 0xa7,
  0xc8, 0x91, 0xa8, 0x69, 0x94, 0x9f, 0xa4, 0xad, 0x9e, 0x97, 0x75, 0x73,
  0x7d, 0x8d, 0xd2, 0xba, 0x5e, 0x99, 0x16, 0x80, 0x83, 0x5a, 0xd3, 0x98,
  0x3d, 0x7e, 0x2e, 0x78, 0x9a, 0x86, 0xc9, 0x9a, 0x71, 0x85, 0x49, 0x75,
  0x92, 0x9f, 0xc6, 0xa5, 0x97, 0x82, 0x65, 0x91, 0x76, 0x7c, 0xdf, 0xae,
  0x97, 0x86, 0x73, 0x62, 0x6c, 0x66, 0xd7, 0xb6, 0x9e, 0x7a, 0x66, 0xa2,
  0x8a, 0x85, 0xac, 0xae, 0x8f, 0x85, 0x92, 0x6a, 0xa0, 0xa2, 0x89, 0x86,
  0x93, 0x9e, 0x99, 0xa0, 0xb9, 0x94, 0x65, 0xa5, 0x86, 0xa3, 0x90, 0x8c,
  0x95, 0x9b, 0x89, 0xb5, 0xa9, 0x97, 0x91, 0x63, 0x72, 0xa4, 0x8c, 0x9c,
  0xa1, 0xac, 0x8c, 0x7d, 0x96, 0xbe, 0x74, 0x91, 0xbb, 0x9d, 0x8b, 0x7c,
  0x8d, 0xbb, 0x84, 0x89, 0xb5, 0x94, 0x8a, 0x6b, 0x8b, 0xaf, 0x9b, 0x86,
  0xa5, 0x9b, 0x8c, 0x78, 0x81, 0xbd, 0x91, 0x8c, 0x8f, 0x7f, 0xa1, 0x92,
  0x9f, 0xa8, 0x8a, 0xa3, 0x94, 0x84, 0xb8, 0x4f, 0xb7, 0xa1, 0x87, 0x93,
  0x8f, 0x8f, 0xaa, 0x8c, 0xa5, 0x84, 0xa1, 0x99, 0xa0, 0x91, 0xae, 0x8c,
  0xa1, 0x87, 0x78, 0x77, 0xbb, 0x94, 0x8f, 0x7b, 0xa0, 0xb1, 0xad, 0xab,
  0x8d, 0x9d, 0x6c, 0x73, 0x91, 0x8f, 0xd7, 0x99, 0x38, 0x8f, 0x33, 0x7f,
  0x7f, 0x61, 0xe1, 0xb3, 0x47, 0x8d, 0x2e, 0x75, 0x99, 0x8d, 0xcd, 0xb1,
  0x73, 0x85, 0x53, 0xa0, 0xab, 0xa2, 0xbe, 0xbe, 0x96, 0x7f, 0x5f, 0x7b,
  0xa3, 0x84, 0xec, 0xae, 0xa6, 0x8d, 0x6c, 0x71, 0x85, 0x71, 0xcc, 0xb3,
  0xa5, 0x6b, 0x65, 0x7c, 0x9e, 0x7f, 0xb7, 0x9d, 0x91, 0x9b, 0x88, 0x66,
  0xae, 0x9f, 0x6c, 0xa8, 0xae, 0x86, 0x8a, 0x95, 0x8b, 0x90, 0x5c, 0xa9,
  0x93, 0x9e, 0x94, 0x6c, 0x97, 0x92, 0x72, 0x9a, 0x9f, 0x90, 0x91, 0x66,
  0x9e, 0xad, 0x78, 0x98, 0xbb, 0x95, 0x8c, 0x77, 0xa4, 0xae, 0x78, 0x8d,
  0xa9, 0x9d, 0x9b, 0x74, 0xaa, 0xb7, 0x8d, 0x79, 0xa2, 0x95, 0x9b, 0x5c,
  0x98, 0xaf, 0x91, 0x85, 0xa2, 0x94, 0x95, 0x75, 0x95, 0xad, 0x8c, 0x77,
  0xab, 0x76, 0x94, 0x74, 0x9a, 0xb0, 0x95, 0x97, 0x9a, 0x80, 0xb6, 0x75,
  0x7d, 0xad, 0x9e, 0x8d, 0x97, 0x83, 0xaa, 0x7c, 0xa1, 0x89, 0x81, 0xa1,
  0x94, 0x7e, 0x9d, 0x87, 0x96, 0x95, 0x9e, 0x9d, 0xc2, 0x82, 0x98, 0x8c,
  0x95, 0xb2, 0xb0, 0x8e, 0x87, 0xa4, 0x6c, 0x71, 0xa5, 0x87, 0xd3, 0x9f,
  0x27, 0xab, 0x43, 0x7b, 0xb7, 0x67, 0xd1, 0xb3, 0x42, 0x8f, 0x2a, 0x5b,
  0x82, 0x9a, 0xca, 0xac, 0x74, 0x7f, 0x5d, 0x9e, 0xa4, 0x9c, 0xca, 0xac,
  0x9d, 0x7b, 0x56, 0x74, 0x8e, 0x89, 0xe4, 0xd1, 0xa7, 0x7a, 0x6b, 0x94,
  0x95, 0x79, 0xd8, 0xa2, 0x9b, 0x84, 0x88, 0x7f, 0x92, 0x74, 0xb6, 0x98,
  0x8d, 0x6e, 0x8d, 0x82, 0x9e, 0x96, 0x67, 0xb5, 0x9e, 0x9a, 0x97, 0x90,
  0x87, 0x9b, 0x73, 0xad, 0x9d, 0x8e, 0x91, 0x85, 0x80, 0x9d, 0x6c, 0xa2,
  0xa7, 0xa5, 0x96, 0x6b, 0x95, 0xa2, 0x76, 0x9a, 0xb8, 0xa9, 0xa0, 0x64,
  0xb3, 0xbc, 0x7f, 0x96, 0xa5, 0x89, 0x8e, 0x6a, 0x6b, 0xb9, 0x98, 0x9e,
  0xaa, 0x9c, 0x9e, 0x6c, 0x6f, 0x9c, 0x92, 0x8a, 0xab, 0x8f, 0xb1, 0x73,
  0x81, 0xb7, 0x79, 0x7c, 0x98, 0x8a, 0x9b, 0x6e, 0x94, 0xae, 0x84, 0xad,
  0x88, 0x7e, 0xaa, 0x6b, 0x70, 0xaf, 0x9f, 0x9d, 0x7e, 0x8b, 0xa5, 0x7b,
  0x8e, 0x87, 0x8b, 0xa8, 0xa5, 0xb0, 0x97, 0x95, 0x7c, 0x8c, 0x84, 0x7e,
  0xd5, 0x95, 0xb0, 0x95, 0x74, 0xba, 0xa8, 0x9a, 0x9e, 0xb2, 0x80, 0x9f,
  0xa4, 0x8d, 0xca, 0xa8, 0x33, 0x93, 0x47, 0x91, 0x95, 0x71, 0xda, 0xb5,
  0x2c, 0x93, 0x10, 0x89, 0x84, 0x83, 0xb2, 0x92, 0x87, 0x7a, 0x4d, 0x76,
  0x95, 0x9e, 0xd2, 0xc0, 0x91, 0x8d, 0x65, 0x84, 0x98, 0x9c, 0xd9, 0xb4,
  0xae, 0x91, 0x67, 0x5e, 0xac, 0x6b, 0xe2, 0xb6, 0xaa, 0x90, 0x64, 0x99,
  0x71, 0x7b, 0xa0, 0xa3, 0x9b, 0x6c, 0x7c, 0x95, 0xb4, 0x9e, 0x86, 0xcf,
  0x98, 0x82, 0x8b, 0x98, 0x8c, 0x97, 0x6f, 0xb3, 0x9b, 0xa3, 0xb0, 0x6d,
  0x94, 0x9a, 0x6f, 0x96, 0xad, 0xa5, 0x98, 0x80, 0x9c, 0xb2, 0x84, 0xa6,
  0xbd, 0xa0, 0xa4, 0x83, 0xa2, 0xb0, 0x84, 0x7e, 0xba, 0x97, 0x89, 0x6c,
  0x7f, 0xb1, 0x98, 0x83, 0x9a, 0xa4, 0x99, 0x70, 0xa7, 0xac, 0x9c, 0x62,
  0xa1, 0x82, 0x8f, 0x68, 0x82, 0xbe, 0x7b, 0x70, 0x9c, 0x7b, 0xa3, 0x6a,
  0x7e, 0xa3, 0x92, 0x98, 0x8a, 0x87, 0xa5, 0x65, 0x88, 0xab, 0xa3, 0x78,
  0x85, 0x8c, 0x9f, 0x5d, 0x9e, 0x8e, 0x9e, 0xa4, 0x8e, 0x80, 0xa6, 0x92,
  0x8f, 0x87, 0x88, 0x8e, 0xc9, 0x98, 0xb0, 0x91, 0x77, 0xa8, 0xa4, 0xad,
  0x8b, 0x84, 0x81, 0x8b, 0x6c, 0x93, 0xbf, 0xc7, 0x1d, 0xa0, 0x42, 0x8e,
  0x92, 0x6c, 0xc8, 0xc7, 0x27, 0x9d, 0x2d, 0x92, 0x8f, 0x91, 0xc5, 0xc0,
  0x69, 0xa3, 0x56, 0x98, 0xa8, 0x9c, 0xc9, 0xd2, 0x8c, 0x64, 0x63, 0x87,
  0x8a, 0x8b, 0xe4, 0xc6, 0xb2, 0x72, 0x66, 0x8b, 0x7f, 0x69, 0xf4, 0xb9,
  0xa1, 0x88, 0x72, 0x7f, 0x8e, 0x66, 0xa9, 0x9a, 0xa0, 0x7b, 0x8b, 0x99,
  0x6e, 0x90, 0x87, 0xca, 0xa8, 0x96, 0x99, 0xa1, 0x9e, 0x92, 0x65, 0xaa,
  0xa0, 0xa6, 0x90, 0x77, 0x67, 0x8c, 0x71, 0xb7, 0x91, 0x94, 0xa8, 0x8f,
  0x80, 0xab, 0x7c, 0x8b, 0xb1, 0xb3, 0x98, 0x66, 0x9d, 0xa1, 0x90, 0x8d,
  0xb1, 0xa2, 0x88, 0x82, 0x80, 0xb1, 0x8d, 0x81, 0xa7, 0x9d, 0xad, 0x5f,
  0xa5, 0xae, 0x8c, 0x86, 0xa7, 0x88, 0xb3, 0x6c, 0xa5, 0xb0, 0x96, 0x7a,
  0xab, 0x7c, 0x9b, 0x69, 0x9e, 0xbc, 0x94, 0x91, 0x95, 0x6f, 0xae, 0x6b,
  0x78, 0xa1, 0xa2, 0x71, 0x9a, 0x96, 0xab, 0x6a, 0x97, 0x8e, 0x85, 0xb8,
  0x9d, 0x7c, 0x9f, 0xa2, 0x8d, 0x8c, 0x73, 0x99, 0xd1, 0x95, 0xa9, 0x94,
  0x7d, 0xb5, 0xa5, 0x86, 0x7e, 0xb6, 0x7f, 0xa1, 0x89, 0x93, 0xdb, 0x96,
  0x45, 0x82, 0x48, 0x81, 0x8a, 0x71, 0xca, 0xb2, 0x3c, 0xa9, 0x2b, 0x92,
  0x9d, 0x99, 0xc8, 0xa9, 0x66, 0xa5, 0x4d, 0xa0, 0x87, 0x9f, 0xc2, 0xa7,
  0x8e, 0x87, 0x60, 0x87, 0x6a, 0x87, 0xe5, 0xbc, 0xb4, 0x88, 0x67, 0x6a,
  0xad, 0x53, 0xd9, 0xba, 0xa4, 0x8d, 0x58, 0x7a, 0x8b, 0x76, 0xb8, 0xad,
  0x8b, 0x62, 0x77, 0x8f, 0xa4, 0x90, 0x7b, 0xb0, 0x95, 0x7f, 0x99, 0x8e,
  0xa8, 0x9b, 0x5b, 0xac, 0xa4, 0x91, 0x9e, 0x92, 0x8f, 0x95, 0x7b, 0x9f,
  0x9b, 0xba, 0xa2, 0x70, 0xb9, 0xaa, 0x79, 0x90, 0xb1, 0xaa, 0x97, 0x85,
  0x6d, 0xb8, 0x8f, 0x7e, 0xb6, 0x8f, 0x98, 0x76, 0x75, 0xc8, 0x99, 0x8d,
  0xc0, 0x93, 0x9c, 0x6b, 0x7b, 0xb2, 0x9b, 0x7b, 0xae, 0x91, 0xb4, 0x5c,
  0xb3, 0xc7, 0x88, 0x75, 0x9d, 0x75, 0xa6, 0x61, 0x8a, 0xb6, 0x99, 0x90,
  0x85, 0x84, 0x9e, 0x76, 0x7e, 0xbb, 0x9f, 0x8a, 0x9c, 0x90, 0xa9, 0x4c,
  0x77, 0x7f, 0x9f, 0xa3, 0x9f, 0xa7, 0xb7, 0xa0, 0x8a, 0x9c, 0x87, 0x7f,
  0xcc, 0xa6, 0x9c, 0x96, 0x8b, 0xb4, 0x95, 0xa5, 0x89, 0x94, 0x8f, 0x82,
  0xa7, 0x97, 0xb9, 0xc3, 0x36, 0x8d, 0x4d, 0x92, 0xa0, 0x77, 0xc8, 0xbe,
  0x20, 0xa6, 0x32, 0x9c, 0xa1, 0x88, 0xc2, 0xa7, 0x78, 0x77, 0x5c, 0x8d,
  0xb8, 0xa6, 0xe7, 0xd0, 0x9b, 0x61, 0x52, 0x6e, 0xa3, 0x95, 0xfc, 0xd5,
  0xab, 0x89, 0x69, 0x9c, 0x9b, 0x5b, 0xda, 0xbd, 0xa2, 0x71, 0x5b, 0x63,
  0xa1, 0x78, 0xb1, 0xa8, 0x9c, 0x75, 0x84, 0x71, 0x6a, 0x82, 0x85, 0xa0,
  0x9b, 0x8b, 0x78, 0x9c, 0x8e, 0x96, 0x72, 0xb1, 0xa0, 0x8e, 0xa1, 0x91,
  0x98, 0x8d, 0x6b, 0xb2, 0x9b, 0xba, 0x9d, 0x76, 0x8f, 0xa7, 0x87, 0xa0,
  0xc2, 0xaa, 0xa3, 0x89, 0x96, 0xa8, 0x8e, 0x89, 0xac, 0x98, 0x91, 0x86,
  0x88, 0xb3, 0x97, 0x86, 0xae, 0x82, 0x93, 0x7b, 0xa1, 0xa9, 0x91, 0x82,
  0xab, 0x8d, 0x9c, 0x6b, 0x6e, 0xb7, 0x82, 0x96, 0xaa, 0x91, 0xa5, 0x57,
  0x9e, 0xc1, 0x8c, 0x85, 0x6f, 0x79, 0xa9, 0x58, 0xa0, 0xac, 0x9d, 0x68,
  0x7f, 0x9c, 0xa4, 0x6e, 0x70, 0x83, 0x9b, 0x99, 0x8c, 0x92, 0x8c, 0x76,
  0xa1, 0x90, 0x8b, 0x99, 0xc7, 0xa0, 0xbd, 0x88, 0x8b, 0xa7, 0x90, 0x97,
  0x83, 0x95, 0x7b, 0x96, 0x8e, 0x95, 0xbd, 0xb7, 0x43, 0xae, 0x52, 0x9d,
  0xbd, 0x84, 0xcc, 0xbe, 0x13, 0xa3, 0x3d, 0x93, 0xa1, 0x9d, 0xce, 0xab,
  0x69, 0x74, 0x5d, 0x91, 0x8f, 0xab, 0xe1, 0xd0, 0x9d, 0x8b, 0x6b, 0x84,
  0x7a, 0x92, 0xe8, 0xc8, 0xa8, 0x73, 0x57, 0x90, 0x96, 0x61, 0xdf, 0xbe,
  0xad, 0x5f, 0x5a, 0x89, 0xb2, 0x6d, 0xb2, 0xcf, 0xa1, 0x71, 0x69, 0x84,
  0x84, 0x85, 0x8b, 0xaa, 0x96, 0x91, 0x76, 0x93, 0x7b, 0x9f, 0x7b, 0xc2,
  0xa2, 0x9d, 0xa9, 0xa5, 0xae, 0x91, 0x82, 0xb2, 0x99, 0x8d, 0xa6, 0x9d,
  0x8f, 0xb2, 0x8a, 0x9f, 0xb7, 0xaa, 0x8e, 0x67, 0x8f, 0xb3, 0x7f, 0x89,
  0xac, 0x91, 0x8b, 0x70, 0x80, 0xb1, 0x99, 0x81, 0xb6, 0x97, 0x92, 0x7b,
  0x95, 0xba, 0xa8, 0x91, 0xbb, 0x9e, 0xa3, 0x59, 0x69, 0xbd, 0x87, 0x91,
  0xa5, 0x86, 0xa0, 0x5b, 0xaa, 0xb2, 0x94, 0x76, 0x99, 0x8d, 0xa4, 0x65,
  0xa5, 0xa2, 0xa4, 0xa4, 0x9c, 0x9c, 0xa3, 0x49, 0xa1, 0x8a, 0xa6, 0xb7,
  0x89, 0xa7, 0xb4, 0x80, 0x92, 0x8d, 0x87, 0xb1, 0xc7, 0x98, 0x95, 0x85,
  0xa0, 0xb1, 0x91, 0xb6, 0x7f, 0xac, 0x73, 0xa4, 0x9c, 0xa0, 0xbe, 0xa8,
  0x33, 0xbe, 0x6e, 0x81, 0x8a, 0x71, 0xbe, 0xb0, 0x26, 0xa6, 0x53, 0x8b,
  0x7c, 0x96, 0xbf, 0xac, 0x69, 0x89, 0x5e, 0x8f, 0x97, 0x8f, 0xc4, 0x96,
  0x8b, 0x6e, 0x65, 0xaa, 0xa5, 0x9a, 0xe4, 0xd9, 0xbf, 0x85, 0x67, 0x76,
  0x9c, 0x73, 0xe1, 0xce, 0xa5, 0x6b, 0x6a, 0x7f, 0x6e, 0x72, 0xbd, 0xcb,
  0x98, 0x5c, 0x64, 0x8e, 0x85, 0x88, 0x63, 0xad, 0x8e, 0x8d, 0x93, 0x9b,
  0x7f, 0x8a, 0x70, 0xc4, 0x9c, 0xa0, 0x91, 0x94, 0x9d, 0x99, 0x87, 0x9f,
  0xad, 0x90, 0x86, 0xa3, 0x9d, 0xb0, 0x95, 0x90, 0xad, 0x9d, 0xa8, 0x8a,
  0xa4, 0xb7, 0x80, 0x96, 0xb1, 0x99, 0xa4, 0x6a, 0xa8, 0xb4, 0x96, 0x7d,
  0xab, 0xa5, 0xa9, 0x57, 0xa1, 0xa2, 0x9d, 0x8c, 0xb5, 0x9b, 0xac, 0x63,
  0x9b, 0xb7, 0x75, 0x71, 0xb8, 0x83, 0x9e, 0x5b, 0xa4, 0xb2, 0x9d, 0x9c,
  0xa0, 0x90, 0x95, 0x5f, 0x78, 0xa9, 0xa9, 0x8c, 0x7a, 0xa5, 0x95, 0x4f,
  0x98, 0x7c, 0xab, 0xad, 0x89, 0x9a, 0xa2, 0x79, 0xa6, 0x9b, 0x74, 0x82,
  0xd5, 0x92, 0x90, 0x92, 0x86, 0xb8, 0x9c, 0xb8, 0x94, 0xb0, 0x8c, 0x8f,
  0x70, 0xb8, 0xc0, 0xad, 0x37, 0xb7, 0x5b, 0x8c, 0x83, 0x7d, 0xbd, 0xb2,
  0x26, 0x99, 0x51, 0x7f, 0x74, 0x8e, 0xb6, 0xa4, 0x4e, 0x7f, 0x69, 0x91,
  0xa1, 0xb8, 0xc8, 0xa0, 0x74, 0x56, 0x48, 0x9f, 0x8a, 0x6e, 0xd9, 0xa5,
  0xc0, 0x67, 0x71, 0x8e, 0x88, 0x7d, 0xd6, 0xdc, 0x9b, 0x4a, 0x60, 0x80,
  0x97, 0x81, 0xb3, 0xb4, 0x96, 0x4c, 0x6d, 0x8b, 0x98, 0x82, 0x7c, 0xb9,
  0x90, 0x70, 0x7b, 0x7d, 0x9b, 0x7e, 0x69, 0xa2, 0x9a, 0x80, 0x86, 0x9d,
  0x8b, 0x90, 0x86, 0x96, 0xb2, 0xac, 0x90, 0x94, 0x83, 0x9b, 0x77, 0x91,
  0xbb, 0x98, 0x9b, 0x9e, 0x99, 0xae, 0x93, 0x9a, 0xb2, 0x83, 0xaf, 0x99,
  0x82, 0xc1, 0x91, 0x6b, 0xa3, 0x8d, 0xa5, 0x59, 0x94, 0xb5, 0x9e, 0x72,
  0xc4, 0xab, 0xa9, 0x6f, 0x88, 0xb9, 0x8e, 0x83, 0xb4, 0x8b, 0xa9, 0x61,
  0xa0, 0xb9, 0x89, 0x9c, 0x79, 0x7e, 0x95, 0x58, 0x81, 0xb0, 0xa2, 0x81,
  0x98, 0xa2, 0x99, 0x6b, 0x73, 0x8b, 0x94, 0xcb, 0x95, 0x85, 0xbe, 0x9f,
  0x84, 0xad, 0x8e, 0x90, 0xd6, 0xa0, 0x85, 0x89, 0x9b, 0xa6, 0x8b, 0xab,
  0x78, 0xa7, 0x90, 0x93, 0xad, 0xa6, 0xcd, 0x92, 0x49, 0xbc, 0x5d, 0x87,
  0x89, 0x86, 0xca, 0x97, 0x3c, 0xa3, 0x6c, 0x90, 0xb4, 0xa1, 0xb4, 0x97,
  0x43, 0x71, 0x6f, 0x9b, 0x96, 0xb8, 0xc1, 0xc2, 0x75, 0x7d, 0x6a, 0x95,
  0x98, 0x76, 0xc4, 0xc7, 0xa9, 0x72, 0x6a, 0xa3, 0x89, 0x7e, 0xc9, 0xac,
  0x99, 0x53, 0x57, 0x88, 0x99, 0x73, 0x93, 0xba, 0x97, 0x4d, 0x57, 0x9f,
  0xa6, 0x98, 0x39, 0xcd, 0x94, 0x69, 0x8b, 0x7a, 0xa5, 0x95, 0x65, 0xae,
  0x87, 0x7c, 0x81, 0x76, 0xa2, 0x99, 0x91, 0xad, 0xb2, 0xa7, 0xa2, 0xac,
  0x95, 0xb2, 0x93, 0xa0, 0xae, 0x88, 0xa4, 0x8f, 0x79, 0xb9, 0x89, 0x7b,
  0xa4, 0xaa, 0x9a, 0x76, 0x7f, 0x9f, 0xa1, 0x9e, 0xb0, 0x9b, 0x99, 0x61,
  0x71, 0xa4, 0x98, 0x9b, 0xb1, 0x8c, 0x9f, 0x66, 0xac, 0xc3, 0x87, 0x77,
  0xaa, 0x6c, 0x8c, 0x64, 0x87, 0xb6, 0x9e, 0x98, 0x83, 0x97, 0x8a, 0x79,
  0x6d, 0x9c, 0xac, 0x87, 0x83, 0xa3, 0xad, 0x69, 0x95, 0x9c, 0x96, 0xa1,
  0x9a, 0xb5, 0x9a, 0x96, 0x80, 0xb1, 0x9d, 0xa1, 0xcc, 0xb0, 0xac, 0x9d,
  0x97, 0xb9, 0x85, 0xa4, 0x6c, 0xb0, 0xa4, 0x7d, 0x88, 0xa0, 0xcd, 0x98,
  0x3f, 0x9d, 0xa1, 0x9b, 0x88, 0xa5, 0xb7, 0x90, 0x32, 0x83, 0x63, 0x91,
  0x79, 0xa3, 0xad, 0xa3, 0x50, 0x4c, 0x7e, 0x6d, 0xb1, 0xb1, 0xc1, 0xa2,
  0x8b, 0x85, 0x80, 0x98, 0x8f, 0x8e, 0xc6, 0xb1, 0xab, 0x68, 0x67, 0x9e,
  0xa4, 0x71, 0xc0, 0xb8, 0xc9, 0x57, 0x54, 0x91, 0xa1, 0x81, 0xa0, 0x8f,
  0xa6, 0x65, 0x86, 0xa0, 0x82, 0x80, 0x73, 0xae, 0x9a, 0x8e, 0x6c, 0xa5,
  0x6d, 0x86, 0x60, 0x92, 0x9a, 0x86, 0x85, 0xac, 0x8d, 0x8e, 0x6d, 0x95,
  0xb2, 0xb4, 0xa2, 0x8f, 0x9e, 0xb1, 0x80, 0xb0, 0xc0, 0xb9, 0xac, 0x73,
  0xa1, 0xb2, 0x9f, 0xa2, 0xad, 0x99, 0xa4, 0x71, 0xa0, 0xbc, 0xa8, 0x8c,
  0xae, 0xa0, 0xae, 0x7c, 0x6f, 0x9e, 0x90, 0x85, 0xa2, 0x8a, 0x78, 0x74,
  0xba, 0xd5, 0x7e, 0x92, 0xac, 0x8d, 0x8b, 0x76, 0xa1, 0xb8, 0xaa, 0x7f,
  0x88, 0x8e, 0x88, 0x6a, 0xac, 0xac, 0x9c, 0x81, 0x7e, 0x8e, 0xa1, 0x63,
  0x9e, 0x99, 0xaa, 0xa7, 0x80, 0x8d, 0xaa, 0x8d, 0x83, 0x92, 0x7d, 0xa9,
  0xa4, 0xae, 0x88, 0xac, 0x98, 0xa9, 0x92, 0x6e, 0x72, 0xb3, 0xa5, 0x85,
  0x9a, 0xa0, 0xaa, 0x6d, 0x49, 0xaa, 0x6b, 0x92, 0xa4, 0xbe, 0xb2, 0x81,
  0x4b, 0x98, 0x71, 0x9f, 0xa1, 0xb3, 0x9e, 0xb9, 0x67, 0x7a, 0x77, 0x8c,
  0xb1, 0xc1, 0xa8, 0x97, 0x7f, 0x6d, 0x67, 0xa0, 0xb8, 0xa1, 0xc9, 0x8d,
  0xab, 0x60, 0x7f, 0x91, 0x7a, 0x93, 0xb1, 0xb3, 0xbc, 0x7e, 0x83, 0x7b,
  0x99, 0x76, 0x9f, 0xad, 0xb0, 0x5e, 0x69, 0x7a, 0x7f, 0x71, 0x60, 0x94,
  0xa3, 0x92, 0x75, 0x93, 0x86, 0x7c, 0x64, 0xa2, 0x9e, 0x85, 0x94, 0xa2,
  0xa4, 0x81, 0x88, 0x7e, 0xad, 0xa1, 0xa9, 0x8e, 0x7b, 0xae, 0x8f, 0x9c,
  0xaf, 0xaf, 0x8a, 0xa2, 0x8b, 0xaf, 0x98, 0xa1, 0xbb, 0xad, 0xa9, 0x7b,
  0x91, 0xad, 0xa3, 0x8f, 0xc1, 0xa3, 0xa2, 0x67, 0x8a, 0xa4, 0x9e, 0x79,
  0xbd, 0xa3, 0x8e, 0x70, 0x6b, 0xcf, 0x75, 0x94, 0xcf, 0x96, 0x97, 0x86,
  0xaf, 0xa7, 0x98, 0x72, 0x77, 0x86, 0x88, 0x76, 0xb5, 0x8f, 0xb5, 0x93,
  0x87, 0x8e, 0xad, 0x59, 0xa1, 0x8c, 0xb6, 0x96, 0x99, 0x90, 0x9a, 0xad,
  0x98, 0x96, 0x87, 0xac, 0x9b, 0x83, 0xa5, 0x9d, 0x99, 0xa6, 0x9f, 0x9c,
  0x86, 0xaf, 0xa5, 0xaa, 0x89, 0xa8, 0xc6, 0x78, 0x59, 0xa8, 0x8a, 0xa8,
  0x94, 0xc0, 0xc8, 0xa0, 0x54, 0x94, 0x87, 0x97, 0xb0, 0xb5, 0x92, 0xb5,
  0x63, 0x8b, 0xa1, 0x65, 0x7c, 0xb7, 0xa1, 0x77, 0x7f, 0x7c, 0x8b, 0x80,
  0x78, 0xa8, 0xb7, 0x9d, 0x98, 0x74, 0x8a, 0x85, 0x7f, 0xa4, 0x96, 0xb5,
  0xcd, 0x5a, 0x7c, 0x9c, 0x76, 0xa4, 0x87, 0xaa, 0xa6, 0x6d, 0xa0, 0xa7,
  0xa8, 0x7e, 0x6a, 0x92, 0xb1, 0x77, 0x95, 0xa7, 0x99, 0x75, 0x7b, 0x94,
  0xa6, 0x6b, 0x80, 0xb6, 0x95, 0x91, 0x99, 0x87, 0xbd, 0xa1, 0x96, 0xab,
  0x8d, 0xa9, 0x74, 0xa1, 0xb9, 0xcd, 0x8f, 0xa7, 0x9a, 0x95, 0xa0, 0x92,
  0x9c, 0x94, 0x7e, 0x92, 0x7c, 0x9a, 0xb2, 0xa7, 0xa4, 0x96, 0x94, 0xa0,
  0x82, 0x9b, 0x83, 0x88, 0xbc, 0xbb, 0xa5, 0x81, 0x8f, 0xbe, 0x91, 0x7e,
  0xbe, 0xad, 0x9b, 0x89, 0x91, 0xb8, 0xb3, 0x94, 0x8c, 0x69, 0x7c, 0x73,
  0x98, 0x9f, 0xcb, 0x8f, 0x8a, 0xa1, 0xad, 0x89, 0x96, 0xa4, 0xb2, 0xa5,
  0xa6, 0x92, 0x8c, 0x95, 0x90, 0x96, 0x73, 0x9d, 0x92, 0xa5, 0x94, 0x8b,
  0x70, 0x9c, 0xa9, 0x8e, 0x6d, 0xab, 0xa5, 0x8d, 0xa8, 0x9f, 0xc0, 0x9c,
  0x94, 0xb7, 0x9f, 0xad, 0x95, 0x9d, 0xb7, 0xa3, 0xb7, 0x8f, 0xa4, 0x8f,
  0x8a, 0x7a, 0xa3, 0xa3, 0xbf, 0x88, 0xa5, 0x83, 0x92, 0xa3, 0xb4, 0xb4,
  0xb0, 0x81, 0x94, 0x96, 0xae, 0x9c, 0xa2, 0x8b, 0x9c, 0x9a, 0x97, 0x8c,
  0x8d, 0x7a, 0x97, 0x86, 0x90, 0x8b, 0x94, 0xa1, 0x9a, 0x9b, 0x9f, 0xb5,
  0x84, 0x7d, 0xae, 0x9a, 0x99, 0x9c, 0x9d, 0x81, 0x80, 0xa3, 0x94, 0x9e,
  0x8d, 0x86, 0x9d, 0x8d, 0xa8, 0x8e, 0x9f, 0xac, 0xa7, 0x67, 0x9f, 0xa3,
  0x7a, 0x88, 0x9c, 0x6d, 0x93, 0xa0, 0xac, 0x89, 0x9f, 0xa1, 0xa0, 0x96,
  0x98, 0x6f, 0xa1, 0x89, 0x90, 0x80, 0x97, 0x8a, 0xac, 0xb2, 0x9f, 0xa6,
  0x8e, 0x98, 0x91, 0x89, 0x9a, 0xb7, 0x9f, 0xaa, 0x92, 0x96, 0x9a, 0x9c,
  0xb0, 0x91, 0x91, 0x93, 0xa5, 0x96, 0x90, 0xb6, 0xbc, 0x7a, 0x99, 0xa3,
  0xb9, 0x75, 0xa2, 0xa8, 0x81, 0x78, 0x8b, 0x76, 0x7d, 0x97, 0x8c, 0xad,
  0xb0, 0x9e, 0xa3, 0x9e, 0xa3, 0xb3, 0x94, 0x98, 0xbb, 0x8e, 0x6e, 0x9b,
  0x67, 0xb8, 0x82, 0xa0, 0x85, 0x8f, 0xbb, 0x84, 0xa9, 0xa7, 0xa1, 0x97,
  0xa4, 0xb1, 0xc1, 0x89, 0x8e, 0x9c, 0x9c, 0xa5, 0x9e, 0x73, 0xc3, 0xaf,
  0x85, 0x8d, 0xa7, 0xa1, 0xaf, 0x9b, 0xbf, 0x96, 0x87, 0x80, 0x90, 0x97,
  0x8c, 0xa4, 0xb1, 0xad, 0x8d, 0x72, 0x99, 0x96, 0x7c, 0x78, 0x8e, 0x9d,
  0xb1, 0x75, 0x8c, 0x9a, 0x72, 0x95, 0x8f, 0x8c, 0x94, 0x7d, 0xa2, 0xa1,
  0x68, 0x71, 0x96, 0x8f, 0x93, 0x8d, 0x97, 0x8e, 0x8a, 0x7c, 0x9d, 0x96,
  0x71, 0x6f, 0x8b, 0x96, 0x89, 0x80, 0xa1, 0xa1, 0x78, 0x9a, 0x99, 0x90,
  0x8a, 0x81, 0xa5, 0x9b, 0x93, 0x77, 0x83, 0x87, 0x94, 0x62, 0xa0, 0x7f,
  0x93, 0x9d, 0x9c, 0x98, 0x90, 0x93, 0xa2, 0xa3, 0x96, 0x7f, 0x94, 0x94,
  0x98, 0x8b, 0xab, 0x70, 0xaf, 0x9a, 0x92, 0x9d, 0xb3, 0xa6, 0xb0, 0x89,
  0x88, 0xa1, 0x8a, 0x8c, 0x7c, 0x85, 0xa9, 0x80, 0x84, 0x8a, 0x98, 0x95,
  0xab, 0x96, 0x95, 0x72, 0x93, 0xa6, 0x9a, 0x97, 0xa7, 0x9b, 0x88, 0xa0,
  0x9c, 0xa0, 0x98, 0x90, 0xa3, 0x97, 0xa0, 0x99, 0xa2, 0xa2, 0x73, 0xa4,
  0x9e, 0x9d, 0x74, 0x8b, 0x83, 0x92, 0x9b, 0xac, 0xac, 0x8d, 0xa1, 0xbb,
  0x9f, 0x97, 0x87, 0x94, 0x8e, 0x94, 0xb9, 0x91, 0xa3, 0xaa, 0x95, 0x99,
  0xa2, 0x8f, 0xa6, 0x9d, 0xa5, 0x9c, 0x91, 0x89, 0x82, 0x96, 0xb6, 0x92,
  0xa0, 0x9e, 0xb2, 0xaf, 0x90, 0x87, 0xa1, 0x9d, 0x7c, 0x87, 0xa9, 0x91,
  0xb8, 0xa3, 0x9f, 0x79, 0x9e, 0x8a, 0xa3, 0xa0, 0x7a, 0x9d, 0xa1, 0xb3,
  0x88, 0x74, 0x8b, 0x8e, 0x9c, 0xa0, 0x8d, 0xa0, 0x87, 0x8d, 0x9b, 0x8f,
  0x9b, 0x91, 0xad, 0xaf, 0x8f, 0x7c, 0x85, 0x94, 0x8d, 0x7f, 0xa9, 0x87,
  0x83, 0x7b, 0x8c, 0xa4, 0x83, 0x97, 0xb0, 0x70, 0x8b, 0x92, 0x8c, 0x8e,
  0xad, 0x88, 0xa9, 0x8d, 0x73, 0x69, 0x77, 0x82, 0x96, 0x96, 0x95, 0x74,
  0x94, 0x8a, 0x91, 0xa2, 0x97, 0x89, 0xa9, 0xa2, 0x92, 0x80, 0x7c, 0x83,
  0x9b, 0x89, 0x9e, 0x84, 0xb9, 0x90, 0x95, 0xae, 0xb5, 0x9e, 0xa4, 0xa8,
  0xb5, 0x9b, 0x86, 0x93, 0x96, 0x8e, 0x91, 0x8e, 0x9a, 0x82, 0x88, 0x8d,
  0x9e, 0x80, 0x94, 0xad, 0x88, 0xa2, 0xa5, 0x8d, 0x8a, 0xa4, 0x82, 0xa6,
  0xa3, 0x97, 0x77, 0xa3, 0x96, 0x9e, 0xa2, 0x9d, 0x7c, 0xa3, 0xa2, 0xa8,
  0x9f, 0x9e, 0xaf, 0x74, 0x82, 0xb1, 0x97, 0x86, 0xa6, 0x90, 0xa4, 0x95,
  0xb8, 0x8f, 0xb2, 0x7e, 0x7f, 0x93, 0x9d, 0x7c, 0xb4, 0x90, 0xab, 0x96,
  0x7f, 0xa3, 0xae, 0x9f, 0x8b, 0xa4, 0xaa, 0x9a, 0x87, 0x92, 0x8e, 0x97,
  0x9f, 0x72, 0x9c, 0x95, 0x9d, 0xa6, 0x7f, 0x82, 0x99, 0x7f, 0x8d, 0x73,
  0x9e, 0x91, 0x7b, 0xa0, 0x7f, 0xa5, 0xa4, 0x81, 0x94, 0x9d, 0x7f, 0x90,
  0x92, 0xa4, 0x93, 0x8a, 0xb1, 0x82, 0x88, 0x8a, 0x78, 0x6b, 0x93, 0x8d,
  0x6a, 0x9f, 0x94, 0x9d, 0x63, 0x61, 0x98, 0x9f, 0x86, 0x8f, 0x8d, 0x95,
  0x95, 0xa2, 0x8a, 0x85, 0x81, 0x96, 0x9a, 0xaa, 0x70, 0x80, 0x90, 0x87,
  0x71, 0x97, 0xa2, 0x7c, 0x87, 0xa9, 0x79, 0xae, 0x82, 0x87, 0x98, 0xad,
  0xa8, 0x86, 0x9d, 0x9e, 0x97, 0x97, 0x9e, 0x81, 0x99, 0x98, 0x8a, 0x87,
  0x6e, 0x8d, 0x94, 0x8e, 0x8a, 0x81, 0x9f, 0x8f, 0x7c, 0x90, 0x91, 0x84,
  0x8f, 0x8e, 0x82, 0x99, 0x91, 0x86, 0x9a, 0x9f, 0xb1, 0xa3, 0x95, 0x9f,
  0x9d, 0xa1, 0x7d, 0x9b, 0x88, 0xa3, 0x97, 0x90, 0xaa, 0x9f, 0x87, 0x9e,
  0x83, 0xb6, 0x99, 0xb4, 0x8b, 0x98, 0xa9, 0x6c, 0x9e, 0xa2, 0xa0, 0xa0,
  0xa8, 0x97, 0xae, 0xa0, 0x9e, 0x69, 0x9d, 0x91, 0x9f, 0x9d, 0xa7, 0x82,
  0x79, 0x8b, 0xb4, 0x87, 0x85, 0x86, 0x9a, 0x8f, 0xa7, 0x9a, 0xae, 0x73,
  0x71, 0x7b, 0x7e, 0x9f, 0x8d, 0x90, 0x84, 0x8f, 0x74, 0x8d, 0x89, 0x75,
  0x95, 0x8b, 0x8c, 0x8a, 0xa2, 0x99, 0x63, 0xa8, 0x7d, 0x81, 0x9a, 0x78,
  0x87, 0x8a, 0x59, 0x84, 0x7f, 0x93, 0xb0, 0x9b, 0x7f, 0x86, 0x7d, 0x6b,
  0x69, 0x7e, 0x96, 0x9b, 0xa3, 0x87, 0x8b, 0x9f, 0x79, 0x80, 0x8d, 0x70,
  0xac, 0x9a, 0x8e, 0x8c, 0x73, 0x92, 0x99, 0x87, 0xa6, 0x99, 0xa1, 0x74,
  0x80, 0x67, 0x89, 0x93, 0x94, 0x9a, 0x8f, 0x67, 0x9b, 0x8a, 0xa3, 0x85,
  0x73, 0x8e, 0x86, 0x95, 0x8d, 0x71, 0x7c, 0x9c, 0xb7, 0x8d, 0x87, 0x88,
  0xb7, 0x99, 0x8d, 0x9f, 0x81, 0x84, 0x94, 0x97, 0x8a, 0xa9, 0x63, 0xad,
  0x7d, 0x82, 0x98, 0x90, 0x8a, 0x87, 0x7f, 0x94, 0x7d, 0x83, 0x9b, 0x8c,
  0x99, 0xb8, 0x86, 0x92, 0xaf, 0x9a, 0xa7, 0x8d, 0x9f, 0xa1, 0x8c, 0xa6,
  0x93, 0x8f, 0xa3, 0x99, 0x76, 0xb2, 0x9b, 0xa5, 0x84, 0xac, 0xaf, 0x8f,
  0x8d, 0xb2, 0xa9, 0xab, 0xa1, 0x97, 0x9e, 0x97, 0x79, 0x7d, 0xa9, 0x9b,
  0x77, 0x9a, 0xb5, 0xb6, 0x8b, 0x82, 0x9f, 0x90, 0x91, 0x90, 0xaa, 0x7f,
  0x95, 0x8a, 0xb6, 0x7b, 0x9e, 0x8c, 0x8d, 0x87, 0xa1, 0x6d, 0xa5, 0x9e,
  0x87, 0x90, 0x6f, 0x97, 0x71, 0x6d, 0x91, 0xa7, 0x9a, 0x93, 0x55, 0x97,
  0x8d, 0x85, 0x8b, 0x80, 0x79, 0x95, 0x50, 0x91, 0x67, 0x67, 0xb1, 0x78,
  0x8c, 0x9b, 0x65, 0x9e, 0x78, 0x66, 0xa1, 0x8b, 0xa6, 0x88, 0x8d, 0x73,
  0x60, 0x82, 0x9d, 0xa9, 0x92, 0xa3, 0x71, 0xa6, 0x7b, 0x80, 0xa6, 0x8e,
  0xa9, 0x97, 0x9c, 0x86, 0x7a, 0x90, 0x9f, 0x8e, 0x90, 0x8c, 0x80, 0x8f,
  0x93, 0x9c, 0x98, 0x9d, 0x89, 0x9c, 0x84, 0xa3, 0x90, 0x7f, 0x76, 0xa1,
  0xa0, 0xa4, 0x8e, 0x7f, 0x9f, 0x9a, 0x81, 0x92, 0x9c, 0x8b, 0x90, 0x9c,
  0x9d, 0x9f, 0x78, 0x96, 0x93, 0x9c, 0x9b, 0xa1, 0x8c, 0x7b, 0x7e, 0x9c,
  0x8f, 0x8e, 0x97, 0x9a, 0x91, 0xa9, 0x87, 0x95, 0xa8, 0x9c, 0x8f, 0x92,
  0xa2, 0xaf, 0x77, 0xa6, 0x6d, 0x9f, 0x95, 0xaf, 0x78, 0xa4, 0xb1, 0xb9,
  0x9b, 0xa8, 0x99, 0x98, 0x98, 0xa8, 0xb4, 0xb4, 0xba, 0x91, 0xad, 0x92,
  0x92, 0x80, 0xa0, 0xbb, 0x94, 0x9d, 0xa6, 0x95, 0x95, 0x8c, 0xa6, 0x8f,
  0x81, 0x98, 0xb4, 0x94, 0xb0, 0x92, 0xbd, 0x88, 0x81, 0x9a, 0x82, 0x7f,
  0x87, 0x7e, 0x94, 0x72, 0x6e, 0x91, 0x75, 0x9f, 0x6c, 0x77, 0x93, 0xa3,
  0x82, 0xb9, 0x48, 0x7b, 0x8b, 0x8b, 0x91, 0x99, 0x80, 0xb0, 0x56, 0x7a,
  0x72, 0x6e, 0xa6, 0x96, 0xad, 0xa8, 0x54, 0x77, 0x6f, 0x7d, 0xad, 0x71,
  0x78, 0x91, 0x70, 0x95, 0x5d, 0x59, 0xa7, 0x90, 0xa7, 0xad, 0x66, 0x83,
  0x8e, 0x80, 0xa5, 0x8b, 0xb3, 0xa4, 0x88, 0x97, 0x7f, 0x9f, 0x93, 0x91,
  0x95, 0xa7, 0x92, 0x9d, 0xa3, 0x88, 0x91, 0x98, 0xa7, 0x9b, 0x74, 0x77,
  0x7f, 0xa2, 0x9a, 0xa2, 0x7c, 0xac, 0x8c, 0x77, 0x98, 0x89, 0x78, 0x92,
  0x79, 0x9f, 0x98, 0x94, 0x9f, 0x6b, 0x85, 0x79, 0x96, 0x8c, 0x97, 0x8e,
  0x9c, 0x96, 0x6d, 0x9b, 0x9b, 0x9f, 0x97, 0x88, 0x82, 0x9e, 0x8b, 0x99,
  0x96, 0xa3, 0x7a, 0x8a, 0xa1, 0x8c, 0x86, 0x9e, 0xb0, 0xa7, 0x7a, 0xa0,
  0x79, 0xae, 0xba, 0xe0, 0xa9, 0xad, 0x94, 0xa3, 0x8a, 0x8d, 0xbb, 0x9d,
  0xa4, 0x9f, 0xad, 0x92, 0x84, 0x76, 0xa9, 0xa5, 0x80, 0xa6, 0xad, 0x90,
  0x9f, 0x80, 0xae, 0x79, 0xa8, 0xa9, 0xbb, 0xac, 0xa7, 0x7d, 0xbb, 0x90,
  0xa5, 0x9c, 0x82, 0x98, 0x92, 0x73, 0x95, 0x7f, 0x8a, 0x92, 0x62, 0x90,
  0x71, 0x72, 0x81, 0x7f, 0x7d, 0xb4, 0x46, 0x73, 0x6f, 0x94, 0x8c, 0x8d,
  0x84, 0xa7, 0x5c, 0x94, 0x80, 0x77, 0xad, 0xa4, 0x86, 0xa7, 0x52, 0x9e,
  0x65, 0x65, 0xb3, 0x87, 0x72, 0xaa, 0x78, 0x97, 0x6c, 0x6d, 0xab, 0x96,
  0x8f, 0xaa, 0x69, 0x95, 0xa0, 0x7b, 0x9b, 0x93, 0xbd, 0xa5, 0x8e, 0x97,
  0x9f, 0x84, 0x94, 0x9d, 0x79, 0xa2, 0x7f, 0x7a, 0xa1, 0x89, 0x8a, 0x78,
  0x7d, 0x9c, 0x7e, 0x82, 0x7d, 0x8b, 0x94, 0x9e, 0x93, 0x9a, 0x99, 0x85,
  0xa2, 0x73, 0x8b, 0x92, 0xa3, 0xa6, 0x8c, 0xa2, 0xa8, 0x80, 0x84, 0x8b,
  0x8a, 0x8c, 0x84, 0x79, 0x74, 0xa7, 0x7a, 0x80, 0x94, 0x88, 0x8f, 0x6f,
  0xb5, 0x9a, 0x95, 0x98, 0xa5, 0x9b, 0x7b, 0x95, 0x9d, 0x9a, 0x77, 0xc2,
  0x8a, 0xa6, 0xb3, 0x7f, 0x78, 0xa9, 0xad, 0xce, 0xa3, 0xc2, 0xb2, 0x9f,
  0x7f, 0xa6, 0xac, 0xa0, 0x7d, 0x9e, 0xb4, 0x7f, 0x84, 0x80, 0xa9, 0x9e,
  0xa5, 0x99, 0xb5, 0x87, 0xa8, 0x6e, 0xac, 0xb7, 0x7c, 0xae, 0xab, 0x84,
  0xae, 0x91, 0xaf, 0xab, 0x92, 0x9a, 0x93, 0x8f, 0x92, 0x7c, 0xa1, 0x9f,
  0xa6, 0x9c, 0x6d, 0x93, 0x67, 0x5e, 0x8a, 0x88, 0xa0, 0xa7, 0x40, 0x98,
  0x68, 0x78, 0x92, 0x8b, 0x8e, 0xb4, 0x42, 0xab, 0x75, 0x85, 0xa2, 0x95,
  0x8a, 0x9c, 0x57, 0x79, 0x75, 0x83, 0xa3, 0xa1, 0x84, 0x9f, 0x65, 0x91,
  0x71, 0x6d, 0xb1, 0x81, 0xab, 0xb2, 0x5a, 0x79, 0x80, 0x4d, 0x9e, 0xa3,
  0x85, 0x9a, 0x89, 0xa3, 0x94, 0x8e, 0x99, 0x86, 0x84, 0x9d, 0x8e, 0x80,
  0xa9, 0x85, 0x8c, 0x99, 0x94, 0x9a, 0x80, 0x88, 0x8c, 0x88, 0x94, 0x93,
  0x95, 0xa6, 0x85, 0x83, 0x9b, 0x7f, 0x7e, 0x9a, 0xa1, 0x9c, 0x9a, 0x8f,
  0x98, 0x82, 0x8d, 0x6c, 0x69, 0x89, 0x96, 0xa2, 0x8c, 0x99, 0x86, 0x8d,
  0x84, 0x7d, 0x98, 0x9d, 0x8a, 0x93, 0x85, 0x8c, 0xa3, 0x95, 0x91, 0x80,
  0x94, 0x95, 0x9e, 0xab, 0x81, 0xaa, 0x9b, 0x97, 0x7f, 0xa0, 0xc5, 0xcc,
  0xa9, 0xb6, 0xa5, 0x90, 0x94, 0xa5, 0xa4, 0xb4, 0x96, 0x99, 0xa8, 0x96,
  0x7c, 0x78, 0x9c, 0xab, 0x8f, 0xa6, 0xb1, 0x98, 0xa4, 0x8a, 0xa2, 0x98,
  0xae, 0xa8, 0xae, 0xa4, 0xb9, 0x76, 0xbe, 0x9c, 0xaa, 0xa3, 0x91, 0xaf,
  0x89, 0x86, 0x8f, 0x7a, 0x9e, 0x9f, 0x62, 0x79, 0x65, 0x6d, 0x91, 0x96,
  0xa4, 0xb6, 0x47, 0x8b, 0x6b, 0x74, 0x97, 0x8e, 0x8d, 0xb6, 0x42, 0x8b,
  0x77, 0x7c, 0x93, 0x7f, 0xac, 0xb7, 0x49, 0xb4, 0x73, 0x68, 0xad, 0x92,
  0x78, 0xad, 0x66, 0x90, 0x57, 0x69, 0xb3, 0x99, 0xb8, 0xaf, 0x5b, 0x98,
  0x7d, 0x60, 0xad, 0x9f, 0x86, 0x9f, 0x80, 0xb5, 0xb2, 0x7d, 0x90, 0x90,
  0xa6, 0x92, 0x78, 0xa0, 0xa4, 0x7a, 0x8b, 0x9f, 0xa3, 0xa4, 0x7b, 0x9e,
  0x94, 0x91, 0x97, 0x8a, 0xa8, 0xab, 0x7e, 0x92, 0xa3, 0x7c, 0x94, 0x6e,
  0xb2, 0x8d, 0xa5, 0x90, 0x98, 0x74, 0x7f, 0x92, 0x84, 0x8a, 0x93, 0x8d,
  0x9e, 0x8e, 0x93, 0x80, 0xa8, 0x8c, 0x92, 0x79, 0x88, 0x9d, 0x86, 0x8f,
  0x97, 0xa4, 0x94, 0x6e, 0x8d, 0x7e, 0x94, 0x93, 0x8e, 0x9c, 0x99, 0x84,
  0x7b, 0xb1, 0xb0, 0xc9, 0xb7, 0xb7, 0xb1, 0x88, 0x8b, 0x90, 0xb1, 0xbd,
  0x77, 0xab, 0xa8, 0x85, 0x89, 0x77, 0xa3, 0xad, 0xaa, 0xb2, 0xaa, 0x9d,
  0xa1, 0x63, 0xb3, 0xa6, 0x82, 0xb1, 0xaa, 0x91, 0xc3, 0xa1, 0xbb, 0x7c,
  0x87, 0x9f, 0x9c, 0x8a, 0x92, 0x72, 0xa0, 0x92, 0xa0, 0x91, 0x6f, 0x83,
  0x5c, 0x69, 0x8a, 0xb4, 0x97, 0xb2, 0x2e, 0x87, 0x69, 0x96, 0x8f, 0x88,
  0x84, 0xb0, 0x46, 0xa1, 0x6b, 0x82, 0xa2, 0x8b, 0xa6, 0xa2, 0x62, 0xa3,
  0x74, 0x60, 0xb0, 0x89, 0x9a, 0xa4, 0x60, 0xa5, 0x62, 0x64, 0xb3, 0x8a,
  0xb0, 0xa5, 0x67, 0x81, 0x86, 0x4f, 0xb3, 0xab, 0x9e, 0x96, 0x81, 0x95,
  0x95, 0x76, 0x99, 0xb1, 0x81, 0xa1, 0x83, 0x83, 0xa5, 0x79, 0x9c, 0x98,
  0x79, 0x99, 0x84, 0x94, 0xa2, 0x81, 0x97, 0x94, 0xaf, 0xa7, 0x7f, 0x7e,
  0xa2, 0x81, 0x92, 0x83, 0xa0, 0x90, 0x9f, 0x9d, 0xa8, 0x8c, 0xa0, 0x97,
  0x97, 0x8e, 0x8c, 0x99, 0x96, 0x90, 0x8d, 0x7c, 0xa9, 0x68, 0x8f, 0x8b,
  0x99, 0x96, 0x85, 0x85, 0xb0, 0xae, 0x95, 0x7f, 0x94, 0x80, 0x79, 0xa4,
  0x75, 0xa0, 0x96, 0x79, 0x7f, 0xa8, 0xa3, 0xb8, 0xa5, 0xad, 0x99, 0x77,
  0x8d, 0x7c, 0xa6, 0xba, 0x90, 0xae, 0xa4, 0xb8, 0x7e, 0x65, 0xa6, 0x91,
  0x9b, 0xaa, 0xa5, 0x8c, 0x9e, 0x70, 0xb6, 0xa4, 0x9d, 0x99, 0xb0, 0x91,
  0xce, 0x7d, 0xbb, 0x84, 0x88, 0xaa, 0x9a, 0x91, 0x95, 0x83, 0xa9, 0x88,
  0xb1, 0x94, 0x62, 0x71, 0x69, 0x5a, 0x82, 0x8b, 0xae, 0xaf, 0x31, 0x92,
  0x7a, 0x86, 0x97, 0x9d, 0xac, 0xbb, 0x4b, 0x93, 0x73, 0x80, 0xa9, 0x8e,
  0x96, 0xb1, 0x6c, 0x87, 0x6e, 0x60, 0xa5, 0x99, 0x7f, 0xa6, 0x65, 0x91,
  0x5e, 0x4b, 0xa8, 0x85, 0x84, 0xaf, 0x73, 0xa8, 0x81, 0x5b, 0xa5, 0x96,
  0xa8, 0x96, 0x87, 0xa1, 0x8f, 0x64, 0x93, 0xa6, 0x93, 0xa2, 0x7e, 0xa0,
  0xaa, 0x86, 0x97, 0x90, 0xa2, 0x99, 0x8a, 0x9c, 0x97, 0x93, 0x91, 0x8f,
  0xa9, 0x9e, 0x9c, 0x83, 0x96, 0x84, 0x7f, 0x8a, 0x9d, 0x8c, 0x9f, 0x82,
  0xa5, 0x88, 0x93, 0x8d, 0x80, 0x8f, 0x8f, 0xa0, 0xbe, 0x86, 0x98, 0x89,
  0x8c, 0x7f, 0x85, 0x9a, 0x83, 0x93, 0x8f, 0x93, 0xa0, 0x9d, 0xb0, 0x7b,
  0x9e, 0x89, 0x7c, 0xb9, 0x84, 0x96, 0x91, 0x76, 0x7c, 0xab, 0xa6, 0xbf,
  0x9e, 0xb7, 0xa1, 0x8a, 0x79, 0x91, 0xa0, 0xb8, 0x81, 0xaf, 0xaa, 0xa0,
  0x81, 0x74, 0x9e, 0x98, 0x7d, 0xb1, 0xbd, 0x9b, 0xaa, 0x6e, 0xaf, 0xa2,
  0x7a, 0xa8, 0xb8, 0x80, 0xd2, 0x6d, 0xbf, 0xb1, 0x9f, 0xa5, 0x82, 0x83,
  0xa0, 0x7e, 0xa7, 0x94, 0xad, 0x99, 0x5c, 0x84, 0x67, 0x5f, 0x88, 0x8d,
  0x9a, 0xa3, 0x1e, 0x98, 0x76, 0x6d, 0x8f, 0x93, 0xb7, 0xb5, 0x3f, 0x9b,
  0x79, 0x72, 0x97, 0x86, 0x8c, 0xab, 0x4d, 0x8a, 0x7c, 0x5a, 0xa0, 0xac,
  0x94, 0x9a, 0x5c, 0x96, 0x60, 0x62, 0xa8, 0x9a, 0x8d, 0x99, 0x5c, 0x99,
  0x8d, 0x63, 0xb2, 0x9a, 0x80, 0x9c, 0x7b, 0x8c, 0x9a, 0x5a, 0x9f, 0x9b,
  0x96, 0x94, 0x88, 0xa4, 0x91, 0x6e, 0x99, 0xa0, 0xba, 0x9b, 0x86, 0x86,
  0x88, 0x88, 0xa1, 0x90, 0x89, 0x9a, 0x83, 0xaf, 0x91, 0x7d, 0x8b, 0x82,
  0x77, 0x82, 0xa3, 0xac, 0xa0, 0x87, 0x95, 0x93, 0x8c, 0x8d, 0x9b, 0x81,
  0x95, 0x85, 0x8f, 0x86, 0x83, 0x6d, 0x94, 0x78, 0x8d, 0x99, 0x91, 0x86,
  0x7c, 0xa0, 0x80, 0x6f, 0x9b, 0xa9, 0x70, 0xb1, 0x87, 0xac, 0x9c, 0x80,
  0x83, 0x9a, 0xa7, 0xb1, 0x8f, 0xb6, 0x9f, 0x85, 0x80, 0x8c, 0x97, 0xd2,
  0x9f, 0x9e, 0xad, 0xaf, 0x74, 0x6d, 0xad, 0x92, 0xab, 0xb4, 0xa6, 0xa4,
  0xaf, 0x8a, 0xac, 0x9b, 0x7b, 0xb3, 0xb5, 0x8a, 0xc8, 0x83, 0xc0, 0xb3,
  0x7c, 0xa6, 0x95, 0x74, 0xb1, 0x74, 0x9b, 0x78, 0x93, 0x9c, 0x59, 0x7c,
  0x6d, 0x67, 0x98, 0xab, 0x84, 0xb2, 0x27, 0x75, 0x71, 0x86, 0x98, 0xad,
  0x87, 0xb8, 0x49, 0x92, 0x74, 0x84, 0xae, 0x8a, 0x89, 0x9f, 0x4d, 0xa8,
  0x78, 0x5f, 0xa0, 0x9b, 0x93, 0x93, 0x61, 0x9c, 0x70, 0x63, 0x99, 0x8e,
  0x8a, 0xa6, 0x56, 0x8e, 0x8f, 0x3c, 0xad, 0x9d, 0x76, 0x9b, 0x84, 0xa1,
  0xa2, 0x69, 0x9a, 0x98, 0xaa, 0xa6, 0x97, 0x85, 0x88, 0x82, 0x96, 0x9a,
  0x73, 0x94, 0x96, 0x9c, 0x98, 0x8b, 0x98, 0x91, 0xa8, 0x8f, 0x9a, 0x96,
  0x96, 0x87, 0x96, 0x86, 0x86, 0x89, 0x99, 0x99, 0xa3, 0x84, 0x8a, 0x8f,
  0x91, 0x92, 0x88, 0x75, 0x9d, 0x8e, 0x8c, 0x7a, 0x80, 0x6a, 0x8f, 0x88,
  0x7a, 0x8e, 0x8e, 0x7d, 0x97, 0x9f, 0x91, 0x82, 0xa6, 0x8f, 0x78, 0xb1,
  0x95, 0xa0, 0xb0, 0x80, 0x86, 0xab, 0xa4, 0xb4, 0x86, 0xb3, 0x94, 0x7c,
  0x89, 0x74, 0xa2, 0xd1, 0x6a, 0x9f, 0xac, 0xc7, 0x80, 0x75, 0xb1, 0xc0,
  0x6a, 0xc4, 0xb3, 0xa5, 0xa3, 0x61, 0xab, 0x9f, 0x93, 0xa6, 0xa3, 0x7a,
  0xdb, 0x8f, 0xc4, 0x99, 0xab, 0xa2, 0x92, 0x81, 0xa5, 0x71, 0xb2, 0x9c,
  0x8c, 0xb3, 0x54, 0x81, 0x59, 0x7e, 0x91, 0x91, 0xba, 0xbb, 0x1e, 0x86,
  0x72, 0x7d, 0x8f, 0x90, 0xbc, 0xbe, 0x43, 0x93, 0x8d, 0x80, 0xa1, 0x9b,
  0x8c, 0xaa, 0x57, 0xa3, 0x76, 0x4c, 0xa3, 0x8e, 0x77, 0x8e, 0x52, 0x7c,
  0x77, 0x66, 0xa3, 0x98, 0x9c, 0xa9, 0x53, 0x97, 0x9c, 0x52, 0xa4, 0x9b,
  0x76, 0x94, 0x8a, 0x96, 0xa6, 0x51, 0xb5, 0xa2, 0x77, 0x99, 0x98, 0x96,
  0x90, 0x6c, 0x8f, 0x9b, 0x9f, 0x8f, 0x92, 0x94, 0x8d, 0x7f, 0xa0, 0x8d,
  0x75, 0x9a, 0x97, 0x7f, 0x86, 0x7a, 0x97, 0x91, 0x77, 0x8b, 0x99, 0xb6,
  0x98, 0x81, 0x96, 0xa2, 0x85, 0x84, 0x91, 0xae, 0xb2, 0x8b, 0x8f, 0x94,
  0x98, 0x6b, 0x90, 0xb4, 0x74, 0x92, 0x83, 0x80, 0xa7, 0xa9, 0x98, 0x6e,
