unsigned char model_speech_model_tflite[] = {
  0x1c, 0x00, 0x00, 0x00, 0x54, 0x46, 0x4c, 0x33, 0x00, 0x00, 0x12, 0x00,
  0x1c, 0x00, 0x04, 0x00, 0x08, 0x00, 0x0c, 0x00, 0x10, 0x00, 0x14, 0x00,
  0x00, 0x00, 0x18, 0x00, 0x12, 0x00, 0x00, 0x00, 0x03, 0x00, 0x00, 0x00,
  0x1c, 0x95, 0x00, 0x00, 0x10, 0x00, 0x00, 0x00, 0x1c, 0x00, 0x00, 0x00,
  0x2c, 0x00, 0x00, 0x00, 0x0c, 0x00, 0x00, 0x00, 0x01, 0x00, 0x00, 0x00,
  0xc0, 0x00, 0x00, 0x00, 0x01, 0x00, 0x00, 0x00, 0x94, 0x00, 0x00, 0x00,
  0x0f, 0x00, 0x00, 0x00, 0x54, 0x4f, 0x43, 0x4f, 0x20, 0x43, 0x6f, 0x6e,
  0x76, 0x65, 0x72, 0x74, 0x65, 0x64, 0x2e, 0x00, 0x0a, 0x00, 0x00, 0x00,
  0x60, 0x00, 0x00, 0x00, 0x54, 0x00, 0x00, 0x00, 0x48, 0x00, 0x00, 0x00,
  0x3c, 0x00, 0x00, 0x00, 0x34, 0x00, 0x00, 0x00, 0x2c, 0x00, 0x00, 0x00,
  0x24, 0x00, 0x00, 0x00, 0x18, 0x00, 0x00, 0x00, 0x10, 0x00, 0x00, 0x00,
  0x04, 0x00, 0x00, 0x00, 0x0e, 0x6c, 0xff, 0xff, 0x38, 0x00, 0x00, 0x00,
  0xbc, 0x6b, 0xff, 0xff, 0x1a, 0x6c, 0xff, 0xff, 0x9c, 0x01, 0x00, 0x00,
  0xc8, 0x6b, 0xff, 0xff, 0xcc, 0x6b, 0xff, 0xff, 0xd0, 0x6b, 0xff, 0xff,
  0x2e, 0x6c, 0xff, 0xff, 0xa8, 0x05, 0x00, 0x00, 0x36, 0x6c, 0xff, 0xff,
  0x4c, 0x06, 0x00, 0x00, 0x3e, 0x6c, 0xff, 0xff, 0x54, 0x93, 0x00, 0x00,
  0xec, 0x6b, 0xff, 0xff, 0x05, 0x00, 0x00, 0x00, 0x31, 0x2e, 0x35, 0x2e,
  0x30, 0x00, 0x00, 0x00, 0x08, 0x00, 0x0c, 0x00, 0x04, 0x00, 0x08, 0x00,
  0x08, 0x00, 0x00, 0x00, 0x08, 0x00, 0x00, 0x00, 0x09, 0x00, 0x00, 0x00,
  0x13, 0x00, 0x00, 0x00, 0x6d, 0x69, 0x6e, 0x5f, 0x72, 0x75, 0x6e, 0x74,
  0x69, 0x6d, 0x65, 0x5f, 0x76, 0x65, 0x72, 0x73, 0x69, 0x6f, 0x6e, 0x00,
  0x40, 0xfa, 0xff, 0xff, 0x20, 0x00, 0x00, 0x00, 0x14, 0x00, 0x00, 0x00,
  0x08, 0x00, 0x00, 0x00, 0x2c, 0x93, 0x00, 0x00, 0x01, 0x00, 0x00, 0x00,
  0x07, 0x00, 0x00, 0x00, 0x01, 0x00, 0x00, 0x00, 0x03, 0x00, 0x00, 0x00,
  0x08, 0x00, 0x00, 0x00, 0xdc, 0x04, 0x00, 0x00, 0x8c, 0x92, 0x00, 0x00,
  0x8c, 0x03, 0x00, 0x00, 0x14, 0x00, 0x00, 0x00, 0xf4, 0x03, 0x00, 0x00,
  0x40, 0x05, 0x00, 0x00, 0x7c, 0x00, 0x00, 0x00, 0x50, 0x04, 0x00, 0x00,
  0x9e, 0x6d, 0xff, 0xff, 0x00, 0x00, 0x00, 0x03, 0x10, 0x00, 0x00, 0x00,
  0x08, 0x00, 0x00, 0x00, 0x1c, 0x00, 0x00, 0x00, 0x28, 0x00, 0x00, 0x00,
  0x04, 0x00, 0x00, 0x00, 0x01, 0x00, 0x00, 0x00, 0x31, 0x00, 0x00, 0x00,
  0x28, 0x00, 0x00, 0x00, 0x01, 0x00, 0x00, 0x00, 0x09, 0x00, 0x00, 0x00,
  0x52, 0x65, 0x73, 0x68, 0x61, 0x70, 0x65, 0x5f, 0x32, 0x00, 0x00, 0x00,
  0xc4, 0xfa, 0xff, 0xff, 0x2c, 0x00, 0x00, 0x00, 0x20, 0x00, 0x00, 0x00,
  0x14, 0x00, 0x00, 0x00, 0x04, 0x00, 0x00, 0x00, 0x01, 0x00, 0x00, 0x00,
  0x00, 0x00, 0x00, 0x00, 0x00, 0x00, 0x00, 0x00, 0x01, 0x00, 0x00, 0x00,
  0xc6, 0xd0, 0xd0, 0x3d, 0x01, 0x00, 0x00, 0x00, 0xf5, 0xff, 0xcf, 0x41,
  0x01, 0x00, 0x00, 0x00, 0x00, 0x00, 0x00, 0x00, 0x12, 0x6e, 0xff, 0xff,
  0x00, 0x00, 0x00, 0x03, 0x10, 0x00, 0x00, 0x00, 0x07, 0x00, 0x00, 0x00,
  0x1c, 0x00, 0x00, 0x00, 0x2c, 0x00, 0x00, 0x00, 0x04, 0x00, 0x00, 0x00,
  0x01, 0x00, 0x00, 0x00, 0x0a, 0x00, 0x00, 0x00, 0x08, 0x00, 0x00, 0x00,
  0x08, 0x00, 0x00, 0x00, 0x0d, 0x00, 0x00, 0x00, 0x66, 0x69, 0x72, 0x73,
  0x74, 0x5f, 0x77, 0x65, 0x69, 0x67, 0x68, 0x74, 0x73, 0x00, 0x00, 0x00,
  0x3c, 0xfb, 0xff, 0xff, 0x30, 0x00, 0x00, 0x00, 0x24, 0x00, 0x00, 0x00,
  0x18, 0x00, 0x00, 0x00, 0x04, 0x00, 0x00, 0x00, 0x01, 0x00, 0x00, 0x00,
  0x7b, 0x00, 0x00, 0x00, 0x00, 0x00, 0x00, 0x00, 0x00, 0x00, 0x00, 0x00,
  0x01, 0x00, 0x00, 0x00, 0x8e, 0x1d, 0xa7, 0x3a, 0x01, 0x00, 0x00, 0x00,
  0x15, 0x39, 0x2c, 0x3e, 0x01, 0x00, 0x00, 0x00, 0xcb, 0xb3, 0x20, 0xbe,
  0x80, 0x02, 0x00, 0x00, 0x88, 0x4f, 0x49, 0x00, 0x65, 0xae, 0x63, 0x73,
  0x81, 0x31, 0x7e, 0x5f, 0x91, 0x7a, 0x36, 0x88, 0x6e, 0x3e, 0x7f, 0xa6,
  0x77, 0x5c, 0x98, 0x80, 0x72, 0x2e, 0x86, 0x82, 0x66, 0x54, 0x68, 0x9a,
  0x62, 0x4d, 0xa8, 0xb3, 0x3b, 0x36, 0x9f, 0x88, 0x75, 0x65, 0x94, 0x9a,
  0x6a, 0x5f, 0x9a, 0xa8, 0x74, 0x7a, 0xcc, 0xa5, 0x59, 0x40, 0x96, 0x88,
  0x73, 0x85, 0x92, 0x91, 0x91, 0x6e, 0x82, 0x83, 0x9e, 0x73, 0x37, 0x0e,
  0x56, 0xac, 0x7d, 0x57, 0x8f, 0x5b, 0x75, 0x3f, 0x83, 0x92, 0x48, 0x62,
  0x66, 0x6e, 0x6b, 0x96, 0x6c, 0x6c, 0xa5, 0x79, 0x6a, 0x5a, 0x77, 0x6b,
  0x62, 0x8b, 0x73, 0x92, 0x5c, 0x6e, 0xa2, 0xc2, 0x3b, 0x50, 0x94, 0x84,
  0x6a, 0x74, 0x81, 0x95, 0x7d, 0x8a, 0x93, 0x9f, 0x5e, 0x8f, 0xc5, 0xbb,
  0x67, 0x56, 0x7a, 0x83, 0x6e, 0x7e, 0x8c, 0x8c, 0x8c, 0x86, 0x76, 0x7a,
  0x9c, 0x8e, 0x3d, 0x1c, 0x4a, 0x93, 0xab, 0x54, 0x7e, 0x83, 0x66, 0x35,
  0x81, 0x9b, 0x5a, 0x4e, 0x77, 0x87, 0x56, 0x85, 0x69, 0x69, 0xb1, 0x7f,
  0x54, 0x78, 0x61, 0x60, 0x61, 0x86, 0x73, 0x8c, 0x4d, 0x83, 0x8d, 0xbb,
  0x55, 0x6c, 0x78, 0x86, 0x6a, 0x7b, 0x68, 0x86, 0x7c, 0xa2, 0x7e, 0x8d,
  0x62, 0x88, 0xc3, 0xc2, 0x6e, 0x6d, 0x63, 0x74, 0x6b, 0x75, 0x74, 0x8c,
  0x98, 0x81, 0x5e, 0x6a, 0xaa, 0x8f, 0x37, 0x26, 0x4a, 0x7d, 0xdf, 0x52,
  0x9d, 0xa1, 0x76, 0x2e, 0x6f, 0x97, 0x6d, 0x4d, 0x7b, 0x9f, 0x4c, 0x77,
  0x6d, 0x52, 0xc1, 0x65, 0x69, 0x91, 0x74, 0x50, 0x61, 0xae, 0x6d, 0x60,
  0x4c, 0x92, 0x89, 0xb0, 0x4f, 0x5f, 0x71, 0x72, 0x64, 0x6a, 0x7a, 0x8f,
  0x87, 0xa8, 0x6e, 0x6d, 0x62, 0x84, 0xc6, 0xc7, 0x7b, 0x5c, 0x58, 0x62,
  0x6f, 0x54, 0x89, 0x99, 0xa2, 0x80, 0x48, 0x51, 0xa7, 0xaf, 0x3c, 0x3b,
  0x4b, 0x6f, 0xff, 0x71, 0xb2, 0xae, 0x80, 0x36, 0x72, 0x90, 0x81, 0x51,
  0x7e, 0xb2, 0x40, 0x6c, 0x63, 0x5b, 0xcc, 0x65, 0x5f, 0xa0, 0x80, 0x41,
  0x60, 0xab, 0x64, 0x56, 0x49, 0xa0, 0x78, 0x9b, 0x51, 0x6c, 0x73, 0x59,
  0x6c, 0x85, 0x7c, 0x82, 0x91, 0xae, 0x61, 0x5f, 0x69, 0x8d, 0xb1, 0xc6,
  0x82, 0x64, 0x5e, 0x6e, 0x69, 0x5d, 0x8c, 0x99, 0xb0, 0x7d, 0x43, 0x42,
  0xa1, 0x8a, 0x44, 0x45, 0x4f, 0x77, 0xf2, 0xa6, 0xaf, 0x9c, 0x8a, 0x3d,
  0x6d, 0x76, 0x86, 0x7f, 0x7e, 0x9c, 0x49, 0x62, 0x5b, 0x57, 0xc8, 0x9e,
  0x63, 0xab, 0x85, 0x40, 0x68, 0x8d, 0x5b, 0x73, 0x4c, 0x94, 0x73, 0x81,
  0x59, 0x59, 0x69, 0x75, 0x6d, 0x81, 0x81, 0x83, 0x8b, 0x82, 0x58, 0x6b,
  0x5f, 0x97, 0xaf, 0xbc, 0x87, 0x50, 0x59, 0x69, 0x70, 0x7e, 0x8a, 0xac,
  0xaa, 0x72, 0x40, 0x4a, 0xac, 0x5a, 0x55, 0x50, 0x46, 0x72, 0xe7, 0xa6,
  0xbf, 0x82, 0x91, 0x41, 0x77, 0x82, 0x86, 0xb5, 0x74, 0x74, 0x47, 0x68,
  0x60, 0x68, 0xc3, 0x9d, 0x6e, 0x88, 0x8e, 0x37, 0x69, 0xa6, 0x5d, 0x79,
  0x50, 0x84, 0x70, 0x6a, 0x53, 0x6c, 0x65, 0x75, 0x6f, 0x8b, 0x7b, 0x70,
  0x9c, 0x91, 0x51, 0x69, 0x61, 0x80, 0xa1, 0x9c, 0x91, 0x59, 0x59, 0x66,
  0x71, 0x87, 0x86, 0xa5, 0xb6, 0x75, 0x48, 0x4a, 0x9c, 0x44, 0x6e, 0x58,
  0x4d, 0x77, 0xcf, 0xb9, 0xb1, 0x7c, 0x8e, 0x4e, 0x76, 0x78, 0x84, 0xae,
  0x7b, 0x59, 0x57, 0x5f, 0x65, 0x8b, 0xb1, 0x9e, 0x68, 0x8f, 0x87, 0x40,
  0x6b, 0xb3, 0x65, 0x7a, 0x4a, 0x63, 0x77, 0x63, 0x63, 0x93, 0x61, 0x5d,
  0x78, 0x89, 0x74, 0x54, 0x8f, 0xa0, 0x58, 0x73, 0x62, 0x68, 0x9a, 0x90,
  0x8c, 0x74, 0x57, 0x5a, 0x68, 0x95, 0x7e, 0x92, 0xb0, 0x6f, 0x56, 0x4c,
  0x96, 0x3b, 0x8f, 0x5e, 0x54, 0x5e, 0xb8, 0xa0, 0x9a, 0x72, 0x86, 0x40,
  0x79, 0x55, 0x81, 0xaf, 0x7b, 0x37, 0x5c, 0x61, 0x69, 0x7a, 0xa2, 0x88,
  0x61, 0x80, 0x6f, 0x30, 0x6e, 0xac, 0x65, 0x6c, 0x52, 0x41, 0x61, 0x58,
  0x59, 0x8d, 0x5f, 0x5c, 0x72, 0x8c, 0x4f, 0x2f, 0x92, 0x96, 0x68, 0x63,
  0x64, 0x4c, 0x83, 0x66, 0x90, 0x5d, 0x5e, 0x59, 0x79, 0x8b, 0x57, 0x52,
  0xb3, 0x60, 0x61, 0x49, 0x7e, 0x46, 0xab, 0x55, 0x54, 0x42, 0x9c, 0xa8,
  0x85, 0x57, 0x88, 0x41, 0x82, 0x2c, 0x77, 0xa1, 0x65, 0x16, 0x68, 0x5b,
  0x73, 0x5f, 0x91, 0x8e, 0x63, 0x58, 0x5f, 0x2e, 0x6a, 0x7a, 0x61, 0x74,
  0x50, 0x1d, 0x53, 0x5e, 0x61, 0x69, 0x5a, 0x57, 0x72, 0x67, 0x26, 0x12,
  0x8f, 0x6d, 0x75, 0x68, 0x62, 0x37, 0x73, 0x5f, 0x89, 0x5e, 0x6e, 0x55,
  0x6a, 0x6c, 0x2a, 0x29, 0xa4, 0x48, 0x6d, 0x4c, 0x12, 0x71, 0xff, 0xff,
  0x00, 0x00, 0x00, 0x03, 0x10, 0x00, 0x00, 0x00, 0x06, 0x00, 0x00, 0x00,
  0x1c, 0x00, 0x00, 0x00, 0x24, 0x00, 0x00, 0x00, 0x04, 0x00, 0x00, 0x00,
  0x01, 0x00, 0x00, 0x00, 0x19, 0x00, 0x00, 0x00, 0x14, 0x00, 0x00, 0x00,
  0x08, 0x00, 0x00, 0x00, 0x04, 0x00, 0x00, 0x00, 0x52, 0x65, 0x6c, 0x75,
  0x00, 0x00, 0x00, 0x00, 0x34, 0xfe, 0xff, 0xff, 0x2c, 0x00, 0x00, 0x00,
  0x20, 0x00, 0x00, 0x00, 0x14, 0x00, 0x00, 0x00, 0x04, 0x00, 0x00, 0x00,
  0x01, 0x00, 0x00, 0x00, 0x00, 0x00, 0x00, 0x00, 0x00, 0x00, 0x00, 0x00,
  0x01, 0x00, 0x00, 0x00, 0x00, 0x00, 0x80, 0x3f, 0x01, 0x00, 0x00, 0x00,
  0x00, 0x00, 0x7f, 0x43, 0x01, 0x00, 0x00, 0x00, 0x00, 0x00, 0x00, 0x00,
  0x82, 0x71, 0xff, 0xff, 0x00, 0x00, 0x00, 0x03, 0x10, 0x00, 0x00, 0x00,
  0x05, 0x00, 0x00, 0x00, 0x14, 0x00, 0x00, 0x00, 0x1c, 0x00, 0x00, 0x00,
  0x02, 0x00, 0x00, 0x00, 0x01, 0x00, 0x00, 0x00, 0x09, 0x00, 0x00, 0x00,
  0x05, 0x00, 0x00, 0x00, 0x61, 0x64, 0x64, 0x5f, 0x31, 0x00, 0x00, 0x00,
  0x9c, 0xfe, 0xff, 0xff, 0x2c, 0x00, 0x00, 0x00, 0x20, 0x00, 0x00, 0x00,
  0x14, 0x00, 0x00, 0x00, 0x04, 0x00, 0x00, 0x00, 0x01, 0x00, 0x00, 0x00,
  0x00, 0x00, 0x00, 0x00, 0x00, 0x00, 0x00, 0x00, 0x01, 0x00, 0x00, 0x00,
  0x00, 0x00, 0x80, 0x3f, 0x01, 0x00, 0x00, 0x00, 0x00, 0x00, 0x7f, 0x43,
  0x01, 0x00, 0x00, 0x00, 0x00, 0x00, 0x00, 0x00, 0xea, 0x71, 0xff, 0xff,
  0x00, 0x00, 0x00, 0x03, 0x10, 0x00, 0x00, 0x00, 0x04, 0x00, 0x00, 0x00,
  0x14, 0x00, 0x00, 0x00, 0x24, 0x00, 0x00, 0x00, 0x02, 0x00, 0x00, 0x00,
  0x01, 0x00, 0x00, 0x00, 0x09, 0x00, 0x00, 0x00, 0x0e, 0x00, 0x00, 0x00,
  0x6c, 0x61, 0x62, 0x65, 0x6c, 0x73, 0x5f, 0x73, 0x6f, 0x66, 0x74, 0x6d,
  0x61, 0x78, 0x00, 0x00, 0x0c, 0xff, 0xff, 0xff, 0x2c, 0x00, 0x00, 0x00,
  0x20, 0x00, 0x00, 0x00, 0x14, 0x00, 0x00, 0x00, 0x04, 0x00, 0x00, 0x00,
  0x01, 0x00, 0x00, 0x00, 0x00, 0x00, 0x00, 0x00, 0x00, 0x00, 0x00, 0x00,
  0x01, 0x00, 0x00, 0x00, 0x00, 0x00, 0x80, 0x3b, 0x01, 0x00, 0x00, 0x00,
  0x00, 0x00, 0x7f, 0x3f, 0x01, 0x00, 0x00, 0x00, 0x00, 0x00, 0x00, 0x00,
  0x5a, 0x72, 0xff, 0xff, 0x00, 0x00, 0x00, 0x02, 0x10, 0x00, 0x00, 0x00,
  0x03, 0x00, 0x00, 0x00, 0x10, 0x00, 0x00, 0x00, 0x1c, 0x00, 0x00, 0x00,
  0x01, 0x00, 0x00, 0x00, 0x08, 0x00, 0x00, 0x00, 0x0b, 0x00, 0x00, 0x00,
  0x43, 0x6f, 0x6e, 0x76, 0x32, 0x44, 0x5f, 0x62, 0x69, 0x61, 0x73, 0x00,
  0x4c, 0x72, 0xff, 0xff, 0x18, 0x00, 0x00, 0x00, 0x04, 0x00, 0x00, 0x00,
  0x01, 0x00, 0x00, 0x00, 0x00, 0x00, 0x00, 0x00, 0x00, 0x00, 0x00, 0x00,
  0x00, 0x00, 0x00, 0x00, 0x01, 0x00, 0x00, 0x00, 0x4c, 0x50, 0x08, 0x39,
  0x20, 0x00, 0x00, 0x00, 0x2b, 0x00, 0x00, 0x00, 0x00, 0x00, 0x00, 0x00,
  0xb5, 0xfe, 0xff, 0xff, 0x63, 0x00, 0x00, 0x00, 0x9d, 0x00, 0x00, 0x00,
  0x00, 0x00, 0x00, 0x00, 0x36, 0xfb, 0xff, 0xff, 0x34, 0x00, 0x00, 0x00,
  0xd2, 0x72, 0xff, 0xff, 0x00, 0x00, 0x00, 0x03, 0x10, 0x00, 0x00, 0x00,
  0x02, 0x00, 0x00, 0x00, 0x14, 0x00, 0x00, 0x00, 0x3c, 0x00, 0x00, 0x00,
  0x02, 0x00, 0x00, 0x00, 0x09, 0x00, 0x00, 0x00, 0xa0, 0x0f, 0x00, 0x00,
  0x1a, 0x00, 0x00, 0x00, 0x66, 0x69, 0x6e, 0x61, 0x6c, 0x5f, 0x66, 0x63,
  0x5f, 0x77, 0x65, 0x69, 0x67, 0x68, 0x74, 0x73, 0x2f, 0x74, 0x72, 0x61,
  0x6e, 0x73, 0x70, 0x6f, 0x73, 0x65, 0x00, 0x00, 0x0c, 0x00, 0x14, 0x00,
  0x04, 0x00, 0x08, 0x00, 0x0c, 0x00, 0x10, 0x00, 0x0c, 0x00, 0x00, 0x00,
  0x2c, 0x00, 0x00, 0x00, 0x20, 0x00, 0x00, 0x00, 0x14, 0x00, 0x00, 0x00,
  0x04, 0x00, 0x00, 0x00, 0x01, 0x00, 0x00, 0x00, 0x7f, 0x00, 0x00, 0x00,
  0x00, 0x00, 0x00, 0x00, 0x01, 0x00, 0x00, 0x00, 0x1c, 0x52, 0xef, 0x39,
  0x01, 0x00, 0x00, 0x00, 0xfe, 0xfd, 0x6e, 0x3d, 0x01, 0x00, 0x00, 0x00,
  0x95, 0xc7, 0x6d, 0xbd, 0xa0, 0x8c, 0x00, 0x00, 0x92, 0x95, 0x84, 0x7d,
  0x79, 0x92, 0x7b, 0x68, 0x8b, 0x9c, 0x61, 0x99, 0x7f, 0x8b, 0x63, 0x8b,
  0x6d, 0x7e, 0x8d, 0x9b, 0x76, 0x68, 0xeb, 0x96, 0x77, 0x4f, 0x78, 0x79,
  0x91, 0x67, 0x5a, 0x9a, 0x85, 0x7a, 0x6b, 0x7c, 0xa4, 0x6a, 0x6d, 0x8f,
  0x5a, 0x73, 0x86, 0x80, 0x84, 0x7c, 0xa2, 0x94, 0xa1, 0x86, 0x7e, 0x94,
  0xa6, 0xa0, 0x8b, 0xa0, 0x6e, 0x8f, 0x7c, 0x8a, 0x7e, 0x6a, 0x89, 0x9b,
  0x81, 0x67, 0x9e, 0x87, 0x78, 0x7b, 0x72, 0x7a, 0x86, 0x77, 0x86, 0x73,
  0x89, 0x8b, 0x82, 0x95, 0x8e, 0x62, 0x8b, 0x72, 0x8e, 0x7c, 0x7d, 0x7a,
  0x90, 0x80, 0x97, 0x73, 0x78, 0x67, 0x7a, 0x79, 0x7d, 0x78, 0x67, 0x65,
  0x6c, 0x52, 0xa8, 0x88, 0x90, 0x8a, 0x95, 0x6d, 0x7c, 0x5a, 0x71, 0x91,
  0x94, 0x7c, 0x6d, 0x99, 0x93, 0x67, 0x9a, 0x7d, 0x7d, 0x8c, 0x96, 0x93,
  0x77, 0x76, 0x54, 0x6b, 0x81, 0x83, 0x80, 0x58, 0x74, 0x8d, 0x89, 0x6e,
  0x68, 0x85, 0x94, 0x98, 0x97, 0x78, 0x73, 0x87, 0x60, 0x6f, 0x76, 0x73,
  0x7f, 0x54, 0x91, 0x6a, 0x81, 0x8e, 0x95, 0x73, 0x64, 0xa5, 0x8b, 0x8b,
  0x77, 0x95, 0x83, 0x7e, 0x5c, 0x93, 0x8e, 0xa5, 0x6b, 0x7e, 0x77, 0x8e,
  0x7f, 0x5d, 0x76, 0x6e, 0x9f, 0x74, 0x85, 0x6e, 0x5c, 0x62, 0xd9, 0x83,
  0x8d, 0x79, 0x95, 0x77, 0xaa, 0x5c, 0x5f, 0x81, 0x91, 0x78, 0x7d, 0xa9,
  0x95, 0x60, 0x68, 0x8f, 0x64, 0x7f, 0x89, 0x8e, 0x6d, 0x4c, 0x4c, 0x96,
  0x75, 0x90, 0x84, 0x7d, 0x64, 0x71, 0x50, 0x65, 0x87, 0x85, 0x6f, 0x81,
  0x9f, 0x5e, 0x66, 0x9a, 0x80, 0x8f, 0x7a, 0x64, 0x61, 0x90, 0x95, 0x81,
  0x62, 0x81, 0x8a, 0x90, 0x8d, 0x78, 0x65, 0x5e, 0x8b, 0x80, 0x9f, 0x88,
  0x86, 0x6f, 0x7f, 0x95, 0x80, 0x84, 0x68, 0x89, 0x7d, 0x9f, 0x5e, 0x6f,
  0x7d, 0x7b, 0xa4, 0x60, 0x85, 0x71, 0x50, 0x6f, 0x62, 0x85, 0x74, 0x9a,
  0x96, 0x71, 0x72, 0x90, 0x98, 0x88, 0x5a, 0x7e, 0x8d, 0x7b, 0x54, 0x84,
  0x8e, 0x82, 0x65, 0x93, 0x96, 0x83, 0x71, 0x7d, 0x68, 0x91, 0x95, 0x87,
  0x7b, 0x77, 0x71, 0x76, 0x83, 0x96, 0x70, 0x95, 0x74, 0x86, 0x8c, 0x85,
  0x9e, 0x8f, 0x62, 0x79, 0x88, 0x63, 0x88, 0x78, 0x46, 0x93, 0x8a, 0x8a,
  0x91, 0x7f, 0x8c, 0x55, 0x9d, 0x74, 0x88, 0x83, 0x61, 0x42, 0xa4, 0x88,
  0x8d, 0x34, 0x8f, 0x53, 0x94, 0x55, 0xa1, 0x7a, 0xa0, 0x45, 0x74, 0x9a,
  0x9b, 0x74, 0xa8, 0x89, 0x79, 0x65, 0x61, 0x71, 0x73, 0x65, 0x2a, 0x59,
  0x73, 0x61, 0x73, 0xa0, 0x6d, 0x70, 0x74, 0x67, 0x92, 0x42, 0x82, 0x7d,
  0x84, 0x87, 0x64, 0x65, 0x96, 0x74, 0x80, 0x58, 0x7a, 0x6d, 0x55, 0x9e,
  0x61, 0x56, 0x8c, 0x64, 0x6b, 0x9c, 0x6a, 0x7b, 0x64, 0x68, 0x65, 0x7f,
  0x8d, 0x83, 0x6b, 0x70, 0x7c, 0x58, 0x82, 0x8e, 0x84, 0x55, 0x5f, 0x87,
  0x8d, 0x48, 0x6f, 0x7c, 0x7e, 0x6c, 0x5a, 0x87, 0x9d, 0x76, 0x9b, 0x8b,
  0x71, 0x94, 0x5c, 0x7c, 0xa6, 0x7f, 0x6b, 0x79, 0x98, 0x7f, 0x6b, 0x70,
  0x88, 0x62, 0x83, 0x75, 0x96, 0x71, 0x6d, 0x60, 0x54, 0x47, 0x93, 0x99,
  0x7c, 0x91, 0x52, 0xa4, 0x93, 0x84, 0x7e, 0x83, 0x68, 0x5e, 0x5b, 0x66,
  0x8f, 0x89, 0x89, 0x8c, 0x86, 0x66, 0x83, 0x9c, 0x67, 0x60, 0x82, 0x78,
  0x72, 0x7e, 0x88, 0x96, 0x82, 0x4d, 0x98, 0x84, 0x6f, 0x86, 0x86, 0x91,
  0x4f, 0x5c, 0xa1, 0x93, 0x97, 0x87, 0x91, 0x8e, 0x74, 0x7a, 0x86, 0x6a,
  0x74, 0x9a, 0x79, 0x6d, 0x72, 0x86, 0x71, 0x79, 0x7c, 0x85, 0x82, 0x85,
  0x8a, 0x76, 0x6d, 0x7e, 0x8c, 0x8e, 0x97, 0x95, 0x86, 0x93, 0x56, 0x71,
  0x85, 0x7a, 0x3b, 0x79, 0xa5, 0x5c, 0x72, 0x6d, 0x84, 0x72, 0x61, 0x7b,
  0x7e, 0x7f, 0x7a, 0x90, 0x7a, 0x77, 0x3e, 0x6d, 0x9c, 0x85, 0x8f, 0x97,
  0x62, 0x85, 0x5e, 0x7e, 0x7d, 0x75, 0x6c, 0x5e, 0x80, 0x6d, 0x4d, 0xa0,
  0x96, 0x82, 0x7c, 0x8e, 0x6b, 0x91, 0x4f, 0x7e, 0x87, 0x82, 0x9d, 0x9d,
  0x90, 0x75, 0x52, 0x6b, 0x83, 0x9f, 0x6c, 0x7e, 0x9c, 0x9e, 0x5d, 0x73,
  0x85, 0x62, 0x73, 0x93, 0x5c, 0x76, 0x5e, 0x9a, 0x80, 0x61, 0x7c, 0x5a,
  0x6f, 0x97, 0x58, 0x7e, 0x6c, 0x7f, 0x7a, 0x92, 0x5e, 0x78, 0x7d, 0x9d,
  0x60, 0x8b, 0x73, 0x96, 0x92, 0x8e, 0x5e, 0x83, 0x8a, 0x7e, 0x75, 0x81,
  0x5c, 0x67, 0x5a, 0x7c, 0x84, 0x99, 0x7d, 0x8a, 0x66, 0x7a, 0x6b, 0x79,
  0x5b, 0xa0, 0x8a, 0x56, 0x8c, 0x84, 0x58, 0x8e, 0x8d, 0x89, 0x5d, 0x57,
  0x7a, 0x7a, 0x88, 0x76, 0x6f, 0x84, 0x69, 0x8c, 0x8e, 0x85, 0x78, 0x9c,
  0x79, 0x78, 0x82, 0x6b, 0x8b, 0x80, 0xa4, 0x6e, 0x8f, 0x87, 0x69, 0x60,
  0x7a, 0x73, 0x77, 0x97, 0x83, 0xac, 0x6e, 0x85, 0x83, 0x9a, 0x7e, 0x8b,
  0x7b, 0x95, 0x80, 0x89, 0x9c, 0x6f, 0x31, 0x72, 0x93, 0x9c, 0x6a, 0x79,
  0x75, 0x84, 0x4d, 0x91, 0x6d, 0x76, 0x85, 0x97, 0x98, 0x8b, 0x67, 0x84,
  0x85, 0xa7, 0x5e, 0x8b, 0x6a, 0xa3, 0x3d, 0x73, 0x7c, 0x9a, 0x71, 0x87,
  0x9a, 0x82, 0x4f, 0x88, 0x64, 0x97, 0x69, 0x58, 0x75, 0xa9, 0x5b, 0x82,
  0x61, 0x9d, 0x6f, 0x7f, 0x6e, 0x88, 0x43, 0x91, 0x6b, 0x97, 0x78, 0x5a,
  0x8b, 0x73, 0x4d, 0x5c, 0x6e, 0x84, 0x8b, 0x7a, 0x92, 0x71, 0x67, 0x7e,
  0x91, 0x9f, 0x87, 0x71, 0x6a, 0xa4, 0x3c, 0x79, 0xa0, 0x90, 0xb8, 0x91,
  0x60, 0x66, 0x4d, 0x9f, 0x7d, 0x89, 0x8c, 0x71, 0x6a, 0x74, 0x69, 0x75,
  0x98, 0x8c, 0x93, 0x8c, 0x9e, 0x85, 0x29, 0x91, 0x71, 0xa5, 0x92, 0x72,
  0x7b, 0x79, 0x65, 0x94, 0x81, 0x8b, 0x82, 0x6f, 0x5a, 0x65, 0x70, 0x95,
  0x76, 0x7d, 0x89, 0x83, 0x9b, 0xa7, 0x84, 0x81, 0x6e, 0x75, 0x68, 0xa1,
  0x73, 0xb2, 0x83, 0x69, 0x7b, 0xa2, 0x7d, 0x63, 0x70, 0x9b, 0x6e, 0x83,
  0x66, 0x80, 0x66, 0x79, 0x94, 0x94, 0x86, 0xa8, 0x67, 0x71, 0x73, 0x6f,
  0x8a, 0x92, 0x8c, 0x85, 0x8f, 0x8a, 0x8f, 0x57, 0x6e, 0x60, 0x38, 0x83,
  0x7a, 0x8d, 0x70, 0x8a, 0x69, 0x91, 0x50, 0x7d, 0x75, 0x90, 0x96, 0x63,
  0x6a, 0x82, 0x52, 0x8a, 0x75, 0x8c, 0x78, 0x96, 0x90, 0x86, 0x3a, 0x73,
  0x97, 0x97, 0x79, 0x88, 0x95, 0xad, 0x6a, 0x64, 0x89, 0x82, 0x8b, 0x62,
  0x7d, 0xa9, 0x47, 0x99, 0x68, 0x8b, 0x71, 0x92, 0x89, 0x82, 0x60, 0x5c,
  0x80, 0x71, 0x7f, 0x9f, 0x75, 0x81, 0x6b, 0x9b, 0x72, 0x75, 0x73, 0x6a,
  0x94, 0x8f, 0x80, 0x67, 0x86, 0x70, 0xa2, 0x73, 0x89, 0x75, 0x58, 0x5e,
  0x74, 0x76, 0x8c, 0x9b, 0x7a, 0x99, 0x62, 0x92, 0x83, 0x8b, 0xa1, 0x78,
  0x5d, 0x8b, 0x75, 0x76, 0x81, 0x85, 0x74, 0xa5, 0x7d, 0x9c, 0x57, 0x8c,
  0x5b, 0x98, 0x85, 0x8a, 0x7a, 0x98, 0x6a, 0x6d, 0x75, 0x8d, 0x8b, 0x51,
  0x7a, 0x7a, 0x80, 0x75, 0x6e, 0x9b, 0x62, 0x79, 0x99, 0x9d, 0x6b, 0x76,
  0x83, 0x7a, 0x53, 0x8b, 0x9c, 0xa5, 0x8c, 0x7f, 0x9b, 0x7e, 0x77, 0x6a,
  0x7f, 0xaf, 0x77, 0x83, 0x7e, 0x7b, 0x71, 0x85, 0xa4, 0x7f, 0x75, 0x6b,
  0xa8, 0x6d, 0x64, 0x72, 0x57, 0x80, 0x80, 0x8a, 0x9c, 0xa3, 0x8e, 0x96,
  0x83, 0x81, 0x4a, 0x81, 0x81, 0x94, 0x71, 0x5e, 0x75, 0x83, 0x4e, 0x8b,
  0x6a, 0x96, 0x7b, 0x7c, 0x93, 0x95, 0x5d, 0x76, 0x79, 0x96, 0x70, 0x4f,
  0x64, 0x95, 0x50, 0x77, 0x8d, 0x91, 0x74, 0x69, 0x74, 0xa2, 0x7e, 0x70,
  0x8a, 0x98, 0x7b, 0x74, 0x89, 0xa7, 0x57, 0x7d, 0x79, 0x90, 0x85, 0x79,
  0x71, 0x9a, 0x88, 0x7e, 0x95, 0x95, 0x7d, 0x75, 0x8e, 0xb0, 0x57, 0x72,
  0x69, 0x87, 0x65, 0x87, 0x71, 0x94, 0x5d, 0x61, 0xa1, 0x92, 0x8e, 0x71,
  0xa4, 0x86, 0x8d, 0x8b, 0x8b, 0x7b, 0x8d, 0x60, 0x8f, 0x8f, 0x6e, 0x71,
  0x9d, 0xa8, 0x82, 0x74, 0x54, 0x8e, 0x62, 0x91, 0x65, 0x80, 0x86, 0x86,
  0x4d, 0xa3, 0x5b, 0x5c, 0x84, 0x96, 0x7f, 0x70, 0x76, 0xa1, 0x52, 0x92,
  0x89, 0x99, 0x86, 0x89, 0x85, 0x84, 0x57, 0x90, 0x79, 0xa3, 0x96, 0x72,
  0x7f, 0x9b, 0x7e, 0x8a, 0x77, 0x7c, 0x82, 0x7b, 0x9a, 0xa6, 0x7d, 0x9b,
  0x63, 0x84, 0x73, 0x61, 0x97, 0xa3, 0x88, 0x9a, 0x95, 0x8b, 0x70, 0x75,
  0x91, 0x92, 0x74, 0x78, 0x88, 0x8f, 0x87, 0x67, 0x8c, 0xa4, 0x6c, 0x6e,
  0x72, 0x80, 0x70, 0x6d, 0x8a, 0x95, 0x22, 0x85, 0x87, 0x78, 0x53, 0x7e,
  0x75, 0x9b, 0x3d, 0x5f, 0x81, 0x98, 0x88, 0x6c, 0x93, 0x8e, 0x64, 0x7c,
  0x71, 0x8a, 0x6c, 0x7d, 0x77, 0xa0, 0x37, 0x90, 0x85, 0xa7, 0x7b, 0x74,
  0x63, 0x94, 0x66, 0x7b, 0x9c, 0x7c, 0x7d, 0x65, 0x5f, 0xac, 0x47, 0x6d,
  0x71, 0x88, 0x7e, 0x5f, 0x73, 0x9c, 0x40, 0xa8, 0x89, 0x7a, 0x85, 0x8d,
  0x95, 0x9c, 0x6a, 0x78, 0x6b, 0x9c, 0x75, 0x82, 0x67, 0x8e, 0x6f, 0x8f,
  0x76, 0x75, 0x7c, 0x94, 0xa8, 0x89, 0x7a, 0x79, 0x72, 0x81, 0xa3, 0x6f,
  0x60, 0x80, 0x86, 0x93, 0x84, 0x79, 0x83, 0x8a, 0x6b, 0xa4, 0x64, 0x97,
  0x8f, 0x8b, 0x9b, 0x5c, 0x92, 0x84, 0x4e, 0x77, 0x74, 0x9b, 0x88, 0x5e,
  0x86, 0x7c, 0x5d, 0x85, 0x75, 0xb0, 0x98, 0x6b, 0x99, 0x99, 0x67, 0x5b,
  0x6c, 0xbe, 0x67, 0x93, 0x63, 0x99, 0x7e, 0x9c, 0x6f, 0x96, 0x78, 0x7b,
  0x90, 0x90, 0x81, 0x8c, 0x75, 0x78, 0x6d, 0x63, 0x7b, 0x9c, 0xa0, 0x73,
  0xa2, 0x9a, 0x77, 0x66, 0x99, 0x97, 0x65, 0x61, 0x85, 0x7e, 0x94, 0x6b,
  0x76, 0x8f, 0x5c, 0x8b, 0x83, 0x93, 0x77, 0x78, 0x69, 0x8b, 0x4d, 0x82,
  0x7e, 0x87, 0x8b, 0x78, 0x71, 0x84, 0x46, 0x8d, 0x7e, 0xa5, 0x6f, 0x4c,
  0x87, 0xa9, 0x66, 0x85, 0x6c, 0x7d, 0x7c, 0x89, 0x64, 0x8f, 0x72, 0x70,
  0x73, 0x90, 0x5b, 0x4d, 0x70, 0x94, 0x43, 0xa0, 0x5e, 0x8c, 0x96, 0x6a,
  0x92, 0x95, 0x4d, 0x95, 0x7e, 0x83, 0x69, 0x6c, 0x5c, 0x95, 0x79, 0x76,
  0x7b, 0x92, 0x75, 0x88, 0x81, 0x8f, 0x56, 0x9d, 0x7e, 0x8b, 0x80, 0x6b,
  0x7a, 0x8b, 0x6f, 0x69, 0x90, 0x8d, 0x8d, 0x83, 0x71, 0x8d, 0x74, 0x81,
  0x83, 0xa9, 0x8a, 0xa0, 0x97, 0x84, 0x78, 0x89, 0x7a, 0xae, 0x8d, 0x74,
  0x7b, 0x8e, 0x70, 0x87, 0x84, 0x96, 0x7b, 0x74, 0x93, 0x81, 0x5a, 0x66,
  0x83, 0x7e, 0xaa, 0x70, 0x85, 0x91, 0x59, 0x8b, 0x6c, 0xa0, 0x8b, 0x5d,
  0x8e, 0x9c, 0x70, 0x6a, 0x72, 0xbe, 0x75, 0x85, 0x9d, 0xa0, 0x74, 0xa6,
  0x82, 0x90, 0x8c, 0x74, 0x98, 0x8c, 0x7e, 0x79, 0x72, 0x96, 0x73, 0x59,
  0x88, 0xa3, 0x6d, 0x78, 0x6e, 0x7a, 0x74, 0x6c, 0x9f, 0x89, 0x7d, 0x95,
  0x63, 0xaf, 0x8a, 0x97, 0x5a, 0x8c, 0x4f, 0x90, 0x81, 0x86, 0x7a, 0x81,
  0x8b, 0x81, 0x44, 0x76, 0x7e, 0x99, 0x88, 0x65, 0x6d, 0x83, 0x47, 0x6d,
  0x87, 0x84, 0x87, 0x99, 0x65, 0x82, 0x51, 0x6f, 0x7c, 0x87, 0x7b, 0x71,
  0x84, 0x95, 0x52, 0xa8, 0x79, 0x9f, 0x81, 0x50, 0x88, 0x92, 0x55, 0x6c,
  0x9d, 0xa8, 0x7b, 0x5d, 0x61, 0x8d, 0x75, 0x7b, 0x71, 0x98, 0x94, 0x76,
  0x7a, 0x88, 0x55, 0x73, 0x8a, 0x9a, 0x95, 0x8a, 0x91, 0x94, 0x7e, 0x99,
  0x97, 0x87, 0x83, 0x6e, 0x8c, 0x79, 0x4a, 0x8a, 0x7e, 0x85, 0x90, 0x83,
  0xa9, 0x84, 0x9a, 0x8a, 0x79, 0xa1, 0x76, 0x72, 0x88, 0x90, 0x93, 0x74,
  0x7a, 0x9f, 0x99, 0x6a, 0x8b, 0x89, 0x7d, 0x7d, 0x60, 0xad, 0x93, 0x61,
  0x69, 0x8a, 0x3c, 0x74, 0x85, 0x9a, 0x76, 0x70, 0x68, 0x7e, 0x49, 0x7b,
  0x7e, 0x91, 0x96, 0x79, 0x61, 0x88, 0x5a, 0x97, 0x5d, 0xaa, 0x84, 0x7e,
  0x70, 0x92, 0x83, 0x6a, 0x82, 0xa1, 0x83, 0x92, 0x5f, 0x8a, 0x77, 0x9d,
  0x85, 0x75, 0x76, 0x5f, 0x8d, 0xa9, 0x75, 0x4b, 0x6a, 0x7f, 0x7a, 0x63,
  0xb0, 0x90, 0x7c, 0x8d, 0x6b, 0x98, 0x78, 0x89, 0x7b, 0x87, 0x5d, 0x85,
  0x74, 0x71, 0x78, 0x6a, 0x88, 0x92, 0x2d, 0x82, 0x95, 0x92, 0x74, 0x88,
  0x6e, 0x8f, 0x53, 0x71, 0x7e, 0x95, 0x8c, 0x86, 0x57, 0x83, 0x72, 0x62,
  0x6e, 0x9e, 0x70, 0x80, 0x82, 0x84, 0x66, 0x6f, 0x8a, 0x98, 0x6c, 0x7b,
  0x6c, 0x81, 0x4f, 0x8c, 0x7f, 0xad, 0x6e, 0x7c, 0x50, 0x93, 0x52, 0x88,
  0x95, 0x9f, 0x8a, 0x6a, 0x79, 0x84, 0x52, 0x75, 0x80, 0x95, 0x8b, 0x58,
  0x55, 0x76, 0x72, 0x6c, 0x63, 0x76, 0x78, 0x69, 0x92, 0x76, 0x59, 0x9d,
  0x96, 0x83, 0x9a, 0x70, 0xb3, 0x85, 0x8c, 0x6c, 0x64, 0x9c, 0x96, 0x90,
  0x7f, 0x83, 0x73, 0x97, 0x86, 0x81, 0x84, 0x68, 0x87, 0x88, 0x7c, 0x6b,
  0x93, 0xad, 0x7a, 0x6c, 0x74, 0x71, 0x60, 0x94, 0x6b, 0xa3, 0x7c, 0x49,
  0x98, 0x7e, 0x52, 0x7d, 0x96, 0x9a, 0x8a, 0x71, 0x97, 0x71, 0x5f, 0x7e,
  0x90, 0x9e, 0x62, 0x89, 0xa0, 0x84, 0x85, 0x8c, 0x95, 0xbb, 0x97, 0x73,
  0x9b, 0x80, 0x7e, 0x7e, 0x94, 0x9a, 0x71, 0x59, 0x8a, 0x96, 0x5f, 0x60,
  0x81, 0x98, 0x5f, 0x82, 0xaf, 0x93, 0x8d, 0xa1, 0x5c, 0x8f, 0x98, 0x88,
  0x6c, 0x8b, 0x4d, 0x8f, 0x61, 0x75, 0x96, 0x8d, 0x75, 0x84, 0x4b, 0x5a,
  0x75, 0x7b, 0x85, 0x8b, 0x5e, 0x93, 0x57, 0x95, 0x69, 0x89, 0x66, 0x8a,
  0x5b, 0x80, 0x49, 0x85, 0xa8, 0x76, 0x6b, 0x6a, 0x5a, 0x95, 0x4d, 0x7a,
  0x6c, 0xb7, 0x76, 0x59, 0x5a, 0x94, 0x52, 0x78, 0x80, 0x9d, 0x87, 0x66,
  0x7b, 0x86, 0x42, 0x87, 0x99, 0x9b, 0x99, 0x73, 0x52, 0x83, 0x6f, 0x66,
  0x82, 0x8b, 0x87, 0x5a, 0x80, 0x89, 0x86, 0x88, 0x85, 0x99, 0x7e, 0x6e,
  0x8b, 0x71, 0x50, 0x80, 0x76, 0x81, 0x6f, 0x6a, 0xa3, 0x7d, 0x99, 0x79,
  0x70, 0xa0, 0x87, 0x6e, 0x9a, 0x8b, 0x79, 0x83, 0x67, 0x8c, 0xa4, 0x50,
  0x74, 0x8c, 0x67, 0x76, 0x80, 0xb2, 0x81, 0x70, 0x9a, 0x7e, 0x69, 0x9a,
  0x6b, 0xa8, 0x7f, 0x6a, 0x95, 0x7d, 0x5b, 0x89, 0x88, 0x88, 0x83, 0x95,
  0x75, 0x79, 0x68, 0x8a, 0x77, 0xb3, 0x74, 0x6d, 0x81, 0x8c, 0x7f, 0x7e,
  0x83, 0xa8, 0x8b, 0x88, 0x57, 0x82, 0x81, 0x92, 0x91, 0x6c, 0x71, 0x50,
  0x8f, 0x94, 0x87, 0x7b, 0x8e, 0x7e, 0x63, 0x71, 0x91, 0x98, 0x6c, 0x82,
  0x90, 0x77, 0x88, 0x81, 0x6a, 0x8f, 0x45, 0x8b, 0x82, 0x99, 0x78, 0x6f,
  0x72, 0x9c, 0x4b, 0x53, 0x8e, 0x89, 0x93, 0x6c, 0x55, 0x9c, 0x54, 0xae,
  0x8c, 0x8f, 0x7b, 0x63, 0x51, 0x86, 0x3e, 0x86, 0x7c, 0xa6, 0x70, 0x6d,
  0x76, 0x85, 0x45, 0x92, 0x6a, 0xa1, 0x77, 0x68, 0x6d, 0x8b, 0x86, 0x6b,
  0x9b, 0x88, 0x95, 0x57, 0x61, 0x8b, 0x5b, 0x9e, 0x7e, 0x82, 0x95, 0x46,
  0x66, 0x83, 0x72, 0x91, 0x83, 0x91, 0x7b, 0x6d, 0x69, 0x83, 0x73, 0x60,
  0xa1, 0x8a, 0x79, 0x85, 0x8d, 0x87, 0x63, 0x8a, 0x60, 0x9b, 0x72, 0x76,
  0xb5, 0x81, 0x5e, 0x88, 0x82, 0x80, 0x9d, 0x90, 0x8b, 0x7f, 0x82, 0x5d,
  0xa2, 0xa5, 0x75, 0x67, 0x80, 0x89, 0x7e, 0x66, 0x67, 0xb3, 0x9a, 0x63,
  0x7f, 0x78, 0x5f, 0x90, 0x80, 0x98, 0x8b, 0x70, 0x85, 0x75, 0x35, 0x94,
  0x76, 0x9e, 0x76, 0x80, 0xa0, 0x8a, 0x39, 0x96, 0x71, 0xaa, 0x85, 0x5f,
  0x91, 0x7c, 0x71, 0x92, 0x78, 0xc0, 0x6b, 0x7e, 0x91, 0x71, 0x8a, 0x84,
  0x81, 0xa4, 0x6d, 0x52, 0x8b, 0xae, 0x75, 0x74, 0x86, 0x82, 0x6e, 0x53,
  0x9c, 0x82, 0x5c, 0x8b, 0x6c, 0x98, 0x98, 0x70, 0x94, 0x8e, 0x67, 0x98,
  0x88, 0x95, 0x7e, 0x56, 0x64, 0x92, 0x36, 0x75, 0x7f, 0x95, 0x85, 0x6b,
  0x51, 0x92, 0x38, 0x75, 0x81, 0x8c, 0x78, 0x73, 0x61, 0x89, 0x31, 0x68,
  0x8c, 0x92, 0x74, 0x55, 0x73, 0x83, 0x5e, 0x6b, 0x83, 0x90, 0x58, 0x45,
  0x54, 0x82, 0x5f, 0x5d, 0x9f, 0x96, 0x6f, 0x61, 0x61, 0x90, 0x57, 0x8d,
  0x72, 0x7b, 0x69, 0x5b, 0x5a, 0x87, 0x51, 0x80, 0x7e, 0xa6, 0x7b, 0x6b,
  0x7d, 0x84, 0x6c, 0x81, 0x61, 0x95, 0x61, 0x6f, 0x58, 0x73, 0x60, 0x90,
  0x7f, 0x80, 0x88, 0x85, 0xb1, 0x81, 0x8f, 0x95, 0xa3, 0x84, 0x74, 0x7a,
  0x94, 0x92, 0x86, 0x62, 0xab, 0x9d, 0xa0, 0x7d, 0x78, 0x7d, 0x8c, 0x88,
  0x74, 0xba, 0x81, 0x5a, 0x7f, 0x7f, 0x7a, 0x83, 0x82, 0x90, 0x70, 0x97,
  0x7b, 0x75, 0x45, 0x6c, 0x78, 0xb4, 0x75, 0x81, 0x98, 0x7e, 0x76, 0x84,
  0x95, 0x9b, 0xa6, 0x79, 0x75, 0x81, 0x68, 0x89, 0x5b, 0xa3, 0x92, 0x6e,
  0xa7, 0x67, 0x82, 0x81, 0x80, 0x7e, 0x6a, 0x42, 0x91, 0x9a, 0x54, 0x67,
  0x8e, 0x84, 0x66, 0x58, 0x98, 0xa2, 0x57, 0x69, 0x6f, 0x73, 0x7a, 0x78,
  0x61, 0x97, 0x59, 0x96, 0x72, 0x86, 0x89, 0x40, 0x5e, 0x9d, 0x31, 0x82,
  0x87, 0x66, 0x83, 0x62, 0x4e, 0xa0, 0x50, 0x89, 0x79, 0x86, 0x83, 0x7c,
  0x78, 0x87, 0x55, 0x85, 0xa2, 0xa8, 0x7b, 0x6c, 0x58, 0x6d, 0x4c, 0x60,
  0x65, 0x8f, 0x76, 0x63, 0x78, 0x8b, 0x7d, 0x7b, 0x8a, 0x99, 0x90, 0x77,
  0x6b, 0x79, 0x4a, 0x82, 0xa3, 0xa4, 0x65, 0x55, 0x75, 0x87, 0x56, 0x99,
  0x5f, 0xa1, 0x87, 0x7f, 0x59, 0x80, 0x77, 0x74, 0x77, 0x8f, 0x83, 0x70,
  0x65, 0x88, 0x56, 0xa7, 0x96, 0x8e, 0x6b, 0x8a, 0x8e, 0x81, 0x94, 0x5c,
  0xa7, 0x93, 0x92, 0x7a, 0x88, 0x76, 0x98, 0x95, 0x95, 0x98, 0xa5, 0x6e,
  0x6e, 0x7f, 0x75, 0x99, 0x93, 0x8a, 0x70, 0x5d, 0x59, 0x78, 0x75, 0x96,
  0x86, 0xab, 0x76, 0x82, 0x6a, 0x73, 0x52, 0x99, 0x87, 0x9c, 0x72, 0x70,
  0x9a, 0x79, 0x5b, 0x7f, 0x60, 0xa3, 0x90, 0xa0, 0x6b, 0x7f, 0x73, 0x91,
  0x78, 0x99, 0xa0, 0x7b, 0x91, 0x7f, 0x8a, 0x90, 0x58, 0xa2, 0x69, 0x40,
  0x82, 0xa1, 0x5d, 0x77, 0x95, 0x75, 0x64, 0x5d, 0xa3, 0x97, 0x5e, 0x9a,
  0x69, 0x7e, 0x7e, 0x84, 0x6c, 0x95, 0x52, 0x68, 0x6f, 0x99, 0x67, 0x64,
  0x7d, 0x8a, 0x26, 0x8a, 0x78, 0x75, 0x75, 0x65, 0x4c, 0x9b, 0x30, 0x88,
  0x8c, 0x85, 0x6e, 0x4e, 0x48, 0x93, 0x4c, 0x6f, 0x87, 0x86, 0x97, 0x67,
  0x4e, 0x8d, 0x50, 0x71, 0x92, 0x8f, 0x75, 0x83, 0x88, 0x8b, 0x67, 0x7e,
  0x91, 0x86, 0x74, 0x3d, 0x73, 0x9b, 0x6c, 0xa0, 0x91, 0x9a, 0x8b, 0x5b,
  0x65, 0x90, 0x47, 0x7d, 0xa0, 0x95, 0x81, 0x6a, 0x5d, 0x84, 0x71, 0x89,
  0x6d, 0x87, 0x7a, 0x6f, 0x74, 0x77, 0x49, 0x97, 0x73, 0x86, 0x86, 0x88,
  0x79, 0x7d, 0x73, 0x70, 0x8f, 0x97, 0x7d, 0x8d, 0x7c, 0x7b, 0x87, 0x73,
  0x9c, 0x89, 0x8c, 0x7a, 0x84, 0x7e, 0x5c, 0x8e, 0x84, 0xa9, 0x70, 0x6e,
  0x5b, 0x6c, 0x57, 0x6c, 0x98, 0xa9, 0x7e, 0x7a, 0x74, 0x85, 0x63, 0x7b,
  0x8d, 0xb1, 0x66, 0x7a, 0x8a, 0x72, 0x65, 0x80, 0x8d, 0xa6, 0x70, 0x7a,
  0x94, 0x7b, 0x73, 0x78, 0x67, 0x97, 0x9b, 0x89, 0x70, 0x7f, 0x8d, 0x96,
  0x97, 0x8b, 0x61, 0x42, 0x89, 0xa9, 0x77, 0x7b, 0x8d, 0x88, 0x56, 0x6d,
  0x9f, 0x91, 0x74, 0x85, 0x7c, 0x65, 0x87, 0x73, 0x7a, 0x8f, 0x48, 0x75,
  0x75, 0xa1, 0x67, 0x4d, 0x64, 0x8b, 0x52, 0x84, 0x75, 0x9a, 0x82, 0x78,
  0x63, 0xa0, 0x37, 0x72, 0x96, 0x73, 0x84, 0x4b, 0x63, 0x96, 0x36, 0xa6,
  0x77, 0x86, 0x77, 0x6a, 0x67, 0x81, 0x45, 0x87, 0x64, 0x73, 0x66, 0x51,
  0x78, 0x92, 0x49, 0x6d, 0x64, 0x93, 0x64, 0x6b, 0x5f, 0xa1, 0x4b, 0x80,
  0x7f, 0xa4, 0x69, 0x56, 0x4f, 0x8c, 0x4c, 0x86, 0x84, 0x82, 0x87, 0x88,
  0x57, 0x8c, 0x77, 0x9e, 0x9a, 0x92, 0x5f, 0x53, 0x6a, 0x8a, 0x58, 0x85,
  0x7f, 0x9d, 0x83, 0x71, 0x89, 0x89, 0x68, 0x6f, 0x9d, 0xa0, 0x8e, 0x8c,
  0x7e, 0x8d, 0x96, 0xa0, 0x84, 0x8b, 0xa9, 0x77, 0x6c, 0x77, 0x89, 0x6f,
  0x71, 0x8f, 0x75, 0x86, 0x90, 0x70, 0x54, 0x83, 0x77, 0xa0, 0x71, 0x7e,
  0x73, 0x87, 0x56, 0x6c, 0x71, 0x9b, 0x97, 0x5b, 0x7a, 0x62, 0x3d, 0x7a,
  0x9a, 0xa7, 0x89, 0x8c, 0x6c, 0x7e, 0x6b, 0x7c, 0x71, 0xa5, 0x79, 0x9b,
  0x6c, 0x7c, 0x8b, 0x93, 0x88, 0x7b, 0x64, 0x2b, 0x8e, 0x94, 0x72, 0x63,
  0x84, 0x69, 0x63, 0x52, 0x8c, 0x90, 0x58, 0x84, 0x86, 0x91, 0x9a, 0x6e,
  0x79, 0x91, 0x4c, 0x8e, 0x50, 0x92, 0x72, 0x60, 0x71, 0x9d, 0x26, 0x55,
  0x70, 0x69, 0x7d, 0x55, 0x35, 0xa4, 0x25, 0xa4, 0x86, 0x77, 0x87, 0x5e,
  0x49, 0x91, 0x2e, 0x6f, 0x6f, 0x9a, 0x6d, 0x56, 0x50, 0x90, 0x3c, 0x7d,
  0x7a, 0x9f, 0x7f, 0x91, 0x7b, 0x96, 0x57, 0x7e, 0x72, 0x93, 0x8f, 0x55,
  0x62, 0x8c, 0x5d, 0x9e, 0x81, 0x90, 0x6c, 0x67, 0x6c, 0x95, 0x5f, 0x84,
  0x7d, 0x9a, 0x7a, 0x6a, 0x59, 0x85, 0x4f, 0x89, 0x97, 0x7e, 0x71, 0x65,
  0x63, 0x7a, 0x54, 0x6e, 0x89, 0x7a, 0x86, 0x74, 0x77, 0x82, 0x89, 0x74,
  0x74, 0x8b, 0x86, 0x9e, 0x7a, 0x8a, 0x7f, 0x95, 0x6e, 0xa9, 0x8d, 0x7a,
  0x71, 0x81, 0x68, 0x71, 0x91, 0x95, 0x76, 0x47, 0x6b, 0x79, 0x4c, 0x78,
  0x8b, 0x97, 0x80, 0x54, 0x87, 0x6f, 0x53, 0x9c, 0xa2, 0xa8, 0x74, 0x63,
  0x5a, 0x74, 0x77, 0x86, 0x98, 0xa8, 0x98, 0x7b, 0x76, 0x73, 0x5d, 0x86,
  0x7d, 0x9f, 0x88, 0x8e, 0x79, 0x70, 0x8e, 0x85, 0x91, 0x7e, 0x60, 0x47,
  0x99, 0xa3, 0x92, 0x61, 0x88, 0x7d, 0x57, 0x74, 0xa5, 0x90, 0x93, 0xa4,
  0x61, 0x80, 0x84, 0x88, 0x6d, 0xa0, 0x64, 0x6c, 0x67, 0x8a, 0x66, 0x4d,
  0x71, 0xa4, 0x2a, 0x69, 0x7c, 0x7b, 0x76, 0x54, 0x59, 0x98, 0x30, 0x9b,
  0xa6, 0x67, 0x68, 0x5b, 0x42, 0x97, 0x43, 0x81, 0x83, 0x9e, 0x6a, 0x74,
  0x72, 0x9a, 0x56, 0x8a, 0xa5, 0x90, 0x80, 0x5d, 0x61, 0x9c, 0x5d, 0xa1,
  0xa3, 0x98, 0x73, 0x5f, 0x73, 0xa6, 0x56, 0x94, 0x6d, 0x8f, 0x71, 0x72,
  0x60, 0x8b, 0x53, 0x95, 0x84, 0x7c, 0x72, 0x7c, 0x4d, 0x87, 0x55, 0xa3,
  0x92, 0x7b, 0x6f, 0x7b, 0x4b, 0x7a, 0x5e, 0x76, 0x84, 0x8a, 0x74, 0x7a,
  0x71, 0x74, 0x78, 0x88, 0xa6, 0x93, 0x82, 0x87, 0x7f, 0x8d, 0x75, 0x64,
  0xaf, 0x7e, 0x97, 0x84, 0x5b, 0x7d, 0x4b, 0x86, 0x74, 0xa2, 0x93, 0x8d,
  0x73, 0x7f, 0x52, 0x94, 0x65, 0xae, 0x69, 0x63, 0x7c, 0x79, 0x3b, 0xa6,
  0x79, 0xab, 0x7a, 0x6e, 0x48, 0x76, 0x3f, 0x64, 0xa9, 0xbc, 0x91, 0x89,
  0x69, 0x83, 0x56, 0x78, 0x74, 0x9b, 0x83, 0x7e, 0x87, 0x69, 0x82, 0x86,
  0x55, 0x80, 0x67, 0x48, 0xa7, 0xab, 0x68, 0x60, 0x73, 0x72, 0x55, 0x5c,
  0xa9, 0x9e, 0x6c, 0x63, 0xa1, 0x7c, 0x87, 0x74, 0x6d, 0x8e, 0x3d, 0x58,
  0x65, 0x7b, 0x5a, 0x54, 0x79, 0xa6, 0x38, 0x75, 0x84, 0x8c, 0x8d, 0x5f,
  0x1e, 0xac, 0x41, 0x8e, 0x98, 0x9f, 0x84, 0x64, 0x5d, 0xa2, 0x3f, 0x83,
  0x9f, 0x87, 0x5f, 0x5f, 0x50, 0x8f, 0x6a, 0x99, 0xa4, 0x90, 0x7b, 0x74,
  0x68, 0x91, 0x33, 0x95, 0x75, 0x9f, 0x79, 0x56, 0x50, 0x9b, 0x35, 0xa8,
  0x8b, 0x6e, 0x6b, 0x76, 0x5b, 0x9a, 0x33, 0x77, 0x69, 0x7b, 0x79, 0x4d,
  0x5f, 0x85, 0x55, 0x83, 0x9d, 0x93, 0x70, 0x6a, 0x76, 0x91, 0x5a, 0x60,
  0x6d, 0x9b, 0x72, 0x79, 0x71, 0x9a, 0x6d, 0x7e, 0x92, 0x92, 0x9c, 0x95,
  0x72, 0x8c, 0x88, 0x8f, 0x7c, 0x8a, 0x95, 0x76, 0x64, 0x8f, 0x5e, 0x94,
  0x75, 0xaa, 0x94, 0x69, 0x5f, 0x8a, 0x53, 0x6d, 0x7f, 0xa8, 0x7e, 0x84,
  0x78, 0x8b, 0x5c, 0x7e, 0xa0, 0xaf, 0x86, 0x51, 0x56, 0x6f, 0x47, 0x85,
  0x82, 0x9e, 0x7f, 0x67, 0xa4, 0x80, 0x6d, 0x9b, 0x87, 0xa7, 0x67, 0x69,
  0x7c, 0x6e, 0x81, 0x93, 0x85, 0x88, 0x49, 0x3d, 0xa9, 0xad, 0xa4, 0x6d,
  0x7a, 0x89, 0x4d, 0x57, 0x93, 0x9b, 0x7f, 0x8b, 0x64, 0x8e, 0x87, 0x59,
  0x72, 0xa3, 0x60, 0x9d, 0x53, 0x76, 0x5b, 0x52, 0x61, 0xab, 0x34, 0x77,
  0x79, 0x98, 0x74, 0x58, 0x4f, 0xb1, 0x40, 0x5f, 0x72, 0x81, 0x7b, 0x49,
  0x45, 0xa6, 0x4a, 0x9a, 0x7d, 0x9a, 0x6b, 0x63, 0x67, 0xa0, 0x5b, 0xa7,
  0x77, 0x81, 0x6f, 0x62, 0x4c, 0x99, 0x63, 0x61, 0x7a, 0x7b, 0x61, 0x65,
  0x5c, 0xa8, 0x4e, 0x92, 0x79, 0x80, 0x5b, 0x68, 0x54, 0x9d, 0x65, 0x8c,
  0xa5, 0x77, 0x6c, 0x65, 0x4e, 0x92, 0x5d, 0x7b, 0x72, 0x99, 0x6e, 0x71,
  0x72, 0x8d, 0x54, 0x85, 0x7c, 0x8f, 0xa5, 0x89, 0x65, 0x8a, 0x6f, 0x82,
  0x65, 0x79, 0x79, 0x85, 0x74, 0x91, 0x77, 0x80, 0x81, 0x84, 0x9e, 0x8b,
  0x66, 0x89, 0x4b, 0xa2, 0x96, 0x9a, 0x89, 0x68, 0x5b, 0x7e, 0x55, 0x7f,
  0x8a, 0xa4, 0x94, 0x72, 0x82, 0x7a, 0x5a, 0x80, 0x8d, 0xaa, 0x76, 0x89,
  0x5d, 0x7f, 0x56, 0x85, 0x89, 0xa9, 0x7b, 0x78, 0x81, 0x76, 0x63, 0x90,
  0x72, 0xb7, 0x71, 0x8e, 0x87, 0x81, 0x87, 0x91, 0x5f, 0x91, 0x4c, 0x3e,
  0xa7, 0xb9, 0x7b, 0x58, 0x8b, 0x68, 0x3b, 0x45, 0xb1, 0x97, 0x7a, 0x95,
  0x76, 0x6d, 0x61, 0x6a, 0x75, 0xa9, 0x4a, 0x78, 0x5e, 0x68, 0x50, 0x36,
  0x47, 0xa7, 0x20, 0x72, 0x90, 0x78, 0x67, 0x38, 0x52, 0xae, 0x40, 0x7c,
  0x98, 0x84, 0x67, 0x52, 0x48, 0xb3, 0x41, 0x5f, 0x9e, 0x7e, 0x4f, 0x72,
  0x68, 0x9a, 0x43, 0x75, 0x97, 0x6b, 0x5d, 0x79, 0x64, 0xa7, 0x61, 0x9b,
  0x84, 0x75, 0x85, 0x6c, 0x4f, 0xa4, 0x40, 0x91, 0x79, 0x83, 0x60, 0x40,
  0x7a, 0x9b, 0x53, 0x80, 0xad, 0x80, 0x75, 0x64, 0x6e, 0x93, 0x4a, 0x9c,
  0x6a, 0x8e, 0x68, 0x4c, 0x65, 0x7f, 0x4d, 0x9e, 0x7a, 0x7a, 0x65, 0x7a,
  0x82, 0x8d, 0x6a, 0x82, 0x93, 0x8f, 0x9d, 0x7e, 0x79, 0x87, 0x74, 0x81,
  0xa4, 0x94, 0x84, 0x96, 0x79, 0x8d, 0x5f, 0x84, 0x84, 0x7c, 0x91, 0x79,
  0x77, 0x85, 0x46, 0x7d, 0x6f, 0xaa, 0x82, 0x70, 0x65, 0x7b, 0x61, 0x96,
  0x66, 0xac, 0x7a, 0x83, 0x61, 0x7c, 0x7b, 0x79, 0x59, 0xab, 0x6b, 0x67,
  0x82, 0x77, 0x68, 0x84, 0x6d, 0xb0, 0x77, 0x73, 0xa9, 0x69, 0x89, 0xa2,
  0x81, 0x7d, 0x77, 0x4d, 0xad, 0xc3, 0x73, 0x4e, 0x6e, 0x73, 0x7f, 0x4f,
  0xb7, 0xc1, 0x73, 0x7b, 0x70, 0x85, 0x91, 0x83, 0x67, 0xa7, 0x3a, 0x74,
  0x86, 0x67, 0x88, 0x54, 0x70, 0xbc, 0x16, 0x71, 0x87, 0x69, 0x89, 0x5b,
  0x60, 0xc5, 0x29, 0x96, 0x6d, 0x88, 0x90, 0x61, 0x58, 0xc4, 0x51, 0x61,
  0x8f, 0x77, 0x74, 0x4b, 0x5f, 0xb4, 0x30, 0x78, 0x8b, 0x7e, 0x6d, 0x6a,
  0x6e, 0xaf, 0x48, 0x84, 0x71, 0x7c, 0x89, 0x63, 0x64, 0xa0, 0x5b, 0x9a,
  0x7d, 0x69, 0x95, 0x58, 0x66, 0xac, 0x39, 0x9a, 0xab, 0x77, 0x79, 0x4b,
  0x40, 0x90, 0x58, 0xad, 0x77, 0x76, 0x89, 0x52, 0x84, 0x93, 0x59, 0x70,
  0x79, 0x7e, 0x88, 0x8f, 0x85, 0x82, 0x59, 0x7e, 0x96, 0x7f, 0xa2, 0x95,
  0x66, 0x8f, 0x65, 0x6e, 0x97, 0x8a, 0x97, 0x66, 0x76, 0x8f, 0x58, 0x91,
  0x92, 0x91, 0x93, 0x68, 0x77, 0x86, 0x39, 0x9a, 0x79, 0xa5, 0x86, 0x75,
  0x4b, 0x75, 0x41, 0x60, 0x92, 0x92, 0x88, 0x79, 0x7f, 0x7d, 0x55, 0x95,
  0x73, 0x9d, 0x8a, 0x6c, 0x67, 0x7e, 0x75, 0x9d, 0x83, 0xa1, 0x88, 0x62,
  0x81, 0x78, 0x88, 0x92, 0x9a, 0x99, 0x6e, 0x64, 0xaa, 0xc1, 0x55, 0x6e,
  0x9f, 0x7d, 0x83, 0x56, 0xad, 0xcb, 0x7b, 0x71, 0x86, 0x74, 0xa9, 0x8e,
  0x81, 0xc6, 0x47, 0x72, 0x55, 0x74, 0x9a, 0x53, 0x60, 0xc6, 0x2a, 0x75,
  0x76, 0x7b, 0x95, 0x4f, 0x68, 0xd5, 0x30, 0x83, 0x75, 0x73, 0xab, 0x47,
  0x45, 0xce, 0x2e, 0x6c, 0x95, 0x79, 0x9f, 0x5e, 0x77, 0xcf, 0x57, 0x9d,
  0x64, 0x76, 0x96, 0x6e, 0x6f, 0xbe, 0x47, 0x6d, 0x7d, 0x63, 0x80, 0x53,
  0x5a, 0xa8, 0x41, 0x7e, 0x76, 0x70, 0x9f, 0x6b, 0x63, 0xb9, 0x3e, 0x84,
  0x8c, 0x69, 0xa2, 0x60, 0x6b, 0xc0, 0x47, 0x6d, 0x71, 0x72, 0x89, 0x64,
  0x69, 0xa0, 0x37, 0x83, 0x90, 0x7a, 0x8b, 0x7b, 0x7b, 0x96, 0x46, 0x8d,
  0x6f, 0x6c, 0x92, 0x9d, 0x7c, 0x9f, 0x61, 0x89, 0x96, 0x77, 0xa8, 0x88,
  0x9a, 0x8c, 0x36, 0x87, 0x8b, 0x92, 0x9f, 0x78, 0x85, 0x96, 0x34, 0x7d,
  0x80, 0x85, 0xad, 0x8c, 0x7a, 0x8f, 0x40, 0x7c, 0x75, 0x8c, 0xa7, 0x7f,
  0x72, 0x8a, 0x46, 0x69, 0x79, 0xa5, 0xa1, 0x96, 0x84, 0x83, 0x72, 0x87,
  0x95, 0xa4, 0x72, 0x83, 0x98, 0x70, 0x83, 0xab, 0x6a, 0x9c, 0x7b, 0x6a,
  0x94, 0xdd, 0x55, 0x63, 0x7e, 0x74, 0x8d, 0x5b, 0x91, 0xd8, 0x87, 0x58,
  0x86, 0x6c, 0xbe, 0x9a, 0x75, 0xdb, 0x67, 0x5c, 0x7c, 0x5c, 0xad, 0x80,
  0x83, 0xcb, 0x30, 0x51, 0x7c, 0x71, 0xaa, 0x67, 0x6b, 0xda, 0x61, 0x62,
  0xa0, 0x57, 0x8e, 0x83, 0x86, 0xd3, 0x64, 0x8b, 0x82, 0x7b, 0x9c, 0x74,
  0x71, 0xc2, 0x5a, 0x75, 0x7f, 0x6f, 0xa2, 0x7b, 0x71, 0xc6, 0x60, 0x5f,
  0x5a, 0x76, 0x94, 0x85, 0x5c, 0xbf, 0x37, 0x7e, 0x93, 0x78, 0xb7, 0x75,
  0x72, 0xb4, 0x4b, 0x69, 0x75, 0x76, 0xa4, 0x78, 0x73, 0xbb, 0x49, 0x74,
  0x87, 0x5c, 0x84, 0x6b, 0x73, 0xa5, 0x63, 0x7d, 0x6b, 0x8b, 0xa5, 0x86,
  0x60, 0xab, 0x3c, 0x5e, 0x85, 0x74, 0x94, 0x9d, 0xa1, 0xa2, 0x4a, 0x5c,
  0x9a, 0x97, 0xa0, 0x81, 0x87, 0xa1, 0x46, 0x6f, 0x66, 0x88, 0x9b, 0x86,
  0x85, 0x8e, 0x53, 0xa2, 0x9b, 0x9d, 0xa7, 0x75, 0x9e, 0x94, 0x70, 0x87,
  0x9b, 0x85, 0x99, 0x79, 0x9e, 0x86, 0x5d, 0x65, 0x97, 0x9a, 0x7b, 0x88,
  0x97, 0x84, 0x76, 0x7e, 0x64, 0x9c, 0x74, 0x68, 0x79, 0x7f, 0x84, 0x58,
  0x76, 0x6b, 0x71, 0x87, 0x7c, 0x6e, 0x82, 0xa1, 0x93, 0x70, 0x99, 0x6c,
  0x82, 0x60, 0x93, 0x6f, 0x60, 0x77, 0x8b, 0x96, 0x94, 0x96, 0x60, 0x95,
  0x9d, 0x70, 0x71, 0x6a, 0xa2, 0x96, 0x66, 0x70, 0x79, 0x62, 0x88, 0x6a,
  0x7c, 0x8a, 0x8f, 0x7f, 0x75, 0x6a, 0x67, 0x86, 0x9c, 0x84, 0x8f, 0x6a,
  0x84, 0x79, 0x6f, 0x73, 0x6a, 0x5c, 0x99, 0x8b, 0x6f, 0x68, 0x89, 0x91,
  0x9e, 0x79, 0x82, 0xa0, 0x9e, 0x73, 0x54, 0x61, 0x77, 0x6c, 0x84, 0x66,
  0x74, 0x83, 0x87, 0x6c, 0x91, 0x6c, 0x86, 0x8d, 0x7f, 0x80, 0x78, 0x75,
  0x85, 0x85, 0x71, 0x76, 0x82, 0x80, 0x57, 0x9d, 0x8a, 0x82, 0x71, 0x84,
  0x84, 0x77, 0x68, 0x91, 0x83, 0x7e, 0x79, 0x73, 0x76, 0x7a, 0x99, 0x84,
  0x55, 0x74, 0x6c, 0x97, 0x9c, 0x99, 0x54, 0x9f, 0x9e, 0x71, 0x60, 0x81,
  0x9b, 0x7a, 0xa5, 0x6a, 0x6d, 0x83, 0x8b, 0x67, 0x7e, 0x85, 0x77, 0x85,
  0x87, 0x6d, 0x72, 0x83, 0x96, 0x7d, 0x8b, 0x84, 0x84, 0x7a, 0x73, 0x7b,
  0x9e, 0x83, 0x96, 0x5e, 0x77, 0x98, 0x79, 0x70, 0x67, 0x9c, 0x74, 0x62,
  0x8d, 0x5d, 0x82, 0x87, 0x81, 0x6c, 0x7b, 0x87, 0x7d, 0x7e, 0x97, 0x88,
  0x7a, 0x75, 0x83, 0xa2, 0x92, 0x77, 0x6b, 0x7f, 0x63, 0x7b, 0x8b, 0x84,
  0x71, 0x72, 0x71, 0x7e, 0x86, 0x78, 0x7f, 0x72, 0x7f, 0x92, 0x7d, 0x7f,
  0x86, 0x7d, 0x83, 0x73, 0x74, 0x7f, 0x87, 0x8e, 0x63, 0x78, 0x61, 0x6f,
  0x66, 0x87, 0x8f, 0x73, 0x91, 0x76, 0x7f, 0x76, 0x84, 0x9a, 0x80, 0x81,
  0x7d, 0x71, 0x92, 0x98, 0x7b, 0x7f, 0x7c, 0x61, 0x7e, 0x83, 0x63, 0x8a,
  0x98, 0x7e, 0x91, 0x99, 0x7c, 0x72, 0x87, 0x82, 0x56, 0x81, 0x8b, 0x86,
  0x72, 0x77, 0x69, 0x82, 0x7b, 0x83, 0x78, 0x74, 0x8c, 0x7f, 0x7a, 0x8f,
  0x7b, 0x75, 0x6e, 0x91, 0x77, 0x6e, 0x5c, 0x85, 0x7a, 0x7a, 0x74, 0x84,
  0x7e, 0x7c, 0x90, 0x8b, 0x68, 0x92, 0x74, 0x6f, 0x6c, 0x74, 0x6f, 0x88,
  0x97, 0x76, 0x6b, 0x72, 0x6b, 0x78, 0x67, 0x7f, 0x6f, 0x84, 0x79, 0x7f,
  0x89, 0x7f, 0x7b, 0x77, 0x65, 0x94, 0x67, 0x79, 0x7f, 0x88, 0x74, 0x88,
  0x87, 0x67, 0x81, 0x6c, 0x6c, 0x7b, 0x94, 0x87, 0x6b, 0x82, 0x7d, 0x6c,
  0x53, 0x7c, 0x90, 0x66, 0x82, 0x96, 0x86, 0x86, 0x90, 0x81, 0x7d, 0x7e,
  0x8e, 0x5f, 0x91, 0x77, 0x6d, 0x69, 0x6f, 0x8e, 0x6d, 0x81, 0x5d, 0x54,
  0x80, 0x84, 0x9f, 0x6d, 0x83, 0x84, 0x7d, 0x9b, 0x83, 0x81, 0x8b, 0x78,
  0x6e, 0x57, 0x73, 0x69, 0x87, 0x72, 0x77, 0x7f, 0x77, 0x8c, 0x7a, 0x7a,
  0x87, 0x87, 0x6b, 0x89, 0x8d, 0x86, 0x8b, 0x8c, 0x6d, 0x7f, 0x5b, 0x73,
  0x9a, 0x7c, 0x87, 0x5a, 0x79, 0x7e, 0x60, 0x70, 0x97, 0x73, 0x75, 0x90,
  0x8d, 0x99, 0x69, 0x63, 0x9c, 0x66, 0x82, 0x97, 0x7b, 0x7e, 0x75, 0x78,
  0x7e, 0x9e, 0x8b, 0x6a, 0x94, 0x6e, 0x8a, 0x78, 0x8a, 0x8a, 0x71, 0x79,
  0x7b, 0x7d, 0x78, 0x82, 0x8b, 0x7c, 0x6f, 0x6e, 0x6a, 0x79, 0x7e, 0x9f,
  0xa9, 0x95, 0x72, 0x66, 0x7c, 0x7b, 0x82, 0x60, 0x83, 0x79, 0x7f, 0x72,
  0x72, 0x8c, 0x83, 0x6c, 0x76, 0x75, 0x6f, 0x81, 0x62, 0x80, 0x85, 0x64,
  0x8c, 0x67, 0x74, 0x86, 0x92, 0x75, 0x9d, 0x82, 0x67, 0x70, 0x6c, 0xa0,
  0x89, 0x91, 0x92, 0x85, 0x83, 0x94, 0x79, 0x80, 0x82, 0x95, 0x65, 0x85,
  0x5e, 0x74, 0x7d, 0x75, 0x60, 0x87, 0x99, 0xa8, 0x7f, 0x72, 0x8c, 0x7a,
  0x93, 0x7c, 0x89, 0x7d, 0x6d, 0x68, 0x88, 0x87, 0x80, 0x68, 0x71, 0x8d,
  0x7e, 0x6d, 0x73, 0x85, 0x87, 0x68, 0x8f, 0x74, 0x83, 0x74, 0x88, 0x5c,
  0x9e, 0x7a, 0x87, 0x7c, 0x73, 0x93, 0x8a, 0x8e, 0x7d, 0x7c, 0x94, 0x8d,
  0x91, 0x5d, 0x8b, 0x76, 0x91, 0x84, 0x69, 0x86, 0x90, 0x61, 0x7e, 0x94,
  0x7c, 0x90, 0x7c, 0x59, 0x7d, 0x71, 0x8e, 0x56, 0x78, 0x89, 0xa0, 0x93,
  0x93, 0x82, 0x79, 0x6c, 0x84, 0x80, 0x86, 0x7c, 0x73, 0x82, 0x8b, 0x6c,
  0x73, 0x7f, 0x87, 0x74, 0x6b, 0x88, 0x84, 0x7a, 0x70, 0x7d, 0x93, 0x69,
  0x69, 0x77, 0x7d, 0x7c, 0x7a, 0x81, 0x6d, 0x85, 0x74, 0x68, 0x70, 0x8a,
  0x7c, 0x82, 0x70, 0x7d, 0x87, 0x7d, 0x81, 0x81, 0x9e, 0x7a, 0x72, 0x96,
  0x76, 0x94, 0x9f, 0x8b, 0x72, 0x79, 0x94, 0x73, 0x7c, 0x6e, 0x92, 0x55,
  0x5c, 0x68, 0x80, 0x63, 0x99, 0x64, 0x8a, 0x8d, 0x75, 0x82, 0xa2, 0x6f,
  0x83, 0x70, 0x8c, 0x68, 0x8f, 0x81, 0x6b, 0x82, 0x8f, 0x75, 0x96, 0x77,
  0x8c, 0x7d, 0x68, 0x74, 0x78, 0x7f, 0x80, 0x84, 0x5c, 0x9a, 0x90, 0x9d,
  0xa9, 0x6f, 0x76, 0x80, 0x91, 0x60, 0x87, 0x8c, 0x79, 0x85, 0x85, 0xa4,
  0x77, 0x93, 0x7e, 0xa0, 0x5b, 0x75, 0x77, 0x5a, 0x80, 0x77, 0x86, 0x9d,
  0x6b, 0x93, 0x7d, 0x72, 0x8f, 0x8e, 0xa1, 0x8a, 0x5c, 0x71, 0x87, 0x50,
  0x6a, 0x71, 0x8d, 0x76, 0x8c, 0x84, 0x85, 0x83, 0x75, 0x87, 0x7e, 0x9a,
  0x64, 0x7b, 0x8f, 0xa1, 0x77, 0x83, 0x80, 0x83, 0x77, 0x68, 0x96, 0x84,
  0x90, 0x82, 0x97, 0x92, 0x97, 0x7f, 0x8a, 0xa3, 0xaf, 0x8c, 0x8c, 0x80,
  0x59, 0x67, 0xa5, 0x7e, 0xa3, 0x7f, 0x6a, 0x8e, 0x69, 0x74, 0x80, 0x6d,
  0x90, 0x88, 0x73, 0x7e, 0x79, 0x82, 0x6f, 0x80, 0x9d, 0x95, 0x73, 0x90,
  0x6c, 0x83, 0x74, 0x88, 0x5c, 0x90, 0x85, 0xa2, 0x87, 0x6e, 0x8e, 0x77,
  0x9b, 0x7d, 0x6f, 0x83, 0x9a, 0x70, 0x95, 0xa2, 0xa8, 0x72, 0x77, 0x64,
  0x61, 0x84, 0xa9, 0x83, 0x86, 0x6a, 0x86, 0x85, 0x7c, 0x8a, 0x9a, 0x6f,
  0x7c, 0x82, 0x7b, 0x79, 0x8e, 0x78, 0x94, 0x9e, 0x71, 0x83, 0x79, 0x7b,
  0xa2, 0x61, 0x9b, 0x9f, 0x84, 0x8d, 0x7e, 0x8a, 0x90, 0x70, 0x81, 0x72,
  0x6f, 0x83, 0x69, 0x7a, 0x88, 0x7c, 0x86, 0x85, 0x74, 0x66, 0x85, 0x84,
  0x76, 0x71, 0x67, 0x9b, 0x88, 0x71, 0x80, 0x96, 0x75, 0x7b, 0x93, 0x91,
  0x82, 0x6c, 0x8f, 0x85, 0x79, 0x7c, 0x94, 0x6f, 0x76, 0x73, 0x96, 0x75,
  0x73, 0x7c, 0x8f, 0x71, 0x64, 0x98, 0xa4, 0x91, 0x70, 0x72, 0x91, 0x83,
  0x67, 0x92, 0x87, 0x9d, 0x85, 0x71, 0x8c, 0x6f, 0x75, 0xa8, 0x87, 0xa0,
  0x85, 0x6b, 0x86, 0x63, 0x8b, 0x98, 0x90, 0x91, 0x64, 0x5c, 0x90, 0x91,
  0x80, 0x91, 0x90, 0xb3, 0x7e, 0x6c, 0xa1, 0x7f, 0x7e, 0x78, 0x6d, 0x83,
  0x5c, 0x72, 0x8b, 0x75, 0x71, 0x7d, 0x73, 0x6a, 0x5a, 0x7b, 0x8c, 0x78,
  0x7d, 0x75, 0x85, 0x83, 0x86, 0x72, 0x83, 0x79, 0x7a, 0x7e, 0x80, 0x7d,
  0x74, 0x5e, 0x84, 0x65, 0x86, 0x7b, 0x6a, 0x9e, 0x91, 0x7c, 0x8b, 0x7a,
  0x8b, 0x6e, 0x84, 0x87, 0x79, 0x80, 0x9d, 0x94, 0x8d, 0x77, 0x73, 0x68,
  0x76, 0x7f, 0x93, 0x68, 0x6a, 0x5f, 0x84, 0x7f, 0x8e, 0x78, 0x97, 0x71,
  0x79, 0x77, 0x89, 0x85, 0x72, 0x7b, 0xa7, 0x85, 0x98, 0x7d, 0x6b, 0x76,
  0x7b, 0x73, 0x6e, 0x9d, 0x7d, 0x82, 0x6c, 0x74, 0x90, 0x7c, 0x8b, 0x88,
  0x6a, 0x65, 0x84, 0x87, 0x80, 0x8a, 0x84, 0x80, 0xa5, 0x7d, 0x7f, 0x8d,
  0x7e, 0x60, 0x9e, 0x9a, 0x86, 0x76, 0x84, 0x76, 0x7c, 0x7d, 0x9a, 0x5f,
  0x76, 0x7c, 0x96, 0x9c, 0x7a, 0x7d, 0x93, 0x75, 0x84, 0x8f, 0x95, 0xaf,
  0x95, 0x84, 0x90, 0x7e, 0x65, 0xa8, 0x99, 0xb5, 0x54, 0x6b, 0x85, 0x85,
  0x6c, 0xa4, 0x80, 0x8d, 0x66, 0x64, 0x9e, 0x7a, 0x51, 0x8b, 0x7e, 0xae,
  0x77, 0x57, 0x9b, 0x86, 0x85, 0x83, 0x9f, 0xae, 0x61, 0x6a, 0x9f, 0x73,
  0x78, 0x8e, 0x88, 0xa4, 0x82, 0x73, 0x81, 0x68, 0x81, 0x7a, 0x8f, 0x86,
  0x61, 0x78, 0x75, 0x75, 0x82, 0x8e, 0x69, 0x7c, 0x92, 0x77, 0x74, 0x79,
  0x74, 0x6f, 0x6c, 0xaa, 0x75, 0x70, 0x8b, 0x7c, 0x5d, 0x6b, 0x7c, 0xaf,
  0x72, 0x99, 0x87, 0x75, 0x95, 0x76, 0x7b, 0x79, 0x90, 0x89, 0x98, 0x66,
  0x8b, 0x67, 0x81, 0x7b, 0x9d, 0x80, 0x9d, 0x7f, 0x65, 0x80, 0x79, 0x8c,
  0x7a, 0x75, 0xa1, 0x85, 0x8c, 0x81, 0x8f, 0x72, 0x7d, 0x73, 0x89, 0x7c,
  0x8a, 0x82, 0x7e, 0x57, 0x87, 0x75, 0x7e, 0x6a, 0x7d, 0x84, 0x64, 0x99,
  0x70, 0x7f, 0x82, 0x78, 0x6f, 0x5e, 0x7f, 0x81, 0x8c, 0x86, 0x90, 0x97,
  0x7b, 0x7a, 0x83, 0x95, 0x84, 0x76, 0x7c, 0x8f, 0x7f, 0x93, 0x80, 0x69,
  0x8d, 0x84, 0x9d, 0x5f, 0x9e, 0x99, 0xa0, 0x88, 0x86, 0x78, 0x8d, 0x71,
  0x79, 0xab, 0x88, 0x92, 0x92, 0x7e, 0x94, 0x92, 0x7f, 0x9b, 0xac, 0xa0,
  0x53, 0x58, 0x88, 0x6b, 0x7e, 0x8b, 0x90, 0xa7, 0x71, 0x73, 0x91, 0x70,
  0x8e, 0x9b, 0x98, 0xb0, 0x8d, 0x67, 0xa5, 0x75, 0x95, 0x85, 0x99, 0xab,
  0x56, 0x5b, 0xac, 0x78, 0x8a, 0x7b, 0x8c, 0xa8, 0x74, 0x7a, 0x7e, 0x8a,
  0x77, 0x80, 0x78, 0x7f, 0x5d, 0x77, 0x77, 0x90, 0x8c, 0x88, 0x77, 0x72,
  0x76, 0x7e, 0x6f, 0x63, 0x6f, 0x76, 0x6b, 0x8f, 0x80, 0x6c, 0x86, 0x7a,
  0x84, 0x7f, 0x8d, 0xb2, 0x7f, 0x86, 0x88, 0x7a, 0x83, 0x6d, 0x62, 0x76,
  0x78, 0x89, 0x88, 0x71, 0x8a, 0x84, 0x83, 0x84, 0x84, 0x7b, 0x9c, 0x91,
  0x66, 0x68, 0x80, 0x8b, 0x9c, 0x6d, 0x99, 0x6b, 0x6d, 0x75, 0x89, 0x70,
  0x9a, 0x6c, 0x8c, 0x98, 0x85, 0x87, 0x77, 0x80, 0xa2, 0x7f, 0x75, 0x7f,
  0x63, 0x88, 0x77, 0x81, 0x6c, 0x5a, 0x7e, 0x78, 0x73, 0x69, 0x83, 0x86,
  0x6d, 0x6c, 0x8f, 0x70, 0x83, 0x6e, 0x81, 0x88, 0x7d, 0x75, 0xb8, 0x74,
  0x92, 0x77, 0x80, 0x86, 0x68, 0x7c, 0x86, 0x75, 0x6a, 0xa2, 0xa6, 0x9f,
  0x7f, 0x7c, 0x81, 0x6c, 0x86, 0x8e, 0x88, 0x9a, 0x70, 0x7e, 0x8e, 0x6d,
  0x77, 0x8a, 0xa2, 0xbd, 0x8c, 0x6f, 0x90, 0x66, 0x75, 0x94, 0x9f, 0xaa,
  0x93, 0x77, 0x96, 0x89, 0x6c, 0x87, 0x83, 0xb3, 0x8a, 0x67, 0xc2, 0x90,
  0x92, 0x9f, 0x92, 0xaa, 0x56, 0x6a, 0xb8, 0x82, 0x81, 0x97, 0x8d, 0x9c,
  0x72, 0x89, 0x86, 0x7a, 0x74, 0x85, 0x6d, 0x91, 0x69, 0x7b, 0x82, 0xa5,
  0x81, 0x86, 0x61, 0x7f, 0x6f, 0x8d, 0x6f, 0x7d, 0x8d, 0x80, 0x6b, 0x7b,
  0x99, 0x85, 0x81, 0x82, 0x66, 0x71, 0x72, 0xa0, 0x86, 0x98, 0x91, 0x69,
  0x86, 0x7b, 0x77, 0x83, 0x89, 0x83, 0x8f, 0x86, 0x7a, 0x77, 0x85, 0xa7,
  0x7a, 0x81, 0x97, 0x7e, 0x67, 0x6a, 0x7e, 0xb3, 0x9e, 0x71, 0x99, 0x6e,
  0x6a, 0x6a, 0x85, 0x8d, 0x8f, 0x7e, 0x88, 0x77, 0x60, 0x84, 0x5d, 0x7d,
  0x73, 0x7d, 0x83, 0x7c, 0x7b, 0x81, 0x76, 0x7a, 0x7c, 0x6c, 0x78, 0x7e,
  0x66, 0x6f, 0x81, 0x8b, 0x88, 0x75, 0x87, 0x73, 0x7f, 0x77, 0x84, 0x89,
  0x7b, 0x70, 0x90, 0x78, 0x79, 0x81, 0x89, 0xab, 0x6a, 0x89, 0x92, 0x6b,
  0x87, 0x8c, 0xa5, 0xa9, 0x7f, 0x6c, 0x8f, 0x75, 0x9b, 0xa1, 0x89, 0x85,
  0x7d, 0x77, 0x99, 0x63, 0x81, 0x8b, 0x9a, 0x98, 0x68, 0x6f, 0x9b, 0x5c,
  0x91, 0x94, 0x76, 0xb5, 0x83, 0x71, 0x8f, 0x95, 0x73, 0x92, 0x94, 0xbf,
  0x8d, 0x7d, 0xc6, 0x7b, 0x6f, 0xa4, 0x84, 0x9e, 0x67, 0x71, 0xa9, 0x7c,
  0x8b, 0x80, 0x9f, 0x8a, 0x7e, 0x83, 0x86, 0x78, 0x91, 0x84, 0x76, 0x88,
  0x72, 0x83, 0x96, 0x8e, 0x89, 0x86, 0x6f, 0x78, 0x85, 0x79, 0x87, 0x5a,
  0x9d, 0x77, 0x63, 0x8f, 0x94, 0x84, 0x8d, 0x6f, 0x7c, 0x6c, 0x71, 0x96,
  0x71, 0x88, 0x82, 0x86, 0x7f, 0x88, 0x61, 0x94, 0x90, 0x79, 0x8f, 0x83,
  0x98, 0x6e, 0x8b, 0x7d, 0x7c, 0x82, 0x97, 0x71, 0x87, 0x70, 0x77, 0x8d,
  0x8f, 0x6f, 0x81, 0x76, 0x6c, 0x7b, 0x84, 0x88, 0x7d, 0x6f, 0x90, 0x78,
  0x72, 0x8a, 0x81, 0x8a, 0x7c, 0x79, 0x7e, 0x77, 0x88, 0x7d, 0x5c, 0xa3,
  0x57, 0x69, 0x7b, 0x81, 0x6b, 0x6d, 0x84, 0x85, 0x83, 0x7b, 0x82, 0x91,
  0x69, 0x74, 0x88, 0x75, 0x93, 0x6d, 0xbd, 0x70, 0xa0, 0x84, 0x9d, 0xa1,
  0x73, 0x7e, 0xa0, 0x69, 0x81, 0x83, 0x96, 0xcb, 0x91, 0x7d, 0x89, 0x73,
  0x7f, 0x9b, 0x9c, 0xa1, 0x7e, 0x84, 0x89, 0x94, 0x78, 0x89, 0x92, 0xa7,
  0x79, 0x67, 0x84, 0x6a, 0x5c, 0xa3, 0x7f, 0xb3, 0x7b, 0x67, 0x8f, 0x97,
  0x86, 0x99, 0x95, 0xc7, 0x74, 0x6e, 0xc8, 0x93, 0x88, 0x85, 0x8c, 0xaf,
  0x75, 0x88, 0xbb, 0x95, 0x71, 0x84, 0x93, 0x9d, 0x77, 0x7c, 0x85, 0x6a,
  0x84, 0x8f, 0x75, 0x90, 0x58, 0x84, 0x83, 0x80, 0x6e, 0x78, 0x76, 0x82,
  0x94, 0x77, 0x79, 0x86, 0x5f, 0x6d, 0x5a, 0x68, 0x92, 0x8b, 0x88, 0x97,
  0x79, 0x84, 0x76, 0x84, 0x88, 0x7f, 0x89, 0x7a, 0x9b, 0x72, 0x6f, 0x9e,
  0x8c, 0x87, 0x81, 0x8d, 0x8f, 0x69, 0x85, 0xa0, 0x94, 0x75, 0x83, 0x66,
  0x68, 0x68, 0x81, 0x90, 0x84, 0x72, 0x9b, 0x7c, 0x8a, 0x79, 0x81, 0x9c,
  0x6d, 0x77, 0x96, 0x79, 0x7d, 0x78, 0x69, 0x64, 0x8e, 0x6c, 0x88, 0x66,
  0x7b, 0x73, 0x7e, 0x7b, 0x6d, 0x66, 0x7a, 0x61, 0x93, 0x7c, 0x81, 0x85,
  0x8b, 0x70, 0x87, 0x83, 0x7d, 0x68, 0x7f, 0x77, 0x95, 0x73, 0xa6, 0x71,
  0x9c, 0x84, 0x8e, 0xb6, 0x74, 0x87, 0x87, 0x63, 0x6d, 0x8c, 0xab, 0xc6,
  0x95, 0x6f, 0x8e, 0x82, 0x79, 0x9d, 0x9c, 0x9f, 0x79, 0x93, 0x95, 0x81,
  0x87, 0x8f, 0x84, 0xa2, 0x8a, 0x75, 0xa1, 0x65, 0x62, 0x85, 0x7c, 0xcc,
  0x80, 0x81, 0x93, 0x96, 0x53, 0x8c, 0x96, 0xba, 0x8b, 0x79, 0xc2, 0x8c,
  0x8a, 0x93, 0x92, 0xaf, 0x73, 0x7a, 0xaf, 0x89, 0x65, 0x93, 0x94, 0x92,
  0x61, 0x8c, 0x85, 0x7f, 0x99, 0x82, 0x7a, 0xac, 0x7d, 0x85, 0x94, 0x64,
  0xa4, 0x7c, 0x73, 0x80, 0x94, 0x75, 0x84, 0x74, 0x6f, 0x6b, 0x66, 0x72,
  0x87, 0x78, 0x85, 0x70, 0x76, 0x6f, 0x69, 0x7f, 0x84, 0x82, 0x7f, 0x8d,
  0x92, 0x6f, 0x6c, 0x88, 0x85, 0x81, 0x8c, 0x8a, 0x8d, 0x69, 0x81, 0xa0,
  0x93, 0x72, 0x94, 0x92, 0x93, 0x65, 0x71, 0x86, 0xa3, 0x77, 0x8d, 0x81,
  0x7d, 0x63, 0x84, 0x7e, 0x74, 0x7b, 0x89, 0x75, 0x7e, 0x77, 0x63, 0x6d,
  0x88, 0x7f, 0x7f, 0x6a, 0x89, 0x75, 0x8d, 0x87, 0x96, 0x71, 0x79, 0x70,
  0xaa, 0x68, 0x85, 0x7e, 0x84, 0x6d, 0x7f, 0x84, 0x79, 0x66, 0x7f, 0x71,
  0x7e, 0x6d, 0x88, 0x70, 0x9b, 0x87, 0x99, 0xa1, 0x79, 0x7f, 0x92, 0x6a,
  0x69, 0x82, 0x93, 0xd0, 0x95, 0x7e, 0x8f, 0x61, 0x7f, 0x9a, 0x9a, 0xba,
  0x80, 0x8f, 0x95, 0x7a, 0x7e, 0x8a, 0x90, 0xa9, 0x8b, 0x7d, 0x95, 0x84,
  0x71, 0x91, 0x85, 0xb7, 0x77, 0x71, 0x8e, 0x87, 0x7a, 0x97, 0xa8, 0xa8,
  0x92, 0x72, 0xd4, 0x7c, 0x7f, 0x87, 0x99, 0xa0, 0x88, 0x76, 0xab, 0x90,
  0x86, 0x97, 0x97, 0x9d, 0x7b, 0x7f, 0x9f, 0x7b, 0x93, 0x77, 0x86, 0xa1,
  0x65, 0x84, 0x90, 0x6d, 0x6c, 0x81, 0x6e, 0x82, 0x74, 0x82, 0x89, 0x72,
  0x88, 0x69, 0x69, 0x81, 0x7d, 0x79, 0x7a, 0x84, 0x62, 0x7c, 0x6d, 0x85,
  0x94, 0x72, 0x8e, 0x76, 0x6f, 0x6d, 0x6d, 0x9a, 0x8c, 0x71, 0x94, 0x84,
  0x99, 0x66, 0x80, 0x88, 0x8c, 0x79, 0x8e, 0x7e, 0x8f, 0x58, 0x7e, 0x93,
  0xa2, 0x71, 0x97, 0x63, 0x6a, 0x6d, 0x8d, 0x8e, 0x96, 0x8b, 0x8a, 0x6f,
  0x7c, 0x85, 0x64, 0x73, 0xa8, 0x75, 0x8b, 0x5f, 0x7c, 0x82, 0x89, 0x63,
  0xaa, 0x79, 0x82, 0x75, 0x8a, 0x70, 0x83, 0x8d, 0x87, 0x89, 0x92, 0x7b,
  0x7b, 0x70, 0x8e, 0x68, 0x7f, 0x62, 0xa5, 0x81, 0x8b, 0x70, 0x92, 0xb1,
  0x94, 0x7a, 0x9a, 0x69, 0x81, 0x7d, 0xac, 0xca, 0x83, 0x70, 0x8a, 0x61,
  0x8a, 0x8f, 0x9c, 0xcc, 0x7e, 0x8b, 0x84, 0x7c, 0x4a, 0xa0, 0x83, 0x99,
  0x79, 0x76, 0x98, 0x71, 0x48, 0xa7, 0x8a, 0xa6, 0x7d, 0x78, 0x94, 0x86,
  0x83, 0x89, 0x8f, 0xb2, 0x8d, 0x6d, 0xd8, 0x79, 0x8d, 0xa0, 0x97, 0xaa,
  0x77, 0x74, 0xb4, 0x86, 0x6d, 0x81, 0x8c, 0xa6, 0x6d, 0x85, 0x99, 0x79,
  0x89, 0x8d, 0x86, 0x9a, 0x71, 0x86, 0x8f, 0x82, 0x86, 0x77, 0x63, 0x7c,
  0x79, 0x73, 0x80, 0x5b, 0x86, 0x6c, 0x73, 0x84, 0x86, 0x85, 0x93, 0x8a,
  0x8c, 0x70, 0x7d, 0x97, 0x85, 0x88, 0x7e, 0x6e, 0x6e, 0x75, 0x6c, 0x90,
  0x90, 0x79, 0xa0, 0x7b, 0x7e, 0x65, 0x84, 0x7b, 0x82, 0x7f, 0x93, 0x75,
  0x8e, 0x69, 0x7f, 0x78, 0x86, 0x70, 0x85, 0x71, 0x77, 0x6f, 0x7c, 0x75,
  0x86, 0x84, 0x84, 0x75, 0x85, 0x69, 0x6a, 0x64, 0x7f, 0x75, 0x82, 0x62,
  0x73, 0x8a, 0xa1, 0x61, 0x6a, 0x61, 0x78, 0x6f, 0x8b, 0x7e, 0x83, 0x83,
  0x81, 0x88, 0x8f, 0xa5, 0x62, 0x67, 0x8a, 0x6f, 0x88, 0x67, 0x9b, 0x5e,
  0x89, 0x59, 0x87, 0x98, 0x84, 0x7a, 0x8e, 0x69, 0x6e, 0x88, 0x88, 0xc5,
  0x80, 0x7e, 0x90, 0x81, 0x84, 0x87, 0x92, 0xb1, 0x75, 0x92, 0x93, 0x83,
  0x70, 0x8f, 0x8a, 0x97, 0x8c, 0x7c, 0x9b, 0x6a, 0x68, 0x89, 0x81, 0xa6,
  0x72, 0x68, 0x96, 0x72, 0x73, 0x94, 0x99, 0xb8, 0x8f, 0x6d, 0xcb, 0x92,
  0x90, 0x9f, 0x8b, 0xa1, 0x7f, 0x74, 0xa3, 0x77, 0x87, 0x81, 0x7e, 0xa1,
  0x6c, 0x8f, 0x90, 0x7a, 0x78, 0x8b, 0x7d, 0xa9, 0x83, 0x86, 0x92, 0x63,
  0x83, 0x6a, 0x75, 0x83, 0x7c, 0x86, 0x83, 0x7e, 0x7a, 0x73, 0x68, 0x82,
  0x7a, 0x7f, 0x92, 0x66, 0x7f, 0x78, 0x6d, 0x8c, 0x90, 0x6a, 0x86, 0x5b,
  0x88, 0x7c, 0x7e, 0x8a, 0x8c, 0x84, 0x94, 0x79, 0x7e, 0x6b, 0x71, 0x8e,
  0x81, 0x76, 0x98, 0x9b, 0x80, 0x72, 0x6b, 0x8b, 0x8b, 0x77, 0x94, 0x64,
  0x8f, 0x6f, 0x85, 0x8a, 0x95, 0x7e, 0x98, 0x8c, 0x7f, 0x74, 0x71, 0x60,
  0x89, 0x77, 0x88, 0x6f, 0x7e, 0x6e, 0x99, 0x68, 0x58, 0x79, 0x80, 0x61,
  0x92, 0x70, 0x81, 0x7e, 0x72, 0x73, 0x8d, 0x89, 0x6f, 0x6b, 0x7b, 0x6f,
  0x72, 0x65, 0xb2, 0x84, 0x8c, 0x82, 0x92, 0x9b, 0x87, 0x75, 0x7d, 0x6e,
  0x80, 0x7d, 0x91, 0xd4, 0x78, 0x83, 0x81, 0x72, 0x86, 0x8d, 0x93, 0xaf,
  0x7b, 0x8d, 0x92, 0x79, 0x81, 0x90, 0x87, 0x8c, 0x8f, 0x8a, 0xa1, 0x5b,
  0x69, 0x90, 0x93, 0xa3, 0x7b, 0x7f, 0xa1, 0x79, 0x85, 0x93, 0x8d, 0xad,
  0x90, 0x73, 0xc4, 0x98, 0x8e, 0x93, 0xa1, 0x9a, 0x76, 0x84, 0xb9, 0x9c,
  0x67, 0x95, 0x9a, 0x9c, 0x81, 0x90, 0x92, 0x68, 0x7f, 0x82, 0x90, 0xa5,
  0x81, 0x91, 0x9c, 0x85, 0x87, 0x72, 0x70, 0x77, 0x84, 0x7c, 0x8d, 0x5c,
  0x6f, 0x67, 0x6f, 0x7f, 0x87, 0x7b, 0x90, 0x86, 0x72, 0x6b, 0x73, 0x87,
  0x8e, 0x71, 0x96, 0x6c, 0x4d, 0x71, 0x83, 0x8d, 0x90, 0x80, 0x82, 0x6d,
  0x93, 0x7f, 0x72, 0x7f, 0x87, 0x63, 0x80, 0x81, 0x91, 0x74, 0x72, 0x84,
  0x88, 0x85, 0x88, 0x7a, 0x70, 0x66, 0x7a, 0x8e, 0x7d, 0x7c, 0x8e, 0x4f,
  0x88, 0x6e, 0x6e, 0x81, 0x67, 0x7b, 0x8a, 0x68, 0x81, 0x7a, 0x71, 0x73,
  0x73, 0x67, 0x84, 0x76, 0x7a, 0x72, 0x7e, 0x85, 0x76, 0x8e, 0x6f, 0x91,
  0x9f, 0x76, 0x84, 0x74, 0x73, 0x6c, 0x89, 0x74, 0x77, 0x74, 0x85, 0xa1,
  0x97, 0x81, 0x87, 0x58, 0x76, 0x95, 0x8d, 0xcb, 0x90, 0x71, 0x8d, 0x66,
  0x6a, 0xa0, 0x93, 0xa7, 0x8d, 0x82, 0x9d, 0x8e, 0x6d, 0x80, 0x98, 0x88,
  0x8c, 0x85, 0x97, 0x7d, 0x76, 0x7a, 0x8a, 0x9b, 0x87, 0x70, 0xa1, 0x8c,
  0x71, 0x94, 0x99, 0xb0, 0x98, 0x69, 0xbf, 0x7d, 0x97, 0x96, 0x8f, 0x9d,
  0x92, 0x8b, 0xba, 0x7a, 0x90, 0x87, 0x80, 0x95, 0x7a, 0x87, 0x95, 0x73,
  0x79, 0x83, 0x94, 0xae, 0x83, 0x91, 0x95, 0x7b, 0x9c, 0x7f, 0x7d, 0x78,
  0x8a, 0x80, 0x93, 0x97, 0xac, 0x65, 0x79, 0x76, 0x73, 0x80, 0x83, 0x61,
  0x8a, 0x69, 0x67, 0x8f, 0x8b, 0x84, 0x8a, 0x75, 0x7c, 0x7e, 0x7d, 0x96,
  0x96, 0x6d, 0x95, 0x60, 0x82, 0x70, 0x79, 0x8e, 0x8d, 0x76, 0x94, 0x80,
  0x9c, 0x5c, 0x75, 0x7a, 0x98, 0x85, 0x8e, 0x7e, 0x66, 0x75, 0x86, 0x8a,
  0x85, 0x6c, 0x8a, 0x5f, 0x89, 0x69, 0x70, 0x52, 0x7c, 0x73, 0x75, 0x6c,
  0x79, 0x74, 0x55, 0x71, 0x5c, 0x80, 0x84, 0x7c, 0x77, 0x73, 0x89, 0x6a,
  0x7d, 0x7f, 0x84, 0x8b, 0x86, 0x60, 0x83, 0x7f, 0x77, 0x60, 0xab, 0x82,
  0x81, 0x68, 0x91, 0xad, 0x9e, 0x83, 0x8f, 0x58, 0x67, 0x8b, 0x8f, 0xd3,
  0x9c, 0x78, 0x8c, 0x6c, 0x57, 0x9f, 0x95, 0xa0, 0x62, 0x8f, 0x8a, 0x82,
  0x5d, 0x9b, 0x98, 0x91, 0x8b, 0x84, 0x90, 0x77, 0x7a, 0x87, 0x93, 0xa3,
  0x7c, 0x72, 0xa4, 0x83, 0x8b, 0xa0, 0x8d, 0xc3, 0x97, 0x71, 0xd0, 0x8a,
  0x82, 0x98, 0xae, 0x95, 0x9d, 0x7b, 0xb7, 0x63, 0x7b, 0x92, 0x8f, 0xa4,
  0x7f, 0x91, 0x92, 0x7c, 0x7e, 0x82, 0x7c, 0x8b, 0x7a, 0x8c, 0x8f, 0x82,
  0x89, 0x7e, 0x75, 0x89, 0x88, 0x7e, 0x8f, 0x65, 0x8b, 0x6d, 0x6c, 0x7b,
  0x8b, 0x79, 0x91, 0x68, 0x79, 0x74, 0x6e, 0x8b, 0x87, 0x7b, 0x89, 0x5f,
  0x75, 0x8b, 0x77, 0x95, 0x82, 0x7a, 0x9b, 0x6f, 0x80, 0x6f, 0x71, 0x92,
  0x91, 0x72, 0x98, 0x84, 0x98, 0x6d, 0x7a, 0x8c, 0x98, 0x77, 0x87, 0x72,
  0x67, 0x63, 0x81, 0x7f, 0x69, 0x79, 0x7d, 0x61, 0x80, 0x68, 0x7a, 0x7b,
  0x80, 0x7c, 0x82, 0x75, 0x53, 0x62, 0x5d, 0x94, 0x65, 0x73, 0x82, 0x69,
  0x6a, 0x64, 0x86, 0x8b, 0x73, 0x96, 0x6d, 0x82, 0x91, 0x5c, 0x8a, 0x7a,
  0x8f, 0x56, 0x88, 0x73, 0x91, 0x76, 0x7a, 0x97, 0x94, 0x7b, 0x8d, 0x58,
  0x66, 0x80, 0x92, 0xca, 0x6b, 0x85, 0x8f, 0x77, 0x87, 0x95, 0x95, 0xb3,
  0x89, 0x8e, 0x82, 0x77, 0x7b, 0x83, 0x8f, 0x8a, 0x79, 0x8a, 0x95, 0x5a,
  0x80, 0x81, 0x91, 0xa7, 0x95, 0x80, 0xa1, 0x7b, 0x84, 0x88, 0x9e, 0xb9,
  0xa0, 0x79, 0xca, 0x79, 0x65, 0x9b, 0x9d, 0x91, 0x93, 0x86, 0xbf, 0x89,
  0x8a, 0x87, 0x85, 0x9e, 0x7d, 0x92, 0x9b, 0x5c, 0x92, 0x98, 0x83, 0x9c,
  0x73, 0x97, 0x8d, 0x86, 0x7d, 0x96, 0x81, 0x85, 0x77, 0x7d, 0x85, 0x83,
  0x99, 0x69, 0x77, 0x79, 0x8b, 0x69, 0x8c, 0x75, 0x8e, 0x63, 0x62, 0x8c,
  0x88, 0x6f, 0x8b, 0x6e, 0x70, 0x89, 0x85, 0x8b, 0x90, 0x71, 0x91, 0x73,
  0x9d, 0x67, 0x7c, 0x84, 0x8c, 0x85, 0x91, 0x9b, 0x78, 0x69, 0x78, 0x77,
  0x8e, 0x6d, 0x7b, 0x70, 0x6e, 0x6d, 0x73, 0x8a, 0x86, 0x7f, 0x87, 0x67,
  0x93, 0x80, 0x75, 0x80, 0x5e, 0x7a, 0x7b, 0x60, 0x6a, 0x6a, 0x75, 0x5f,
  0x60, 0x6b, 0x7f, 0x75, 0x77, 0x75, 0x92, 0x81, 0x6d, 0x88, 0x76, 0x8a,
  0x84, 0x5d, 0x77, 0x72, 0x7e, 0x73, 0x8b, 0x6d, 0x81, 0x6c, 0x96, 0xa3,
  0x6a, 0x74, 0x86, 0x5b, 0x97, 0x72, 0x7a, 0xc8, 0x7e, 0x8a, 0x9d, 0x6d,
  0x87, 0xa2, 0x98, 0xab, 0x70, 0x94, 0x89, 0x67, 0x8a, 0x92, 0x96, 0x98,
  0x82, 0x99, 0x8e, 0x5b, 0x99, 0x9e, 0x9e, 0xb1, 0x8b, 0x79, 0xa6, 0x64,
  0x85, 0x7b, 0x8e, 0xba, 0x8f, 0x70, 0xc8, 0x6b, 0x89, 0x92, 0x85, 0x97,
  0x96, 0x87, 0xa8, 0x60, 0x6c, 0x90, 0x8c, 0x8e, 0x93, 0x91, 0x8b, 0x79,
  0xaa, 0x8d, 0x7e, 0xac, 0x7b, 0x8f, 0x7e, 0x8a, 0x99, 0x80, 0x7d, 0x87,
  0x8d, 0x94, 0x8f, 0x7e, 0x9a, 0x71, 0x78, 0x74, 0x8a, 0x93, 0x8b, 0x6f,
  0x79, 0x67, 0x70, 0x92, 0x96, 0x7e, 0x7a, 0x6a, 0x99, 0x77, 0x83, 0x98,
  0x93, 0x74, 0x82, 0x78, 0x8b, 0x82, 0x83, 0x8d, 0x8e, 0x7e, 0x8b, 0x7d,
  0x9e, 0x5f, 0x78, 0x7c, 0x92, 0x80, 0x94, 0x6c, 0x8a, 0x66, 0x72, 0x85,
  0x6f, 0x6b, 0x84, 0x63, 0x8d, 0x71, 0x5c, 0x74, 0x97, 0x7e, 0x85, 0x5c,
  0x7c, 0x76, 0x59, 0x6f, 0x84, 0x75, 0x78, 0x5a, 0x73, 0x75, 0x73, 0x7a,
  0x7e, 0x80, 0x59, 0x8a, 0x6e, 0x72, 0x7b, 0x76, 0x84, 0x5a, 0x90, 0x4e,
  0x83, 0x52, 0x85, 0xaa, 0xa8, 0x74, 0x92, 0x6f, 0x89, 0x66, 0x91, 0xa3,
  0x95, 0x80, 0x8a, 0x71, 0x77, 0x91, 0x96, 0x98, 0x7c, 0x96, 0x94, 0x77,
  0x77, 0x82, 0x91, 0x9f, 0x75, 0x9b, 0x82, 0x88, 0x83, 0x73, 0x8a, 0xa3,
  0x84, 0x90, 0xa6, 0x62, 0x5f, 0xa6, 0x8a, 0xab, 0x95, 0x6d, 0xbd, 0x7d,
  0x73, 0x85, 0x91, 0x98, 0xa0, 0x83, 0xb2, 0x72, 0x79, 0x7c, 0x90, 0xaa,
  0x81, 0x87, 0x96, 0x57, 0xa2, 0x7d, 0x80, 0xad, 0x7c, 0xa3, 0x88, 0x9d,
  0x8c, 0x7b, 0x77, 0x7f, 0x92, 0x8e, 0x98, 0x6f, 0x8b, 0x6e, 0x73, 0x8a,
  0x88, 0x76, 0x73, 0x6e, 0x8e, 0x7d, 0x69, 0x8c, 0x89, 0x7e, 0x84, 0x6a,
  0x7f, 0x74, 0x76, 0x8f, 0x89, 0x79, 0x98, 0x70, 0x83, 0x74, 0x90, 0x91,
  0x84, 0x72, 0x9b, 0x7e, 0xa7, 0x74, 0x9d, 0x87, 0x94, 0x7a, 0x88, 0x6a,
  0x81, 0x68, 0x77, 0x95, 0x81, 0x7a, 0x90, 0x53, 0x64, 0x6c, 0x67, 0x5e,
  0x68, 0x75, 0x84, 0x70, 0x81, 0x7a, 0x83, 0x88, 0x83, 0x6e, 0x7b, 0x60,
  0x96, 0x5d, 0x82, 0x84, 0x74, 0x54, 0x88, 0x80, 0x80, 0x59, 0x77, 0x6f,
  0x8c, 0x75, 0x61, 0x5b, 0x79, 0x59, 0x78, 0x8e, 0x72, 0x83, 0x8a, 0x5a,
  0x6c, 0x95, 0x98, 0xc9, 0x78, 0x7c, 0x9c, 0x8a, 0x75, 0x8a, 0x8f, 0x9b,
  0x87, 0xa4, 0x85, 0x7a, 0x8b, 0x94, 0x88, 0x8d, 0x98, 0x8f, 0x8b, 0x82,
  0x7e, 0x82, 0x8c, 0xab, 0x99, 0x70, 0xa3, 0x4f, 0x68, 0xa5, 0x80, 0xa8,
  0xa3, 0x87, 0xac, 0x91, 0x8d, 0xa5, 0x86, 0x89, 0x96, 0x7e, 0xb0, 0x64,
  0x61, 0x90, 0x8d, 0x91, 0x9e, 0x97, 0x92, 0x61, 0x9a, 0x80, 0x8f, 0x87,
  0x77, 0xa9, 0x8d, 0x86, 0x86, 0x74, 0x6d, 0x6a, 0x80, 0x7e, 0x69, 0x67,
  0x90, 0x66, 0x74, 0x7a, 0x7f, 0x7b, 0x83, 0x82, 0x87, 0x66, 0x72, 0x8a,
  0x86, 0x7d, 0x91, 0x89, 0x93, 0x93, 0x7f, 0x89, 0x90, 0x7d, 0x93, 0x7c,
  0x9c, 0x74, 0x8a, 0x82, 0x77, 0x83, 0x81, 0x80, 0x9c, 0x7a, 0x81, 0x8b,
  0x8d, 0x7a, 0x7a, 0x71, 0x62, 0x73, 0x71, 0x8c, 0x92, 0x81, 0x8b, 0x84,
  0x7a, 0x72, 0x69, 0x61, 0x8e, 0x78, 0x7e, 0x6b, 0x84, 0x6f, 0x6a, 0x97,
  0x6e, 0x73, 0x82, 0x63, 0x7e, 0x64, 0x81, 0x7f, 0x5e, 0x67, 0x7e, 0x8d,
  0x6b, 0x6f, 0x8a, 0x7b, 0x78, 0x56, 0x8c, 0x72, 0x83, 0x7b, 0x8d, 0x88,
  0x87, 0x67, 0x97, 0x71, 0x73, 0x63, 0x94, 0xaa, 0x80, 0x75, 0x89, 0x7a,
  0x7e, 0x86, 0x96, 0x97, 0x91, 0x9e, 0x7a, 0x8f, 0x72, 0x8a, 0x97, 0x9c,
  0x96, 0x9a, 0x8f, 0x6f, 0x6a, 0x85, 0x9a, 0x95, 0x96, 0x8f, 0x90, 0x71,
  0x84, 0x8f, 0x7d, 0xa8, 0xbd, 0x88, 0xa3, 0x84, 0x7c, 0x83, 0x7b, 0xa5,
  0xb2, 0x91, 0xac, 0x5f, 0x68, 0x7c, 0x82, 0x8f, 0x91, 0xa1, 0x9d, 0x63,
  0xb1, 0x7b, 0x80, 0x95, 0x6a, 0x8d, 0x92, 0x80, 0x8b, 0x7d, 0x7e, 0x83,
  0x8e, 0x8d, 0x72, 0x77, 0xa0, 0x76, 0x81, 0x6f, 0x75, 0x7b, 0x91, 0x89,
  0x86, 0x7b, 0x80, 0x7a, 0x7a, 0x84, 0x95, 0x66, 0x8f, 0x7f, 0x84, 0x84,
  0x96, 0x80, 0x72, 0x6c, 0x98, 0x7b, 0x8f, 0x81, 0x8a, 0x6f, 0x82, 0x82,
  0x80, 0x82, 0x83, 0x83, 0x80, 0x72, 0x9b, 0x89, 0x98, 0x6a, 0x71, 0x7c,
  0x75, 0x75, 0x65, 0x5d, 0x7b, 0x75, 0x61, 0x79, 0x7a, 0x74, 0x8a, 0x67,
  0x87, 0x7b, 0x90, 0x7f, 0x96, 0x6f, 0x82, 0x91, 0x70, 0x8e, 0x75, 0x6f,
  0x8a, 0x4b, 0x7e, 0x69, 0x8e, 0x62, 0x71, 0x6f, 0x86, 0x4f, 0x6e, 0x85,
  0x68, 0x80, 0x74, 0x8e, 0x7b, 0x7f, 0x82, 0x55, 0x85, 0x69, 0x86, 0xa8,
  0x80, 0x7c, 0x9f, 0x7a, 0x6b, 0x78, 0x8c, 0x89, 0x6b, 0x84, 0x8b, 0x74,
  0x72, 0x74, 0x93, 0x87, 0x8d, 0x7c, 0x7f, 0x7e, 0x52, 0x72, 0x8c, 0x99,
  0x8b, 0x86, 0x9e, 0x63, 0x74, 0x8b, 0x8c, 0x9e, 0xa3, 0x7e, 0xb2, 0x6d,
  0x99, 0x8e, 0x84, 0xa0, 0x8a, 0x77, 0xb1, 0x75, 0x74, 0x83, 0x83, 0x9c,
  0x8e, 0x8d, 0x9a, 0x78, 0xae, 0x81, 0x7c, 0x8f, 0x89, 0xa7, 0x80, 0x89,
  0x86, 0x7f, 0x7c, 0x8b, 0x88, 0x91, 0x79, 0x8c, 0xa6, 0x76, 0x6e, 0x5f,
  0x84, 0x78, 0x66, 0x7f, 0x9e, 0x7a, 0x7c, 0x85, 0x84, 0x8d, 0x7c, 0x9f,
  0x8b, 0x7a, 0x7f, 0x94, 0x82, 0x74, 0x81, 0x90, 0x9b, 0x73, 0x81, 0x7f,
  0x98, 0x7b, 0x72, 0x80, 0x99, 0x60, 0x7f, 0x8e, 0x97, 0x80, 0x8c, 0x65,
  0x8f, 0x70, 0x6e, 0x89, 0x75, 0x8d, 0x73, 0x7a, 0x8e, 0x8c, 0x6f, 0x65,
  0x87, 0x81, 0x7e, 0x88, 0x5d, 0x6f, 0x56, 0x87, 0x6b, 0x75, 0x7e, 0x7b,
  0x62, 0x6c, 0x8c, 0x81, 0x74, 0x69, 0x92, 0x82, 0x85, 0x57, 0x84, 0x7a,
  0x84, 0x53, 0x86, 0x5e, 0x69, 0x44, 0x80, 0x83, 0x9c, 0x56, 0x7a, 0x7d,
  0x6f, 0x72, 0x85, 0xa6, 0x75, 0x91, 0x6c, 0x56, 0x66, 0x7a, 0x93, 0x7f,
  0x78, 0x83, 0x91, 0x67, 0x7e, 0x83, 0x83, 0x92, 0x90, 0x79, 0x8d, 0x9a,
  0x87, 0x8a, 0x86, 0x9c, 0x7e, 0x66, 0x86, 0x70, 0x68, 0x78, 0x8e, 0x8c,
  0x8b, 0xa1, 0x90, 0x7d, 0x80, 0x92, 0x85, 0x90, 0xa0, 0x94, 0x8c, 0x76,
  0x6f, 0x78, 0x97, 0x93, 0x63, 0xa4, 0x83, 0x72, 0x9e, 0x87, 0x81, 0x68,
  0x97, 0x99, 0x8b, 0x80, 0x83, 0x80, 0x69, 0x69, 0x9f, 0x76, 0x84, 0x7e,
  0x72, 0x7b, 0x84, 0x76, 0x83, 0x87, 0x82, 0x76, 0x8f, 0x71, 0x75, 0x66,
  0x6c, 0x79, 0x6e, 0x73, 0x79, 0x68, 0x82, 0x7c, 0x96, 0x82, 0x81, 0x90,
  0x95, 0x83, 0x7a, 0x83, 0x66, 0x60, 0x8d, 0x79, 0x87, 0x5b, 0x85, 0x90,
  0x9e, 0x73, 0x6f, 0x56, 0x5d, 0x6a, 0x70, 0x7b, 0x85, 0x72, 0x60, 0x7c,
  0x74, 0x72, 0x6b, 0x63, 0xa1, 0x71, 0x6c, 0x7d, 0x84, 0x80, 0x5e, 0x73,
  0x7a, 0x70, 0x73, 0x70, 0x7e, 0x57, 0x72, 0x79, 0x77, 0x70, 0x8f, 0x8a,
  0x71, 0x7e, 0x70, 0x66, 0x77, 0x82, 0x85, 0x89, 0x88, 0x83, 0x70, 0x8b,
  0x87, 0x81, 0x5e, 0x7b, 0x7a, 0x83, 0x78, 0x69, 0x99, 0x73, 0x89, 0x61,
  0x7f, 0x8a, 0x5a, 0x7e, 0x96, 0x6a, 0x6a, 0x85, 0xa7, 0x7c, 0x84, 0x7a,
  0x7a, 0x82, 0x69, 0x7b, 0xa4, 0x84, 0x56, 0x7f, 0x74, 0x85, 0x76, 0x9d,
  0x69, 0x85, 0x66, 0x84, 0x86, 0x81, 0x87, 0x5a, 0x84, 0x8f, 0x64, 0x6f,
  0x85, 0x67, 0x7f, 0x6f, 0x5e, 0x77, 0x87, 0xa8, 0x87, 0x8f, 0x60, 0x78,
  0x6e, 0x88, 0x8d, 0x84, 0x7b, 0x80, 0x65, 0x8a, 0x61, 0x85, 0xa3, 0x55,
  0x6d, 0x85, 0x66, 0x6a, 0x90, 0x91, 0x73, 0x89, 0x9f, 0x86, 0x5a, 0x6e,
  0x96, 0x79, 0x71, 0xa1, 0x7c, 0x72, 0x91, 0x8e, 0xa3, 0x83, 0x76, 0x81,
  0x98, 0x9e, 0x7d, 0x99, 0x61, 0x72, 0x6d, 0x73, 0x71, 0x61, 0x69, 0x9a,
  0x83, 0x7c, 0x73, 0x79, 0x5c, 0x70, 0x60, 0x87, 0x91, 0x75, 0x70, 0x82,
  0x79, 0x91, 0x70, 0x64, 0x78, 0x77, 0x71, 0x89, 0x8b, 0x77, 0x6f, 0x79,
  0x6c, 0x7e, 0x6f, 0x88, 0x78, 0x6f, 0x83, 0x83, 0x80, 0x5f, 0x7d, 0x88,
  0x74, 0x76, 0x66, 0x74, 0x69, 0x70, 0x99, 0x7b, 0x4f, 0x93, 0x5c, 0x7a,
  0x77, 0x78, 0x97, 0x5f, 0x53, 0x95, 0x5c, 0x84, 0x8b, 0x79, 0x69, 0x60,
  0x73, 0x9d, 0x79, 0x88, 0x9d, 0x70, 0x87, 0x7f, 0x5a, 0x8f, 0x62, 0x64,
  0x88, 0x77, 0x6a, 0x79, 0x6d, 0x80, 0x92, 0x99, 0x9d, 0x77, 0x92, 0x89,
  0x7b, 0x75, 0x6a, 0x62, 0x63, 0x79, 0x7e, 0x85, 0x81, 0x97, 0x76, 0x8d,
  0x95, 0x81, 0x7a, 0x8f, 0x71, 0x8d, 0x6d, 0x74, 0x77, 0x76, 0x75, 0x72,
  0x7a, 0xa3, 0x7c, 0x9a, 0xa5, 0x77, 0x59, 0x71, 0x9d, 0xab, 0x6b, 0x8d,
  0x6d, 0x75, 0x76, 0x65, 0x73, 0x8c, 0x8f, 0x56, 0x61, 0x67, 0x8a, 0x6f,
  0x80, 0x81, 0x90, 0x75, 0x6a, 0x79, 0x80, 0x76, 0x61, 0x8c, 0x7d, 0x70,
  0x6d, 0x76, 0x5e, 0x77, 0x75, 0x7c, 0x95, 0x89, 0x6e, 0x7b, 0x96, 0x71,
  0x86, 0x88, 0x77, 0x90, 0x63, 0x6f, 0x8a, 0x99, 0x5b, 0x86, 0x58, 0x99,
  0x81, 0x77, 0x6b, 0x60, 0x81, 0x90, 0x83, 0x87, 0x8a, 0x71, 0x91, 0x89,
  0x7b, 0x7e, 0x77, 0x83, 0x65, 0x72, 0x82, 0x55, 0x7b, 0x6e, 0x85, 0x80,
  0x9a, 0x88, 0x7d, 0x7c, 0x9c, 0x76, 0x8a, 0x81, 0x6b, 0x6a, 0x76, 0x93,
  0x7a, 0x76, 0x52, 0x57, 0x8f, 0xa0, 0x85, 0x65, 0x76, 0x70, 0x70, 0x80,
  0x9e, 0x85, 0x82, 0x80, 0x57, 0x6c, 0x7a, 0x79, 0x7d, 0x8b, 0x86, 0x67,
  0x73, 0x84, 0x80, 0x62, 0x88, 0x64, 0x89, 0x6c, 0x70, 0x76, 0x77, 0x63,
  0x86, 0x62, 0xa8, 0x91, 0x75, 0x8d, 0x7a, 0x59, 0x89, 0x6d, 0x73, 0x96,
  0x8a, 0x5f, 0x7b, 0x84, 0x81, 0x6b, 0x85, 0x68, 0x71, 0x6a, 0x77, 0xa5,
  0x75, 0x7a, 0x8f, 0x65, 0x7b, 0x81, 0x7a, 0x7e, 0x5c, 0x82, 0x6e, 0x76,
  0x5b, 0x8d, 0x72, 0x7d, 0xa7, 0x66, 0x79, 0x64, 0x82, 0x84, 0x80, 0x81,
  0x87, 0x74, 0x8c, 0x5e, 0x70, 0x90, 0x9c, 0x7c, 0x6d, 0x86, 0x91, 0x77,
  0x81, 0x5b, 0x9b, 0x7b, 0x67, 0x91, 0x87, 0x73, 0x6c, 0x5a, 0x8d, 0x82,
  0x8c, 0x82, 0x7c, 0x5e, 0x79, 0x8c, 0x85, 0x76, 0x90, 0x74, 0x7e, 0x69,
  0x88, 0x5c, 0x79, 0x8c, 0x94, 0x87, 0x52, 0x90, 0x8d, 0x66, 0x67, 0x86,
  0x69, 0x7c, 0x73, 0x95, 0xa6, 0x6a, 0x80, 0x80, 0x78, 0x95, 0x76, 0xa6,
  0x6a, 0x83, 0x8d, 0x79, 0x7a, 0x8a, 0x89, 0x83, 0x5e, 0x4a, 0x7d, 0x72,
  0x64, 0x91, 0x76, 0xa9, 0x70, 0x71, 0x85, 0x7d, 0x70, 0x9b, 0x6c, 0x7e,
  0x9c, 0x52, 0x72, 0x9d, 0x62, 0x8a, 0x7a, 0x6f, 0x8b, 0x46, 0x97, 0xab,
  0x6a, 0x88, 0x89, 0x87, 0x66, 0x6a, 0x83, 0x7a, 0x6a, 0x82, 0x6d, 0x6b,
  0x8c, 0x67, 0x76, 0x70, 0x7a, 0x69, 0xa6, 0x7b, 0x7d, 0x6f, 0x8b, 0x83,
  0x85, 0x82, 0x9d, 0x82, 0x88, 0x83, 0x6a, 0x6f, 0x6f, 0x67, 0x58, 0x8d,
  0x7f, 0x8c, 0x6c, 0x8c, 0x8e, 0x6c, 0x7d, 0x77, 0x71, 0x75, 0x86, 0x53,
  0x55, 0x83, 0x83, 0x89, 0x7b, 0x7e, 0x77, 0x6d, 0x87, 0x78, 0x92, 0x7d,
  0x68, 0x81, 0x74, 0x70, 0x6c, 0x8f, 0x63, 0x67, 0x93, 0x70, 0x92, 0x78,
  0x66, 0x85, 0x89, 0x64, 0x7b, 0x86, 0x9b, 0x74, 0x8d, 0x6e, 0x5e, 0x6f,
  0x60, 0x73, 0xa7, 0x8b, 0x8a, 0x71, 0x74, 0x73, 0x82, 0x8e, 0x83, 0x7e,
  0x84, 0x92, 0x5a, 0x7c, 0x87, 0x66, 0x7f, 0x8b, 0x85, 0x71, 0x96, 0x61,
  0xa1, 0x9a, 0x85, 0x8f, 0x80, 0x84, 0x7e, 0x59, 0x66, 0x70, 0x84, 0x88,
  0x7e, 0x8d, 0x7d, 0x70, 0x77, 0x59, 0x75, 0x71, 0x8d, 0x88, 0x84, 0x86,
  0x8d, 0x67, 0x70, 0x64, 0x94, 0xb5, 0x74, 0x9f, 0x8e, 0x7b, 0x80, 0x6d,
  0x73, 0x90, 0x7b, 0x6a, 0x8b, 0x79, 0x77, 0x8e, 0x7a, 0xa4, 0x53, 0x5b,
  0x89, 0x7a, 0x9d, 0xd7, 0x8e, 0x94, 0x60, 0x8c, 0x61, 0x81, 0x89, 0xa0,
  0xa6, 0x8a, 0x62, 0x73, 0x96, 0x6c, 0x79, 0x94, 0x9c, 0x7d, 0x9d, 0x7f,
  0x8a, 0x67, 0x76, 0x71, 0x75, 0x62, 0x83, 0x6d, 0x7a, 0x68, 0x5d, 0x5b,
  0x79, 0x9a, 0x5c, 0x5f, 0x74, 0x80, 0x6c, 0x8a, 0x6e, 0x8c, 0x6f, 0x5c,
  0x90, 0x49, 0x6d, 0x68, 0x79, 0x9d, 0x71, 0x8f, 0xb2, 0x63, 0x6d, 0x4c,
  0x86, 0xa8, 0x4d, 0x58, 0x74, 0x47, 0x85, 0x51, 0x5d, 0x9f, 0x74, 0x60,
  0x85, 0x74, 0x9d, 0x70, 0x86, 0x95, 0x6e, 0x5f, 0x7f, 0x65, 0x7b, 0x83,
  0x87, 0x8a, 0x72, 0x88, 0x5b, 0x7c, 0x9d, 0x8f, 0x81, 0x89, 0x84, 0x89,
  0x96, 0x6e, 0x87, 0x73, 0x8d, 0x77, 0x6f, 0x6f, 0x66, 0x61, 0x6d, 0x80,
  0x5c, 0x78, 0x52, 0x57, 0xa5, 0x70, 0x72, 0x85, 0x79, 0x87, 0x6e, 0x97,
  0x87, 0x85, 0x86, 0x69, 0x84, 0x78, 0x7c, 0x93, 0x90, 0x7a, 0x82, 0x74,
  0x65, 0x95, 0x85, 0x83, 0x89, 0x7c, 0xa5, 0x6d, 0x63, 0xd3, 0x6b, 0xa4,
  0x67, 0x65, 0x85, 0x93, 0x87, 0xc3, 0x71, 0x55, 0x73, 0x6d, 0x91, 0x8f,
  0xab, 0xa7, 0x6c, 0x76, 0x8f, 0x64, 0xa8, 0xba, 0xa9, 0x99, 0x76, 0x76,
  0x85, 0x84, 0x93, 0x9f, 0x88, 0x89, 0x63, 0x6c, 0x7b, 0x6f, 0x80, 0x85,
  0x94, 0x82, 0x72, 0x92, 0x6c, 0x48, 0x6c, 0x86, 0x8e, 0x6c, 0x58, 0x83,
  0x7d, 0x52, 0x52, 0xa5, 0x83, 0x8e, 0x52, 0x6e, 0x84, 0x70, 0x71, 0x97,
  0x8e, 0x87, 0x67, 0x93, 0x97, 0x69, 0x85, 0x61, 0x8e, 0xa1, 0x7d, 0x8e,
  0x83, 0x66, 0x77, 0x90, 0x7d, 0xb9, 0x77, 0x7c, 0xa5, 0x6d, 0x80, 0x7e,
  0x9d, 0xa0, 0x61, 0x61, 0x8b, 0x76, 0x96, 0x60, 0x85, 0x9e, 0x5d, 0x90,
  0x60, 0x72, 0x8b, 0x7c, 0x65, 0x99, 0x6e, 0x58, 0x84, 0x8c, 0x82, 0x72,
  0x6f, 0x85, 0x68, 0x8e, 0x87, 0x6b, 0x7d, 0x75, 0x5f, 0x7f, 0x5b, 0x87,
  0x7c, 0x7c, 0x74, 0x76, 0x9e, 0x77, 0x5e, 0x6e, 0x78, 0x8c, 0x7f, 0x74,
  0x80, 0x79, 0x73, 0x99, 0x7b, 0x75, 0x6d, 0x82, 0x8c, 0x7b, 0x7b, 0x8d,
  0x8c, 0x7e, 0x86, 0x80, 0x6f, 0xb4, 0x83, 0x8c, 0x89, 0x7e, 0x75, 0x8b,
  0x75, 0xd3, 0x76, 0x96, 0x57, 0x7e, 0x65, 0x5e, 0x9d, 0xdd, 0x7e, 0x62,
  0x88, 0x91, 0xb3, 0x99, 0xbc, 0xb9, 0x85, 0x6a, 0x77, 0x7a, 0xb4, 0xd8,
  0xa4, 0xa8, 0x67, 0x63, 0x7c, 0x78, 0x93, 0xb5, 0xa7, 0x7b, 0x6e, 0x97,
  0x7b, 0x64, 0x82, 0x81, 0x7c, 0x6d, 0x69, 0x63, 0x87, 0x65, 0x86, 0x86,
  0x7b, 0x71, 0x67, 0x73, 0x6e, 0x5c, 0x42, 0x87, 0x65, 0x60, 0x5c, 0x93,
  0x96, 0x79, 0x63, 0x63, 0xa0, 0x8c, 0x66, 0x87, 0xae, 0x61, 0x84, 0x64,
  0x87, 0x8b, 0x7d, 0x9c, 0xa4, 0x80, 0x71, 0x6f, 0x70, 0x94, 0x8e, 0x96,
  0x81, 0x66, 0x7e, 0x50, 0x88, 0xa8, 0x77, 0x98, 0x77, 0x70, 0x8f, 0x6e,
  0x6e, 0xa1, 0x62, 0x5f, 0x83, 0x84, 0x81, 0x7e, 0x97, 0xb0, 0x66, 0x76,
  0x5d, 0x7d, 0x84, 0x79, 0x7b, 0x89, 0x6f, 0x78, 0x85, 0x6b, 0x8f, 0x77,
  0x71, 0x70, 0x73, 0x47, 0x5f, 0x77, 0x8e, 0x80, 0x7f, 0x8a, 0x76, 0x87,
  0x73, 0x77, 0x6a, 0x67, 0xaa, 0x83, 0x63, 0x68, 0x64, 0x71, 0x7c, 0x9d,
  0x91, 0x6f, 0x79, 0x66, 0x81, 0x76, 0x7c, 0x6f, 0x89, 0xb4, 0x7e, 0x8c,
  0x99, 0x83, 0x79, 0x5c, 0x88, 0xdf, 0x77, 0xa4, 0x89, 0x8f, 0x78, 0x65,
  0x69, 0xe1, 0x7b, 0x5a, 0x81, 0x93, 0xb6, 0xa4, 0xc6, 0xd7, 0x6c, 0x6f,
  0x66, 0x8d, 0xa6, 0xdd, 0xb5, 0xa7, 0x57, 0x77, 0x9a, 0x7b, 0x97, 0xaa,
  0x8e, 0x7e, 0x4e, 0x85, 0x88, 0x75, 0x7a, 0x87, 0x88, 0x6d, 0x70, 0x6e,
  0x72, 0x6a, 0x80, 0x90, 0x76, 0x70, 0x62, 0x75, 0x8b, 0x5c, 0x45, 0x8a,
  0x79, 0x6b, 0x65, 0x6c, 0x78, 0x5d, 0x6d, 0x71, 0x9d, 0x65, 0x6b, 0x9b,
  0xb8, 0x63, 0x82, 0x70, 0x6c, 0x77, 0x77, 0xa6, 0x82, 0x74, 0x76, 0x78,
  0x6d, 0x9c, 0x91, 0xac, 0x7f, 0x5e, 0x77, 0x98, 0x90, 0xae, 0x77, 0x93,
  0x94, 0x6d, 0x9d, 0x55, 0xa2, 0xaa, 0x7d, 0x86, 0x96, 0x7b, 0x81, 0x96,
  0x96, 0xad, 0x5c, 0x82, 0x8d, 0x80, 0x7a, 0x74, 0x71, 0x8d, 0x75, 0x6b,
  0x58, 0x76, 0x7c, 0x67, 0x66, 0x7b, 0x5f, 0x4c, 0x8c, 0x65, 0x7f, 0x6c,
  0x69, 0x84, 0x79, 0x4d, 0x6d, 0x6d, 0x6c, 0x93, 0x84, 0x6a, 0x78, 0x85,
  0xa4, 0x75, 0x75, 0x73, 0x7c, 0x81, 0x82, 0x89, 0x7f, 0x60, 0x7d, 0x70,
  0x77, 0xbd, 0x7f, 0x8f, 0x7d, 0x88, 0x55, 0x68, 0x5b, 0xfb, 0x77, 0x93,
  0x87, 0x87, 0x5d, 0x85, 0x86, 0xd2, 0x6e, 0x7f, 0x76, 0x8f, 0x99, 0x9e,
  0xd2, 0xcd, 0x9f, 0x7c, 0x9f, 0x90, 0xa4, 0xca, 0xbd, 0x9d, 0x5d, 0x7c,
  0x92, 0x6f, 0xa0, 0xc5, 0x60, 0x72, 0x5d, 0x91, 0x88, 0x85, 0x89, 0x74,
  0xb0, 0x83, 0x5f, 0x68, 0x81, 0x70, 0x70, 0x98, 0x6c, 0x55, 0x5f, 0x5d,
  0x7c, 0x71, 0x5d, 0x8b, 0x8e, 0x79, 0x51, 0x72, 0x84, 0x6a, 0x72, 0x78,
  0x73, 0x86, 0x78, 0x9a, 0xb1, 0x75, 0x88, 0x54, 0x7d, 0x88, 0x5f, 0xc2,
  0x72, 0x71, 0x70, 0x7a, 0xa3, 0x98, 0x7d, 0xb0, 0x83, 0x71, 0x6b, 0x6e,
  0x9c, 0xae, 0x77, 0x88, 0x6f, 0x7d, 0x97, 0x7c, 0x7e, 0x98, 0x61, 0x7d,
  0x7f, 0x7c, 0x8c, 0x6a, 0x71, 0xa9, 0x74, 0x50, 0x81, 0x80, 0x73, 0x7a,
  0x83, 0x93, 0x77, 0x66, 0x6a, 0x7e, 0x7b, 0x7c, 0x88, 0x94, 0x78, 0x73,
  0x58, 0x71, 0x7a, 0x73, 0x84, 0x76, 0x64, 0x5c, 0x7e, 0x74, 0x7f, 0x84,
  0x7a, 0x7e, 0x6a, 0x60, 0x81, 0x8b, 0x72, 0x8a, 0x8b, 0x86, 0x5b, 0x79,
  0x73, 0x7a, 0x76, 0x78, 0x69, 0xce, 0x73, 0x8a, 0x8c, 0x98, 0x81, 0x87,
  0x56, 0xec, 0x7f, 0xa4, 0x77, 0x8e, 0x8c, 0x7e, 0x97, 0xdc, 0x78, 0x60,
  0x7c, 0x89, 0xaf, 0x90, 0xdb, 0xbd, 0x85, 0x9a, 0x76, 0x8e, 0xb7, 0xd9,
  0xb9, 0x9b, 0x67, 0x60, 0x77, 0x87, 0xa5, 0xa7, 0x74, 0x84, 0x55, 0x89,
  0x76, 0x73, 0x89, 0xa7, 0x83, 0x79, 0x66, 0x7c, 0x7d, 0x71, 0x6f, 0x6a,
  0x7d, 0x78, 0x5f, 0x6f, 0x7a, 0x73, 0x61, 0x79, 0x90, 0x6f, 0x4d, 0x7b,
  0x95, 0x85, 0x6e, 0x75, 0x7f, 0x7b, 0x7f, 0x8c, 0x98, 0x63, 0x83, 0x52,
  0x5c, 0x88, 0x74, 0xa8, 0x97, 0x77, 0x87, 0x5e, 0x7c, 0xa8, 0x83, 0xa6,
  0x8c, 0x55, 0x81, 0x8a, 0x79, 0xa9, 0x78, 0x95, 0x63, 0x72, 0x90, 0x70,
  0x6e, 0x9b, 0x6c, 0x72, 0x88, 0x6e, 0x96, 0x7f, 0x84, 0xad, 0x4f, 0x60,
  0x88, 0x77, 0x7f, 0x7f, 0x87, 0x7e, 0x76, 0x63, 0x72, 0x79, 0x7c, 0x7c,
  0x74, 0x7f, 0x77, 0x60, 0x92, 0x71, 0x7e, 0x7e, 0x7d, 0x95, 0x58, 0x6b,
  0x75, 0x6c, 0x8a, 0x80, 0x8f, 0x80, 0x7c, 0x77, 0x9b, 0x80, 0x76, 0x8a,
  0x99, 0x62, 0x6e, 0x87, 0x87, 0x79, 0x75, 0x81, 0x69, 0xbf, 0x76, 0x83,
  0x8d, 0x9d, 0x95, 0x6e, 0x67, 0xdf, 0x82, 0x90, 0x71, 0x7f, 0x89, 0x7c,
  0x7a, 0xea, 0x79, 0x5f, 0x93, 0x84, 0xa7, 0xae, 0xba, 0xc3, 0x95, 0x77,
  0x7a, 0x93, 0xab, 0xc5, 0xcc, 0x8b, 0x67, 0x7d, 0x9b, 0x84, 0xab, 0xae,
  0x8b, 0x6d, 0x50, 0x74, 0x7d, 0x79, 0x90, 0x77, 0xa5, 0x79, 0x60, 0x7b,
  0x7a, 0x64, 0x64, 0x84, 0x7b, 0x81, 0x5d, 0x6a, 0x7f, 0x73, 0x5f, 0x81,
  0x7d, 0x7b, 0x55, 0x82, 0x94, 0x73, 0x6b, 0x6e, 0x62, 0x76, 0x68, 0xa3,
  0xac, 0x66, 0x82, 0x5b, 0x49, 0x97, 0x77, 0xa4, 0x76, 0x68, 0x65, 0x65,
  0x78, 0x9d, 0x81, 0xa3, 0x96, 0x5d, 0x71, 0x6e, 0x80, 0x96, 0x72, 0x82,
  0x74, 0x7a, 0xa3, 0x85, 0x94, 0xaa, 0x60, 0x90, 0x5b, 0x7b, 0x88, 0x79,
  0x71, 0x96, 0x65, 0x67, 0x7e, 0x85, 0x72, 0x8a, 0x93, 0x8d, 0x73, 0x71,
  0x7e, 0x6f, 0x73, 0x7a, 0x78, 0x77, 0x74, 0x81, 0x84, 0x7e, 0x80, 0x8c,
  0x8d, 0x77, 0x67, 0x74, 0x7e, 0x73, 0x83, 0x71, 0x87, 0x73, 0x66, 0x6d,
  0x8f, 0x76, 0x7d, 0x70, 0x84, 0x82, 0x99, 0x8f, 0x9b, 0x82, 0x74, 0x7b,
  0x81, 0xd9, 0x7d, 0x7f, 0x95, 0x85, 0x79, 0x82, 0x7a, 0xda, 0x6d, 0x84,
  0x83, 0x87, 0x6f, 0x8a, 0x81, 0xe3, 0x6c, 0x64, 0x77, 0x83, 0xa3, 0xa2,
  0xc9, 0xcd, 0x9c, 0x8f, 0x71, 0x99, 0xb2, 0xc7, 0xc6, 0xa1, 0x6c, 0x49,
  0x8a, 0x8c, 0xad, 0xc8, 0x8e, 0x80, 0x58, 0x6b, 0x7b, 0x71, 0x96, 0x82,
  0x92, 0x66, 0x58, 0x8b, 0x7e, 0x7d, 0x65, 0x86, 0x80, 0x6c, 0x6d, 0x6a,
  0x68, 0x77, 0x45, 0x78, 0x8a, 0x6e, 0x4a, 0x89, 0x87, 0x72, 0x6d, 0x55,
  0x72, 0x70, 0x71, 0x93, 0x8b, 0x63, 0x81, 0x5a, 0x6d, 0x7d, 0x75, 0xb8,
  0x75, 0x67, 0x74, 0x5a, 0x79, 0xac, 0x8b, 0xa5, 0x7a, 0x66, 0x7a, 0x92,
  0x80, 0x8c, 0x6e, 0x8a, 0x6b, 0x6d, 0x95, 0x8e, 0x83, 0x99, 0x6b, 0x66,
  0x78, 0x7c, 0x78, 0x8f, 0x7f, 0x8a, 0x61, 0x53, 0x90, 0x85, 0x86, 0x69,
  0x5e, 0x85, 0x7a, 0x78, 0x92, 0x80, 0x98, 0x5e, 0x71, 0x81, 0x75, 0x73,
  0x7d, 0x7c, 0x72, 0x72, 0x7b, 0x71, 0x5e, 0x70, 0x61, 0x79, 0x83, 0x95,
  0x74, 0x80, 0x63, 0x6d, 0x75, 0x85, 0x7a, 0x79, 0x85, 0x6e, 0x80, 0x78,
  0x6e, 0x7d, 0x77, 0x7a, 0x85, 0xd5, 0x78, 0x81, 0x8e, 0x81, 0x85, 0x80,
  0x78, 0xe5, 0x6c, 0x87, 0x84, 0x8f, 0x73, 0x61, 0x81, 0xf4, 0x66, 0x78,
  0x84, 0x9b, 0xad, 0x9b, 0xdc, 0xc4, 0xa4, 0x7f, 0x9a, 0xaa, 0xa9, 0xe0,
  0xcd, 0x96, 0x66, 0x57, 0xb4, 0x90, 0xa6, 0xbe, 0x9d, 0x86, 0x60, 0x73,
  0x9e, 0x72, 0x92, 0x9e, 0x8d, 0x7b, 0x84, 0x69, 0x76, 0x68, 0x7e, 0x6a,
  0x75, 0x73, 0x6e, 0x44, 0x61, 0x6f, 0x54, 0x63, 0x6c, 0x5a, 0x5d, 0x78,
  0x95, 0x68, 0x63, 0x69, 0x66, 0x82, 0x73, 0xa0, 0xa1, 0x63, 0x89, 0x6a,
  0x63, 0x83, 0x69, 0xa7, 0x86, 0x70, 0x67, 0x73, 0x6c, 0xb8, 0x83, 0xae,
  0x93, 0x68, 0x6f, 0x71, 0x75, 0x9a, 0x77, 0x95, 0x6f, 0x6b, 0x93, 0x7c,
  0x68, 0xa6, 0x67, 0x73, 0x6a, 0x80, 0x94, 0x70, 0x7f, 0x98, 0x5f, 0x70,
  0x74, 0x71, 0x85, 0x64, 0x85, 0x82, 0x65, 0x6a, 0x74, 0x8b, 0x7f, 0x76,
  0x7d, 0x6e, 0x73, 0x60, 0x83, 0x7e, 0x7d, 0x96, 0x87, 0x78, 0x6a, 0x95,
  0x86, 0x8e, 0x79, 0x8b, 0x88, 0x6f, 0x83, 0x6c, 0x7b, 0x87, 0x89, 0x85,
  0x88, 0x77, 0x69, 0x8f, 0x83, 0x8f, 0x7b, 0x80, 0x80, 0xcd, 0x73, 0x8f,
  0x8d, 0x8f, 0x90, 0x78, 0x72, 0xea, 0x7f, 0x91, 0x7c, 0x81, 0x86, 0x79,
  0x7b, 0xdd, 0x69, 0x98, 0xbc, 0x88, 0xaf, 0x9c, 0xda, 0xcf, 0xa1, 0x64,
  0xa4, 0x8f, 0xb3, 0xd5, 0xa8, 0x94, 0x75, 0x6a, 0x97, 0x93, 0x99, 0xbc,
  0x74, 0x8d, 0x64, 0x6c, 0x82, 0x68, 0x90, 0x6c, 0x83, 0x90, 0x70, 0x63,
  0x76, 0x6a, 0x77, 0x7d, 0x6f, 0x68, 0x69, 0x53, 0x8e, 0x6d, 0x5c, 0x6c,
  0x95, 0x87, 0x4a, 0x8e, 0x98, 0x75, 0x64, 0x4d, 0x7b, 0x78, 0x5c, 0xac,
  0x89, 0x52, 0x7c, 0x79, 0x5a, 0x8d, 0x69, 0x9e, 0x7f, 0x5d, 0x77, 0x49,
  0x7d, 0xa5, 0x73, 0x98, 0x84, 0x63, 0x79, 0x6f, 0x81, 0x95, 0x7b, 0x88,
  0x65, 0x6f, 0xa3, 0x71, 0x69, 0xa3, 0x6c, 0x65, 0x7a, 0x8a, 0x84, 0x9f,
  0x81, 0x90, 0x5a, 0x53, 0x71, 0x79, 0x91, 0x86, 0x63, 0x79, 0x6c, 0x76,
  0x95, 0x92, 0x8e, 0x9f, 0x5c, 0x7f, 0x64, 0x74, 0x5c, 0x7a, 0x80, 0x60,
  0x8f, 0x6d, 0x64, 0x77, 0x7d, 0x88, 0x77, 0x80, 0x83, 0x6c, 0x83, 0x80,
  0x69, 0x83, 0x84, 0x87, 0x8c, 0x75, 0x88, 0x8b, 0xa7, 0x81, 0x73, 0x7f,
  0x61, 0xd7, 0x77, 0x8a, 0x93, 0x89, 0x8d, 0x64, 0x76, 0xe5, 0x75, 0x95,
  0x8e, 0x8e, 0x83, 0x73, 0x86, 0xd6, 0x76, 0x81, 0x8f, 0x88, 0xa2, 0x9b,
  0xce, 0xdb, 0xa3, 0x67, 0x82, 0x96, 0xb5, 0xcf, 0xc1, 0x9a, 0x73, 0x5d,
  0x8b, 0x97, 0xa0, 0xc6, 0x94, 0x7c, 0x5f, 0x7d, 0x82, 0x6c, 0x8d, 0x89,
  0xab, 0x77, 0x66, 0x67, 0x74, 0x5e, 0x7a, 0x95, 0x87, 0x75, 0x5d, 0x60,
  0x67, 0x63, 0x4b, 0x6f, 0x6c, 0x7d, 0x4d, 0x6a, 0xa7, 0x5c, 0x57, 0x63,
  0x78, 0x72, 0x5a, 0x99, 0x8a, 0x5e, 0x7a, 0x6f, 0x5c, 0x8b, 0x60, 0xac,
  0x90, 0x61, 0x78, 0x63, 0x6d, 0x92, 0x7e, 0xa7, 0x9a, 0x6d, 0x6c, 0x8f,
  0x77, 0xa5, 0x6f, 0x86, 0x79, 0x76, 0xa3, 0x89, 0x9c, 0xad, 0x5f, 0x7a,
  0x4d, 0x65, 0x99, 0x8d, 0x63, 0x94, 0x6b, 0x6b, 0x75, 0x7b, 0x83, 0x88,
  0x6b, 0x86, 0x54, 0x7a, 0x80, 0x83, 0x85, 0x96, 0x82, 0x86, 0x58, 0x60,
  0x78, 0x85, 0x89, 0x5c, 0x8c, 0x67, 0x6c, 0x8f, 0x73, 0x7f, 0x84, 0x8f,
  0x87, 0x6a, 0x92, 0x83, 0x6b, 0x88, 0x8d, 0x8c, 0x8e, 0x74, 0x61, 0x90,
  0x77, 0x8e, 0x7a, 0x79, 0x65, 0xd3, 0x71, 0x89, 0x84, 0x81, 0x73, 0x94,
  0x7c, 0xdc, 0x71, 0x9c, 0x85, 0x8f, 0x6c, 0x75, 0x7b, 0xe2, 0x84, 0x5a,
  0x9f, 0x8c, 0x98, 0xa2, 0xda, 0xd9, 0xac, 0x9c, 0xb0, 0x94, 0xa5, 0xdd,
  0xc0, 0x97, 0x79, 0x70, 0xa2, 0x8c, 0xa3, 0xd5, 0x99, 0x81, 0x60, 0x6e,
  0x86, 0x5e, 0x90, 0xa2, 0x70, 0x6d, 0x72, 0x68, 0x96, 0x68, 0x77, 0x7b,
  0x6d, 0x82, 0x52, 0x59, 0x64, 0x66, 0x3e, 0x67, 0x65, 0x80, 0x57, 0x6f,
  0x92, 0x68, 0x54, 0x87, 0x7d, 0x7f, 0x73, 0x92, 0xa0, 0x57, 0x88, 0x49,
  0x7b, 0x85, 0x65, 0xa3, 0x83, 0x65, 0x91, 0x5c, 0x78, 0x94, 0x78, 0x8b,
  0x99, 0x4d, 0x6f, 0x75, 0x7c, 0x96, 0x74, 0x8b, 0x6c, 0x67, 0x97, 0x8b,
  0x6e, 0x9d, 0x63, 0x8f, 0x80, 0x6e, 0x9b, 0x86, 0x69, 0x9b, 0x5a, 0x51,
  0x6e, 0x72, 0x79, 0x86, 0x95, 0x92, 0x55, 0x91, 0x7e, 0x75, 0x89, 0x80,
  0x6d, 0x76, 0x68, 0x83, 0x82, 0x93, 0x7c, 0x85, 0x71, 0x77, 0x6c, 0x61,
  0x89, 0x8f, 0x71, 0x7b, 0x91, 0x76, 0x5c, 0x8b, 0x69, 0x89, 0x94, 0x8f,
  0x99, 0x78, 0x79, 0x68, 0x9c, 0x8e, 0x87, 0x85, 0xa5, 0xd5, 0x6e, 0x8e,
  0x98, 0x85, 0x87, 0x6c, 0x88, 0xe5, 0x6f, 0xa0, 0x86, 0x8c, 0x8e, 0x69,
  0x8f, 0xd9, 0x72, 0x5d, 0xa5, 0x8a, 0x99, 0x95, 0xc5, 0xd5, 0xa9, 0x68,
  0x99, 0x9a, 0xb4, 0xcb, 0x99, 0xac, 0x81, 0x65, 0xbd, 0x83, 0xab, 0xd2,
  0xa3, 0x73, 0x71, 0x69, 0x7c, 0x59, 0x9b, 0x84, 0x89, 0x72, 0x83, 0x81,
  0x64, 0x53, 0x6a, 0x89, 0x6d, 0x79, 0x61, 0x4e, 0x7b, 0x58, 0x43, 0x80,
  0x84, 0x7c, 0x51, 0x69, 0xa3, 0x63, 0x5d, 0x7f, 0x64, 0x7e, 0x59, 0x98,
  0xa9, 0x58, 0x7a, 0x74, 0x78, 0x87, 0x76, 0xa3, 0x95, 0x62, 0x85, 0x62,
  0x6c, 0xa6, 0x88, 0x95, 0x8b, 0x66, 0x79, 0x91, 0x70, 0xa8, 0x76, 0x83,
  0x7b, 0x70, 0x92, 0x64, 0x80, 0x9f, 0x51, 0x93, 0x67, 0x7a, 0x8a, 0x96,
  0x79, 0x91, 0x6e, 0x79, 0x91, 0x69, 0x82, 0x8b, 0x6e, 0x8f, 0x65, 0x85,
  0x80, 0x7e, 0x80, 0x90, 0x82, 0x74, 0x63, 0x5e, 0x71, 0x91, 0x8f, 0x83,
  0x88, 0x6c, 0x52, 0x84, 0x8b, 0x80, 0x7d, 0x87, 0x7a, 0x67, 0x97, 0x85,
  0x5f, 0x81, 0x81, 0x6e, 0x86, 0x69, 0x97, 0x8f, 0x9b, 0x9a, 0x83, 0x77,
  0x9b, 0xc9, 0x77, 0x74, 0x9a, 0x84, 0x70, 0x70, 0x76, 0xde, 0x71, 0xa2,
  0x76, 0x8f, 0x94, 0x80, 0x60, 0xd6, 0x85, 0x77, 0x88, 0x8f, 0x9b, 0x93,
  0xca, 0xca, 0x9f, 0x82, 0x97, 0xa5, 0xa1, 0xdc, 0xae, 0xa7, 0x87, 0x5b,
  0x9f, 0x85, 0xa6, 0xba, 0xa5, 0x88, 0x8e, 0x63, 0xb8, 0x62, 0x7a, 0x87,
  0xa1, 0x80, 0x85, 0x51, 0x7f, 0x5f, 0x76, 0xa1, 0x7f, 0x7f, 0x4f, 0x57,
  0x7b, 0x61, 0x3f, 0x76, 0x74, 0x6c, 0x53, 0x74, 0x9f, 0x64, 0x5b, 0x54,
  0x78, 0x75, 0x71, 0x99, 0x89, 0x52, 0x98, 0x76, 0x99, 0x85, 0x71, 0x9e,
  0x8b, 0x5a, 0x7e, 0x66, 0x74, 0x91, 0x7d, 0x9d, 0x8c, 0x63, 0x5e, 0x68,
  0x7f, 0x9d, 0x73, 0x8d, 0x80, 0x6d, 0x90, 0x88, 0x8f, 0x9d, 0x65, 0x72,
  0x6a, 0x7a, 0xa0, 0x66, 0x8d, 0xac, 0x61, 0x81, 0x67, 0x76, 0x87, 0x95,
  0x53, 0x89, 0x53, 0x71, 0x8a, 0x80, 0x81, 0x7a, 0x7a, 0x7d, 0x67, 0x76,
  0x96, 0x7b, 0x74, 0x80, 0x7e, 0x7f, 0x6e, 0x7b, 0x88, 0x93, 0x85, 0x5b,
  0x7d, 0x65, 0x8d, 0xa0, 0x95, 0x8c, 0x84, 0x85, 0x83, 0x79, 0x7a, 0x79,
  0x81, 0x91, 0x88, 0x8f, 0x92, 0xcb, 0x7b, 0x9d, 0x86, 0x91, 0x89, 0x82,
  0x9e, 0xd2, 0x71, 0x96, 0x83, 0x8b, 0x92, 0x7f, 0x74, 0xd7, 0x75, 0x86,
  0xae, 0xa2, 0x8e, 0x9a, 0xcd, 0xc4, 0xa3, 0x78, 0x7c, 0xb0, 0x9c, 0xd1,
  0xb1, 0x8b, 0x8b, 0x8e, 0x98, 0x80, 0xa3, 0xbf, 0x95, 0x7a, 0x71, 0x78,
  0x94, 0x56, 0x8d, 0xab, 0x83, 0x90, 0x70, 0x67, 0x93, 0x4a, 0x59, 0x7b,
  0x71, 0x6f, 0x6c, 0x4c, 0x6e, 0x63, 0x51, 0x6a, 0x67, 0x68, 0x5f, 0x6f,
  0x89, 0x5f, 0x63, 0x74, 0x6e, 0x6e, 0x5e, 0x93, 0x91, 0x57, 0x82, 0x69,
  0x59, 0x87, 0x68, 0x97, 0x95, 0x60, 0x88, 0x84, 0x82, 0x95, 0x7f, 0x9f,
  0x84, 0x5f, 0x6b, 0x59, 0x74, 0x95, 0x70, 0x94, 0x88, 0x5d, 0x99, 0x85,
  0x68, 0x92, 0x59, 0x81, 0x88, 0x7d, 0x9e, 0xa4, 0x91, 0xa6, 0x68, 0x5f,
  0x7e, 0x7b, 0x72, 0x79, 0x62, 0x89, 0x56, 0x64, 0x96, 0x83, 0x81, 0x68,
  0x74, 0x82, 0x65, 0x6e, 0x72, 0x76, 0x8a, 0x9b, 0x6a, 0x7d, 0x5f, 0x89,
  0x91, 0x8f, 0x91, 0x90, 0x74, 0x7a, 0x8f, 0x9a, 0x8c, 0x8a, 0x90, 0x81,
  0x7d, 0x6e, 0x77, 0x8f, 0x89, 0x89, 0x76, 0x80, 0x91, 0xc4, 0x82, 0x94,
  0x87, 0x8a, 0x84, 0x60, 0x72, 0xdf, 0x6e, 0x98, 0x8c, 0x93, 0xa3, 0x7b,
  0x8b, 0xd1, 0x6e, 0x90, 0xa2, 0x97, 0x8b, 0x9a, 0xdd, 0xbf, 0x91, 0xa4,
  0x87, 0xa7, 0xaa, 0xb4, 0x97, 0x97, 0x82, 0x8d, 0x7e, 0x93, 0xa1, 0xc1,
  0x99, 0x89, 0x83, 0x63, 0x8d, 0x70, 0x95, 0x7a, 0x78, 0x6b, 0x78, 0x83,
  0x90, 0x4f, 0x4c, 0x8e, 0x6d, 0x84, 0x4e, 0x63, 0x52, 0x5c, 0x59, 0x5d,
  0x6b, 0x7b, 0x42, 0x7b, 0x81, 0x67, 0x59, 0x70, 0x68, 0x62, 0x69, 0x9b,
  0x95, 0x60, 0x7e, 0x52, 0x73, 0x88, 0x64, 0xb0, 0x89, 0x5f, 0x62, 0x5b,
  0x6a, 0x93, 0x7d, 0x98, 0x88, 0x72, 0x71, 0x53, 0x8c, 0x9e, 0x78, 0x8a,
  0x8c, 0x86, 0x92, 0x73, 0x79, 0xa9, 0x70, 0x76, 0x85, 0x71, 0x83, 0x9a,
  0x63, 0x90, 0x55, 0x5f, 0x81, 0x7c, 0x75, 0x7a, 0x99, 0xa2, 0x72, 0x83,
  0x7c, 0x89, 0x81, 0x9b, 0x81, 0x74, 0x71, 0x6f, 0x85, 0x85, 0x99, 0x99,
  0x89, 0x71, 0x68, 0x91, 0x7d, 0x86, 0x88, 0x7b, 0x87, 0x76, 0x68, 0x96,
  0x96, 0x8f, 0x91, 0x6b, 0x7f, 0x6e, 0x82, 0x88, 0x68, 0x96, 0x76, 0x7f,
  0x6e, 0xc6, 0x6e, 0x87, 0x82, 0x81, 0x7b, 0x72, 0x79, 0xe5, 0x65, 0x8a,
  0xa9, 0x8f, 0x7c, 0x74, 0x61, 0xd8, 0x7c, 0x8e, 0x97, 0xa1, 0x95, 0x95,
  0xc9, 0xb4, 0x8e, 0x7a, 0x89, 0xac, 0xa2, 0xd8, 0xb7, 0x90, 0x8b, 0x71,
  0x91, 0x8f, 0xb6, 0xc3, 0x92, 0x88, 0x6b, 0x77, 0x86, 0x56, 0x8a, 0x68,
  0x7a, 0x6d, 0x89, 0x70, 0x89, 0x5a, 0x61, 0x8d, 0x92, 0x6c, 0x50, 0x56,
  0x6d, 0x5c, 0x46, 0x81, 0x5a, 0x87, 0x59, 0x92, 0xae, 0x6a, 0x6f, 0x75,
  0x6e, 0x74, 0x72, 0x9a, 0x96, 0x53, 0x82, 0x70, 0x5a, 0x85, 0x67, 0xab,
  0x7c, 0x65, 0x76, 0x6f, 0x57, 0x8d, 0x74, 0x8e, 0x95, 0x61, 0x63, 0x77,
  0x6e, 0xa3, 0x76, 0x99, 0x7e, 0x78, 0x7c, 0x8f, 0x8e, 0xa7, 0x74, 0x89,
  0x84, 0x78, 0x8c, 0x80, 0x83, 0x88, 0x5f, 0x63, 0x7f, 0x7d, 0x89, 0x8a,
  0x8b, 0x77, 0x6a, 0x68, 0x84, 0x76, 0x90, 0x82, 0x93, 0x7a, 0x66, 0x83,
  0x8d, 0x73, 0x87, 0x7e, 0x89, 0x68, 0x71, 0x82, 0x81, 0x92, 0x95, 0x68,
  0x6e, 0x6d, 0x7b, 0x7f, 0x55, 0x81, 0x80, 0x72, 0x7b, 0x76, 0x7e, 0x70,
  0x85, 0x9b, 0x7c, 0x80, 0x65, 0xcd, 0x72, 0x94, 0x7a, 0x87, 0xa0, 0x6d,
  0x5d, 0xca, 0x64, 0x80, 0xa3, 0x8c, 0x88, 0x59, 0x87, 0xc5, 0x56, 0x91,
  0x9d, 0x9a, 0x91, 0x84, 0xc6, 0xc9, 0x9f, 0x8c, 0x99, 0xab, 0xa7, 0xdd,
  0xb1, 0xa3, 0x90, 0x8a, 0x8b, 0x7a, 0xb1, 0x9f, 0xa8, 0x86, 0x74, 0x69,
  0x9e, 0x48, 0x8d, 0x6b, 0x9b, 0x78, 0x63, 0x56, 0x86, 0x65, 0x53, 0x75,
  0x6a, 0x7b, 0x61, 0x5e, 0x61, 0x60, 0x37, 0x71, 0x90, 0x93, 0x60, 0x73,
  0x84, 0x6a, 0x57, 0x81, 0x81, 0x8e, 0x5b, 0x95, 0x95, 0x58, 0x90, 0x79,
  0x77, 0x74, 0x6e, 0x9d, 0x80, 0x66, 0x78, 0x85, 0x92, 0xa5, 0x81, 0x85,
  0x95, 0x5b, 0x57, 0x88, 0x64, 0x9d, 0x86, 0x9a, 0x7e, 0x78, 0x98, 0x88,
  0x66, 0x95, 0x72, 0x7b, 0x60, 0x72, 0x8c, 0x78, 0x77, 0xa9, 0x5c, 0x75,
  0x8d, 0x71, 0x8d, 0x71, 0x79, 0x7c, 0x5e, 0x89, 0x7c, 0x85, 0x7e, 0xa4,
  0x5d, 0x7f, 0x59, 0x76, 0x6e, 0x82, 0x92, 0x83, 0x79, 0x70, 0x74, 0x8c,
  0x89, 0x90, 0xa3, 0x7a, 0x90, 0x65, 0x98, 0x85, 0x5d, 0x8a, 0x6c, 0x7c,
  0x73, 0x74, 0x88, 0x73, 0x8f, 0x96, 0x77, 0x83, 0x6e, 0xc1, 0x7b, 0x78,
  0x98, 0x7d, 0x8f, 0x88, 0x8b, 0xb1, 0x7e, 0x91, 0x92, 0x8e, 0x85, 0x62,
  0x8f, 0xca, 0x8b, 0x91, 0x7f, 0x98, 0x9c, 0x76, 0xb0, 0xb7, 0xb7, 0x6c,
  0x7b, 0xa9, 0xa8, 0xb2, 0xa9, 0x88, 0x83, 0x63, 0x94, 0x7a, 0xa8, 0xa7,
  0xb6, 0x82, 0x92, 0x95, 0x83, 0x47, 0xa9, 0x90, 0x92, 0x68, 0x73, 0x77,
  0x86, 0x53, 0x5a, 0x94, 0x6c, 0x76, 0x65, 0x51, 0x5f, 0x70, 0x4d, 0x93,
  0x6b, 0x76, 0x6a, 0x7c, 0xa5, 0x73, 0x7b, 0x83, 0x73, 0x7c, 0x5f, 0x78,
  0xa1, 0x68, 0x74, 0x7b, 0x69, 0x7a, 0x6f, 0x9a, 0x90, 0x59, 0x64, 0x58,
  0x75, 0x7e, 0x78, 0x8b, 0x85, 0x6e, 0x61, 0x75, 0x83, 0x8b, 0x80, 0x83,
  0x85, 0x6b, 0x8b, 0x74, 0x99, 0x9e, 0x7b, 0x75, 0x5c, 0x72, 0x9f, 0x78,
  0x73, 0x90, 0x62, 0x6b, 0x7e, 0x85, 0x77, 0x7a, 0x96, 0x84, 0x77, 0x67,
  0x82, 0x7b, 0x94, 0x87, 0x8e, 0x98, 0x7c, 0x64, 0x65, 0x79, 0x97, 0x86,
  0x93, 0x6d, 0x62, 0x75, 0x65, 0x85, 0x80, 0x58, 0x8d, 0x79, 0x8d, 0x7a,
  0x95, 0x83, 0x87, 0x63, 0x8f, 0x70, 0x7a, 0x94, 0xa2, 0x95, 0x73, 0x9d,
  0x88, 0xa1, 0x68, 0x6c, 0xb0, 0x8a, 0x8b, 0x7d, 0x8c, 0xb0, 0x71, 0x5d,
  0x85, 0x78, 0xa0, 0x8a, 0x73, 0xb0, 0xa3, 0x81, 0x91, 0xb7, 0x97, 0x8d,
  0xa8, 0x9d, 0xab, 0x83, 0x93, 0xac, 0xc8, 0xa5, 0x99, 0x89, 0x70, 0x79,
  0x92, 0x7c, 0xa0, 0xa6, 0x86, 0x6e, 0x93, 0x86, 0x7a, 0x6f, 0x75, 0x82,
  0x83, 0x72, 0x8b, 0x6e, 0x8f, 0x5d, 0x5b, 0x92, 0x8c, 0x5f, 0x6f, 0x4d,
  0x75, 0x6f, 0x6d, 0x7f, 0xa5, 0x76, 0x60, 0x5a, 0x80, 0x65, 0x68, 0x8e,
  0x87, 0x69, 0x61, 0x7d, 0x7e, 0x76, 0x66, 0x77, 0x66, 0x76, 0x61, 0x84,
  0x7d, 0x78, 0x85, 0x6c, 0x77, 0x90, 0x64, 0x88, 0x87, 0x78, 0x74, 0x7d,
  0x83, 0x95, 0x8d, 0x75, 0x85, 0x7d, 0x71, 0x85, 0x99, 0x93, 0x89, 0x7b,
  0x74, 0x84, 0x8a, 0x81, 0xab, 0x8a, 0x70, 0x62, 0x8c, 0x76, 0x94, 0x89,
  0x81, 0x84, 0x79, 0x7a, 0x88, 0x7e, 0x8a, 0x8e, 0x6a, 0x73, 0x7a, 0x73,
  0x6c, 0x8e, 0x8a, 0x89, 0x83, 0x76, 0x78, 0x80, 0x8f, 0x88, 0x7a, 0x6d,
  0x8b, 0x7d, 0x96, 0x81, 0x8f, 0x8c, 0x79, 0x6c, 0x6f, 0x7e, 0x7f, 0xa5,
  0x92, 0x92, 0x76, 0x66, 0x73, 0xa3, 0x77, 0x74, 0x78, 0x7e, 0x7c, 0x8e,
  0x71, 0xcc, 0x74, 0x7b, 0x80, 0x8d, 0x90, 0x89, 0x73, 0xee, 0x90, 0xa4,
  0x82, 0xa6, 0xa2, 0x6d, 0xa4, 0xb8, 0xa2, 0x7e, 0x6e, 0xc1, 0xbd, 0x90,
  0x7a, 0x91, 0x6b, 0x78, 0x69, 0x7d, 0xc0, 0x91, 0x6f, 0x67, 0x72, 0x9e,
  0x7b, 0x65, 0x7a, 0x85, 0xa7, 0x6b, 0x8a, 0x80, 0x81, 0x6d, 0x4c, 0x89,
  0xa4, 0x7b, 0x68, 0x78, 0x77, 0x7c, 0x5c, 0x86, 0x85, 0x7b, 0x5f, 0x7b,
  0x7f, 0x6f, 0x68, 0x82, 0x83, 0x65, 0x76, 0x70, 0x82, 0x5c, 0x6e, 0x91,
  0x92, 0x8a, 0x7a, 0x6f, 0xa5, 0x7f, 0x6d, 0x66, 0x77, 0x84, 0x77, 0x83,
  0x9d, 0x80, 0x93, 0x89, 0x5b, 0xaa, 0x83, 0x7d, 0x7c, 0x8d, 0x89, 0x91,
  0x8b, 0xa2, 0x81, 0x77, 0x7e, 0x83, 0x8f, 0x96, 0x72, 0x7d, 0x79, 0x6c,
  0x91, 0x91, 0x7f, 0x9c, 0x85, 0x99, 0x6e, 0x70, 0x72, 0x79, 0x87, 0x7b,
  0x91, 0x7f, 0x7b, 0x63, 0x70, 0x89, 0x7a, 0xa8, 0x70, 0x87, 0x66, 0x71,
  0x6c, 0x86, 0x86, 0x77, 0x71, 0x65, 0x7a, 0x85, 0x99, 0x85, 0x6f, 0x90,
  0x7b, 0x71, 0x7b, 0x7d, 0x7c, 0xa5, 0x64, 0xa6, 0x91, 0x80, 0x7c, 0x9c,
  0x88, 0x8f, 0x8b, 0x8d, 0x94, 0x7e, 0x6d, 0x97, 0x8a, 0x86, 0x82, 0x58,
  0x72, 0x66, 0x57, 0x78, 0x7d, 0x7d, 0x2e, 0x6a, 0x7f, 0x68, 0x78, 0x5d,
  0x87, 0x88, 0x50, 0x6d, 0x84, 0x69, 0x6a, 0x8c, 0x9d, 0x76, 0x75, 0x68,
  0x9a, 0x89, 0x7a, 0x7e, 0x73, 0x66, 0x58, 0x95, 0x9d, 0x7e, 0x6a, 0x9e,
  0x83, 0x6d, 0x52, 0xa1, 0x77, 0x8b, 0x8d, 0x67, 0x62, 0x97, 0x7b, 0x91,
  0x8a, 0x8c, 0x75, 0x59, 0x99, 0x63, 0x72, 0x8a, 0x86, 0x8d, 0x73, 0x89,
  0x8f, 0x90, 0x7e, 0x99, 0x98, 0x8c, 0x75, 0x87, 0x59, 0xa9, 0x5d, 0x6b,
  0x7d, 0x85, 0x8e, 0x79, 0x7a, 0x5c, 0x7e, 0x96, 0x5d, 0x83, 0x82, 0x67,
  0xa9, 0x5e, 0x5d, 0x64, 0x76, 0x8d, 0x5d, 0x90, 0x87, 0x75, 0x8b, 0x70,
  0x7b, 0x8b, 0x81, 0x94, 0x83, 0x73, 0x78, 0x8f, 0x6f, 0x72, 0x71, 0x73,
  0x93, 0x96, 0x97, 0x71, 0x66, 0x89, 0x70, 0x82, 0x78, 0x8d, 0x82, 0xa9,
  0x98, 0x76, 0x6e, 0x8f, 0xa3, 0x7f, 0x7a, 0x93, 0x6d, 0x7e, 0xa0, 0x9c,
  0x6f, 0x78, 0x80, 0x63, 0x8d, 0x81, 0x9a, 0x8e, 0x62, 0x72, 0x85, 0x84,
  0x6d, 0x71, 0x81, 0x7f, 0x83, 0x8c, 0x6f, 0x66, 0x9d, 0x7b, 0x91, 0x79,
  0x93, 0x77, 0x6c, 0x77, 0xa0, 0x84, 0x7f, 0x80, 0x76, 0x98, 0x4c, 0x8e,
  0x7b, 0x7b, 0x87, 0x6f, 0x7c, 0x92, 0x70, 0x5a, 0x8d, 0x7a, 0x7c, 0xa2,
  0x69, 0x7a, 0x64, 0x9b, 0x7f, 0x87, 0x6a, 0x5e, 0x93, 0xa8, 0x88, 0x8d,
  0xa1, 0x7b, 0x6d, 0x7b, 0x77, 0x97, 0x5d, 0x7d, 0x75, 0x80, 0x6b, 0x5f,
  0x7b, 0x88, 0x8a, 0x7b, 0x78, 0x84, 0x9a, 0x87, 0x77, 0x91, 0x97, 0x73,
  0x60, 0x83, 0x74, 0x7e, 0x7b, 0x9c, 0x75, 0x8a, 0x70, 0x7c, 0x88, 0x91,
  0x8b, 0x9b, 0x51, 0x72, 0x79, 0x77, 0x63, 0xa8, 0x8f, 0x85, 0x6b, 0x68,
  0x5c, 0x7f, 0x80, 0x79, 0x61, 0x95, 0x67, 0x83, 0x88, 0x78, 0x6e, 0x91,
  0x72, 0x8b, 0x81, 0x78, 0x89, 0x7d, 0x78, 0x6f, 0x90, 0x79, 0x80, 0x9d,
  0x8d, 0x80, 0x7a, 0x75, 0x65, 0x78, 0x8a, 0x6e, 0x87, 0x84, 0x76, 0x85,
  0x9e, 0x94, 0x72, 0x80, 0x76, 0x84, 0x8e, 0x72, 0x6f, 0x7d, 0x85, 0x6f,
  0x66, 0x80, 0x94, 0x90, 0x82, 0x85, 0x81, 0x70, 0x60, 0x7b, 0x7a, 0x7f,
  0x6b, 0x7f, 0x8a, 0x7b, 0x84, 0x68, 0x84, 0x8b, 0x6f, 0x68, 0x98, 0x6f,
  0x60, 0x54, 0x8f, 0x80, 0x88, 0x81, 0x66, 0x6f, 0x93, 0x87, 0x79, 0x95,
  0x95, 0x94, 0x5d, 0x63, 0x7a, 0x7b, 0x82, 0x95, 0x89, 0x63, 0x66, 0x63,
  0x9b, 0x82, 0x71, 0x84, 0x7a, 0x80, 0x86, 0x89, 0x8a, 0x79, 0x6e, 0x82,
  0x91, 0x89, 0x6c, 0x82, 0xa2, 0x77, 0x70, 0x7f, 0x9b, 0x6b, 0x6f, 0x91,
  0x81, 0x6d, 0x6f, 0x82, 0x80, 0x75, 0xa1, 0x92, 0x8e, 0x96, 0x78, 0x77,
  0x63, 0x59, 0x9b, 0x76, 0x71, 0x76, 0x68, 0x79, 0x7a, 0x73, 0x8e, 0x75,
  0x78, 0x89, 0x86, 0xa7, 0x63, 0x7f, 0x6b, 0x9a, 0x66, 0x83, 0x90, 0x94,
  0x58, 0x7e, 0x54, 0x94, 0x68, 0x80, 0x7e, 0x92, 0x74, 0x6b, 0x7b, 0x7c,
  0x77, 0x88, 0x7f, 0x71, 0x75, 0x80, 0x84, 0x92, 0xa4, 0x91, 0x75, 0x6c,
  0x70, 0x8e, 0x82, 0x93, 0x62, 0x81, 0x83, 0x8d, 0x72, 0x93, 0x84, 0x84,
  0x8b, 0x94, 0x75, 0x97, 0x81, 0x76, 0x66, 0x8e, 0x86, 0x90, 0x74, 0x68,
  0x8f, 0x98, 0x78, 0x71, 0x8a, 0x8d, 0x9a, 0x6e, 0x92, 0x81, 0x83, 0x7e,
  0x82, 0x77, 0x74, 0x6e, 0x64, 0x95, 0x8e, 0x89, 0x82, 0x7e, 0x90, 0x88,
  0x6e, 0x78, 0x5a, 0x82, 0x80, 0x70, 0x8c, 0x81, 0x83, 0x87, 0x6b, 0x95,
  0x7d, 0x79, 0x8a, 0x7f, 0x8e, 0x66, 0x6c, 0x7b, 0x65, 0x78, 0x4a, 0x91,
  0x8d, 0x78, 0x94, 0x5b, 0x65, 0x6d, 0x45, 0x98, 0x72, 0x95, 0xa0, 0x73,
  0x81, 0x8a, 0x4f, 0x83, 0x8b, 0x87, 0x77, 0x8d, 0x7b, 0x68, 0x69, 0x70,
  0x86, 0x90, 0x80, 0x69, 0x84, 0x68, 0x58, 0x67, 0x77, 0x71, 0xaf, 0x76,
  0x79, 0x69, 0x51, 0x64, 0x8a, 0x83, 0x9e, 0x66, 0x72, 0x91, 0x7f, 0x94,
  0x71, 0x6a, 0x97, 0x6a, 0xa8, 0x82, 0x96, 0x91, 0x66, 0x83, 0x76, 0x66,
  0x83, 0x8f, 0xaf, 0x79, 0x8e, 0x6d, 0x5a, 0x93, 0x94, 0x85, 0x96, 0x7b,
  0x81, 0x8b, 0x65, 0x69, 0x7e, 0x89, 0x79, 0x74, 0x80, 0x74, 0x8b, 0x66,
  0x77, 0x86, 0x93, 0x7d, 0x9d, 0x86, 0x87, 0x95, 0x78, 0x94, 0x7b, 0x71,
  0x86, 0x82, 0x85, 0x9c, 0x69, 0x94, 0x73, 0x8b, 0x5d, 0x78, 0x6d, 0x5a,
  0x84, 0x83, 0x61, 0x7b, 0x91, 0xa0, 0x74, 0x82, 0x8f, 0x94, 0x7c, 0x78,
  0x94, 0x88, 0x87, 0x75, 0x6a, 0x75, 0x87, 0x77, 0x77, 0x83, 0x79, 0x8a,
  0x83, 0x5b, 0x92, 0x89, 0x6f, 0x89, 0x85, 0xa0, 0x63, 0x83, 0x8a, 0x93,
  0x79, 0x5f, 0x75, 0x59, 0x83, 0x70, 0x66, 0x6b, 0x97, 0x6b, 0x67, 0x96,
  0x65, 0x6e, 0x4f, 0x6a, 0x7a, 0x66, 0x95, 0x71, 0x5f, 0x73, 0x51, 0x89,
  0x9a, 0x7c, 0xa4, 0x4a, 0xa1, 0x5c, 0x5a, 0x6e, 0x78, 0x6c, 0x87, 0x59,
  0x98, 0x4d, 0x5e, 0x7d, 0x8e, 0x6a, 0x8b, 0x63, 0x69, 0x6c, 0x4f, 0x76,
  0xb1, 0x72, 0xc6, 0x66, 0x7a, 0x74, 0x4c, 0x85, 0x92, 0x44, 0xbe, 0x70,
  0x6b, 0x9f, 0x7e, 0x6a, 0x7c, 0x81, 0x8b, 0x8a, 0x75, 0xae, 0x90, 0x9a,
  0x69, 0x96, 0x54, 0x8f, 0x9d, 0xa3, 0x80, 0x92, 0x7d, 0x58, 0x78, 0x87,
  0x86, 0x89, 0x86, 0xa7, 0x6b, 0x7d, 0x72, 0x85, 0x6f, 0x7b, 0x71, 0x8b,
  0x87, 0x85, 0x7b, 0x65, 0x67, 0x6b, 0x61, 0x69, 0x72, 0x88, 0xa7, 0x73,
  0x60, 0x9c, 0x78, 0x62, 0x8d, 0x7d, 0x91, 0x77, 0x63, 0x8a, 0x78, 0x63,
  0x71, 0x99, 0x7f, 0x97, 0x6f, 0x93, 0x7e, 0x7b, 0x79, 0x76, 0x7c, 0x8c,
  0x82, 0x7b, 0x7e, 0x71, 0x79, 0x86, 0x83, 0x79, 0x87, 0x8e, 0x87, 0x55,
  0x69, 0x5f, 0x87, 0x8b, 0x7f, 0x5e, 0x8e, 0x7d, 0x74, 0x72, 0xa0, 0x7d,
  0x8f, 0x77, 0x8a, 0x9a, 0x63, 0x73, 0x7a, 0x68, 0x8f, 0x74, 0x74, 0x9f,
  0x7e, 0x8c, 0x79, 0x6b, 0x82, 0x66, 0x5e, 0x7b, 0x8d, 0x85, 0xa0, 0x68,
  0x4f, 0x80, 0x47, 0x81, 0x9f, 0x7c, 0xbb, 0x7e, 0x6b, 0x66, 0x56, 0x5e,
  0x8a, 0x79, 0x8d, 0x79, 0x8a, 0x6d, 0x4e, 0x49, 0x6b, 0x5c, 0x8b, 0x7a,
  0x7f, 0x54, 0x38, 0x64, 0xa8, 0x5d, 0xc5, 0x90, 0x53, 0x94, 0x3d, 0x82,
  0xa8, 0x67, 0xc0, 0x77, 0x78, 0x9b, 0x71, 0x82, 0x97, 0x6a, 0x8a, 0x77,
  0x75, 0x86, 0x74, 0x83, 0x77, 0x61, 0x72, 0x7c, 0x76, 0x89, 0x7d, 0x6d,
  0x9e, 0x5d, 0x6a, 0x7a, 0x61, 0x7e, 0x85, 0x9e, 0x82, 0x6d, 0x77, 0xa3,
  0x81, 0x7d, 0x7e, 0x6b, 0x89, 0x62, 0x8b, 0x73, 0x7f, 0x7a, 0x83, 0x7d,
  0x87, 0x7e, 0x9d, 0x7c, 0x7d, 0x87, 0x5b, 0x62, 0x94, 0x5f, 0x92, 0x85,
  0x72, 0x7e, 0x76, 0x64, 0x6b, 0x87, 0x72, 0x8e, 0x6b, 0x9a, 0x72, 0x73,
  0x7c, 0x88, 0x91, 0x6f, 0x92, 0x7e, 0x84, 0x83, 0x73, 0x7b, 0x79, 0x8e,
  0x9b, 0x94, 0x94, 0x6f, 0x85, 0x72, 0x8c, 0x93, 0x83, 0x63, 0x87, 0x84,
  0x79, 0x8f, 0x93, 0x88, 0x8b, 0x66, 0x8a, 0xaa, 0x6f, 0x60, 0x79, 0x6d,
  0x7c, 0x64, 0x75, 0x69, 0x72, 0x8d, 0x7e, 0x73, 0x6c, 0x76, 0x40, 0x5b,
  0x8e, 0x75, 0xa0, 0x6a, 0x6f, 0x68, 0x3c, 0x76, 0x9c, 0x77, 0xaa, 0x6f,
  0x5f, 0x87, 0x6d, 0x6b, 0xa1, 0x75, 0x92, 0x79, 0x57, 0x7b, 0x44, 0x7a,
  0x93, 0x79, 0xa6, 0x74, 0x65, 0x63, 0x41, 0x72, 0xae, 0x5c, 0xaa, 0x69,
  0x63, 0x70, 0x49, 0x8a, 0xbc, 0x6c, 0xbb, 0x7e, 0x5c, 0x96, 0x86, 0x85,
  0x95, 0x69, 0x93, 0x92, 0x7e, 0x9a, 0x71, 0x76, 0x7b, 0x61, 0x66, 0x66,
  0x8e, 0x93, 0x85, 0x8b, 0xac, 0x71, 0x75, 0x7e, 0xa1, 0x6e, 0x7b, 0x90,
  0x92, 0x62, 0x6c, 0x70, 0x9a, 0x81, 0x7a, 0x7e, 0x88, 0x69, 0x6a, 0x7d,
  0x82, 0x6a, 0x80, 0x8b, 0x84, 0x79, 0x7b, 0x7f, 0x6f, 0x76, 0x75, 0x79,
  0x7f, 0x54, 0x91, 0x5c, 0x89, 0x89, 0x7e, 0x81, 0x87, 0x77, 0x81, 0x73,
  0x87, 0x9e, 0x8a, 0x88, 0x5f, 0x60, 0x70, 0x80, 0x83, 0x91, 0x7d, 0x86,
  0x98, 0x6c, 0x84, 0x7a, 0x75, 0x8f, 0x8e, 0x8e, 0x93, 0x64, 0x82, 0x7c,
  0x84, 0x72, 0x7d, 0x84, 0x76, 0x8c, 0x8d, 0x79, 0x7b, 0x57, 0x87, 0xb7,
  0x84, 0x97, 0x8c, 0x7b, 0x72, 0x6a, 0x7d, 0x86, 0xac, 0x8e, 0x89, 0x7f,
  0x7f, 0x84, 0x4c, 0x68, 0x72, 0x81, 0xa3, 0x72, 0x79, 0x59, 0x23, 0x66,
  0xa3, 0x7e, 0xac, 0x59, 0x68, 0x71, 0x4e, 0x7c, 0xa3, 0x7a, 0x86, 0x6c,
  0x93, 0x73, 0x3b, 0x6e, 0xa2, 0x6a, 0x9c, 0x5d, 0x97, 0x6f, 0x37, 0x90,
  0xb4, 0x5e, 0xb3, 0x85, 0x81, 0x7f, 0x50, 0x93, 0xab, 0x4d, 0xc1, 0x67,
  0x71, 0x7e, 0x6d, 0x80, 0x9c, 0x6b, 0x8b, 0x98, 0x7b, 0x77, 0x67, 0x7c,
  0x80, 0x67, 0x60, 0x79, 0x79, 0x8c, 0x7e, 0x7d, 0x90, 0x78, 0x50, 0x6a,
  0x70, 0x73, 0x91, 0x81, 0x7c, 0x6d, 0x7a, 0x8d, 0x94, 0x8a, 0x93, 0xa1,
  0x99, 0x61, 0x7b, 0x80, 0x77, 0x69, 0x87, 0xa7, 0x7e, 0x69, 0x86, 0x5e,
  0x78, 0x86, 0x81, 0x8b, 0x8f, 0x56, 0x92, 0x73, 0x8b, 0x70, 0x8c, 0x87,
  0xa1, 0x54, 0x8f, 0x72, 0x80, 0x86, 0x67, 0x6b, 0x8b, 0x64, 0x70, 0x79,
  0x74, 0x8f, 0x70, 0x61, 0x6b, 0x6b, 0x87, 0x79, 0x6d, 0x85, 0x63, 0x8b,
  0x89, 0x65, 0x81, 0x80, 0x6c, 0x79, 0x77, 0x85, 0x65, 0x85, 0x8a, 0xa7,
  0x8a, 0x70, 0x7d, 0xa8, 0x66, 0x85, 0x74, 0x87, 0x7b, 0x67, 0x74, 0x88,
  0x9b, 0x8e, 0x6f, 0x72, 0x5b, 0x65, 0x4f, 0x7b, 0x7b, 0x82, 0x97, 0x52,
  0x6a, 0x76, 0x0f, 0x5e, 0x71, 0x70, 0xa4, 0x39, 0x4c, 0x85, 0x49, 0x72,
  0x83, 0x78, 0x95, 0x51, 0x6a, 0x6e, 0x52, 0x7d, 0x82, 0x7b, 0x8c, 0x70,
  0x7f, 0x56, 0x2e, 0x97, 0xca, 0x59, 0xc5, 0x69, 0x68, 0x6b, 0x50, 0x9b,
  0xac, 0x4d, 0xc2, 0x85, 0x69, 0x89, 0x67, 0x84, 0x9c, 0x7e, 0x9d, 0x8f,
  0x80, 0x94, 0x71, 0x86, 0x94, 0x7d, 0x57, 0x80, 0x85, 0x81, 0x6d, 0x8e,
  0x80, 0x76, 0x51, 0x83, 0x82, 0x7d, 0x86, 0x8d, 0x85, 0x75, 0x78, 0x65,
  0x95, 0x7c, 0x91, 0xa7, 0x88, 0x6c, 0x7e, 0x77, 0x83, 0x82, 0x92, 0x8d,
  0x88, 0x63, 0x75, 0x54, 0xa1, 0x6b, 0x82, 0x90, 0x84, 0x58, 0x97, 0x7b,
  0x90, 0x84, 0x88, 0xa0, 0x65, 0x55, 0x82, 0x6e, 0x65, 0x73, 0x83, 0x74,
  0x86, 0x6b, 0x7f, 0x6a, 0x56, 0x80, 0x7e, 0x77, 0x94, 0x72, 0x79, 0x75,
  0x83, 0x91, 0x80, 0xa2, 0x98, 0x71, 0x7f, 0x82, 0x91, 0x58, 0x70, 0x86,
  0x7e, 0x93, 0x89, 0x68, 0x9b, 0x69, 0x83, 0xb9, 0x7d, 0x81, 0x8a, 0x70,
  0x52, 0x77, 0x6e, 0x81, 0x9b, 0x8d, 0x7a, 0x7d, 0x82, 0x71, 0x37, 0x61,
  0x85, 0x7f, 0xa1, 0x6b, 0x63, 0x68, 0x1a, 0x6a, 0x79, 0x69, 0xbe, 0x65,
  0x53, 0x8a, 0x3d, 0x66, 0x81, 0x7c, 0x93, 0x99, 0x6b, 0x59, 0x3d, 0x73,
  0xaf, 0x72, 0x93, 0x79, 0x83, 0x88, 0x47, 0x95, 0xc7, 0x64, 0xca, 0x61,
  0x44, 0x90, 0x3b, 0x88, 0xb8, 0x5d, 0xb9, 0x5a, 0x6e, 0x92, 0x73, 0x6e,
  0x8f, 0x72, 0x8d, 0x70, 0x81, 0x7b, 0x74, 0x67, 0x7d, 0x82, 0x6a, 0x55,
  0x91, 0x8d, 0x86, 0x75, 0x9c, 0x6e, 0x6b, 0x6f, 0x56, 0x74, 0x88, 0x9d,
  0x7f, 0x78, 0x7b, 0x61, 0x86, 0x70, 0x9d, 0x9b, 0x76, 0x54, 0x6e, 0x95,
  0x89, 0x7e, 0x98, 0xae, 0x85, 0x5d, 0x81, 0x5f, 0x7f, 0x87, 0x98, 0x8a,
  0x86, 0x66, 0x86, 0x81, 0x6c, 0x81, 0x98, 0x77, 0x92, 0x60, 0x77, 0x79,
  0x6c, 0x8e, 0x88, 0x98, 0x84, 0x57, 0x7d, 0x7c, 0x7c, 0x8c, 0x79, 0x82,
  0x8f, 0x6f, 0x87, 0x7b, 0x6b, 0x71, 0x83, 0x88, 0x75, 0x6c, 0x80, 0x86,
  0x94, 0x73, 0x77, 0x80, 0x80, 0x97, 0x8d, 0x93, 0x5b, 0x68, 0x89, 0xb3,
  0x91, 0x7b, 0x85, 0x85, 0x8c, 0x74, 0x84, 0x87, 0xad, 0x8e, 0x81, 0x83,
  0x58, 0x74, 0x37, 0x59, 0x8a, 0x72, 0x9e, 0x75, 0x51, 0x81, 0x17, 0x53,
  0x9c, 0x7d, 0xa7, 0x6d, 0x4e, 0x7b, 0x40, 0x8b, 0x82, 0x6c, 0x86, 0x77,
  0x4c, 0x8f, 0x4f, 0x83, 0xa3, 0x7a, 0x90, 0x66, 0x7d, 0x71, 0x44, 0x90,
  0xb2, 0x57, 0xce, 0x5d, 0x72, 0x7a, 0x4c, 0x7f, 0xa4, 0x67, 0xc9, 0x4e,
  0x59, 0x84, 0x62, 0x75, 0x80, 0x7e, 0x94, 0x7b, 0x59, 0x93, 0x79, 0x81,
  0x8e, 0x83, 0x4d, 0x5e, 0x87, 0x7e, 0x87, 0x7d, 0xa6, 0x7a, 0x4f, 0x72,
  0x55, 0x71, 0x7f, 0x8f, 0x98, 0x78, 0x6d, 0x8c, 0x69, 0x7d, 0xac, 0x96,
  0x7b, 0x6d, 0x7a, 0x7f, 0x88, 0x7b, 0xa6, 0x9b, 0x93, 0x67, 0x73, 0x8a,
  0x95, 0x7b, 0x98, 0x97, 0x89, 0x62, 0x69, 0x98, 0x86, 0x71, 0xa2, 0x98,
  0x79, 0x6f, 0x8b, 0x76, 0x87, 0x9b, 0x8a, 0x9a, 0x58, 0x56, 0x75, 0x79,
  0x80, 0x81, 0x70, 0x91, 0x6f, 0x72, 0x87, 0x74, 0x7f, 0x66, 0x6b, 0x7a,
  0x89, 0x70, 0x82, 0x84, 0x8a, 0x71, 0x74, 0x82, 0x85, 0x7d, 0x89, 0x92,
  0xa5, 0x6d, 0x71, 0xb3, 0x7b, 0x94, 0x78, 0x67, 0x66, 0x66, 0x71, 0x93,
  0x76, 0x8a, 0x70, 0x8e, 0x5d, 0x7d, 0x45, 0x63, 0xab, 0x79, 0xa6, 0x6c,
  0x44, 0x7a, 0x07, 0x58, 0x7e, 0x83, 0xae, 0x50, 0x74, 0x86, 0x32, 0x88,
  0xa5, 0x61, 0xa2, 0x78, 0x6c, 0x76, 0x4b, 0x88, 0xae, 0x93, 0x8f, 0x70,
  0x44, 0x6c, 0x42, 0x8d, 0xb9, 0x6d, 0xc8, 0x49, 0x6d, 0x85, 0x43, 0x96,
  0xac, 0x5b, 0xcd, 0x53, 0x6a, 0x8b, 0x6f, 0x60, 0x8a, 0x7e, 0x9d, 0x6a,
  0x6a, 0x83, 0x7c, 0x91, 0x81, 0x88, 0x5d, 0x88, 0x9b, 0x92, 0x84, 0x8f,
  0xa1, 0x78, 0x5f, 0x75, 0x92, 0x72, 0x92, 0x85, 0x8e, 0x7c, 0x7f, 0x6a,
  0x8a, 0x65, 0xab, 0x99, 0x85, 0x77, 0x67, 0x78, 0x59, 0x75, 0xa6, 0x8b,
  0x88, 0x6e, 0x68, 0x68, 0x70, 0x6c, 0x99, 0x99, 0x80, 0x71, 0x80, 0x56,
  0x7b, 0x8e, 0x9c, 0x9e, 0x98, 0x75, 0x7a, 0x7a, 0x60, 0x7d, 0xa4, 0x87,
  0x69, 0x60, 0x70, 0x6f, 0x60, 0x80, 0xa0, 0x94, 0x6c, 0x7f, 0x83, 0x7f,
  0x83, 0x75, 0xa5, 0x94, 0x7b, 0x70, 0x81, 0x8a, 0x64, 0x80, 0x74, 0x7b,
  0x80, 0x7b, 0x72, 0x7f, 0x7f, 0x79, 0x7c, 0xc2, 0xa8, 0x8b, 0x5e, 0x92,
  0x96, 0x8b, 0x77, 0x8f, 0x91, 0x90, 0x74, 0x6b, 0x88, 0x81, 0x44, 0x72,
  0xa3, 0x8a, 0xa2, 0x46, 0x70, 0x7f, 0x24, 0x54, 0x87, 0x80, 0xa9, 0x4d,
  0x61, 0x7d, 0x3e, 0x6b, 0x93, 0x6b, 0x9a, 0x77, 0x57, 0x82, 0x38, 0x73,
  0xac, 0x72, 0x8e, 0x93, 0x7d, 0x80, 0x4a, 0x7d, 0xc5, 0x58, 0xd4, 0x71,
  0x50, 0x6e, 0x4a, 0x96, 0xa2, 0x53, 0xc8, 0x4e, 0x58, 0x92, 0x5f, 0x77,
  0x86, 0x7f, 0x9e, 0x67, 0x6e, 0x93, 0x85, 0x85, 0xaa, 0x85, 0x5f, 0x65,
  0x78, 0x9b, 0x92, 0x99, 0x8c, 0x85, 0x46, 0x7c, 0xa1, 0x7d, 0xa7, 0x8e,
  0xa2, 0x74, 0x63, 0x7d, 0x67, 0x74, 0xb1, 0x91, 0x8f, 0x72, 0x82, 0x7a,
  0x70, 0x71, 0x9e, 0xa6, 0x80, 0x6c, 0x75, 0x62, 0x70, 0x72, 0xa0, 0x93,
  0x7e, 0x72, 0x76, 0x88, 0x89, 0x63, 0x97, 0x95, 0x84, 0x65, 0x8e, 0x64,
  0x7e, 0x77, 0xad, 0x95, 0x6d, 0x74, 0x80, 0x7b, 0x66, 0x85, 0x95, 0x94,
  0x86, 0x80, 0x89, 0x84, 0x68, 0x89, 0x6f, 0x89, 0x7c, 0x6b, 0x85, 0x94,
  0x87, 0x77, 0x71, 0x87, 0x8e, 0x9b, 0x71, 0x7b, 0x71, 0x89, 0x80, 0xad,
  0x8f, 0x83, 0x7e, 0x68, 0xa6, 0x6d, 0x7f, 0x72, 0x96, 0x95, 0x77, 0x66,
  0x6f, 0x87, 0x46, 0x45, 0x82, 0x86, 0xa2, 0x62, 0x69, 0x7e, 0x18, 0x4f,
  0x98, 0x62, 0xa8, 0x35, 0x4b, 0x9d, 0x2d, 0x58, 0x95, 0x5f, 0x9b, 0x59,
  0x5e, 0x7a, 0x48, 0x8c, 0xb3, 0x76, 0x8e, 0x72, 0x46, 0x73, 0x33, 0x8d,
  0xc8, 0x54, 0xde, 0x52, 0x57, 0x95, 0x53, 0x8c, 0xa2, 0x5a, 0xcf, 0x76,
  0x4f, 0x92, 0x57, 0x84, 0x94, 0x78, 0x9a, 0x54, 0x4b, 0xa2, 0x8e, 0x8e,
  0xa3, 0x8d, 0x55, 0x7b, 0x74, 0x81, 0x85, 0x88, 0xa1, 0x88, 0x4d, 0x8d,
  0x5b, 0x76, 0xa1, 0x84, 0x9a, 0x7f, 0x71, 0x78, 0x8b, 0x73, 0xab, 0xa1,
  0x85, 0x7e, 0x6a, 0x65, 0x52, 0x7d, 0xb0, 0xa8, 0x82, 0x6f, 0x76, 0x8e,
  0x77, 0x6c, 0xa5, 0x8f, 0x7f, 0x80, 0x7b, 0x5c, 0x92, 0x6d, 0x9e, 0x9d,
  0x6d, 0x67, 0x8b, 0x8d, 0x99, 0x7c, 0xa3, 0x98, 0x83, 0x66, 0x74, 0x73,
  0x5e, 0x6e, 0x84, 0x98, 0x75, 0x7b, 0x7f, 0x8a, 0x67, 0x7b, 0x64, 0x84,
  0x68, 0x5e, 0x7a, 0x94, 0x8f, 0x8d, 0x70, 0x78, 0x8a, 0x8a, 0x95, 0x89,
  0x5f, 0x87, 0x81, 0xaf, 0x9c, 0xa6, 0x81, 0x7f, 0x8d, 0x6d, 0x74, 0x8f,
  0xa4, 0xa7, 0x66, 0x9b, 0x6f, 0x87, 0x3d, 0x46, 0x6f, 0x8a, 0xaa, 0x52,
  0x49, 0x81, 0x10, 0x54, 0x8c, 0x5a, 0xac, 0x2f, 0x72, 0x9c, 0x3f, 0x59,
  0x9f, 0x63, 0xa1, 0x5a, 0x4a, 0x71, 0x43, 0x8a, 0xbb, 0x5a, 0x9b, 0x6b,
  0x57, 0x7b, 0x4a, 0xa7, 0xbd, 0x49, 0xd6, 0x40, 0x3e, 0x99, 0x4a, 0x8c,
  0xbb, 0x53, 0xc6, 0x6a, 0x65, 0x94, 0x57, 0x81, 0x82, 0x7e, 0x96, 0x4c,
  0x63, 0x9d, 0x77, 0x82, 0xa3, 0x8b, 0x70, 0x53, 0x77, 0x78, 0x8a, 0x89,
  0x9e, 0x8b, 0x56, 0x67, 0x94, 0x80, 0x8e, 0x8b, 0xa4, 0x8f, 0x71, 0x71,
  0x90, 0x7b, 0xb4, 0xa2, 0x7f, 0x74, 0x73, 0x7f, 0x99, 0x84, 0xb7, 0x9b,
  0x89, 0x74, 0x6f, 0x7c, 0x8f, 0x62, 0xa2, 0x9b, 0x6c, 0x6e, 0x75, 0x71,
  0x52, 0x6b, 0x90, 0xa5, 0x83, 0x6a, 0x77, 0x60, 0x8a, 0x79, 0xb5, 0x8d,
  0x62, 0x63, 0x74, 0x87, 0x6a, 0x75, 0xa0, 0x7d, 0x5b, 0x7a, 0x8c, 0x7c,
  0x7f, 0x72, 0x84, 0x7e, 0x89, 0x5e, 0x8a, 0x87, 0x6d, 0x8f, 0x73, 0x7c,
